#version: 0.2
t h
i n
e n
s t
a n
r o
th e</w>
e r
p o
a t
t o</w>
r e
o u
o n
a l
i t
a r
o n</w>
n e
o v
l e
o u</w>
i c
o r
o f</w>
s e</w>
e d</w>
a t</w>
in g</w>
e r</w>
c h</w>
o m
c h
r a
s e
o d
n í</w>
i n</w>
i on</w>
n o
an d</w>
p ro
e l
p ř
l a
i s</w>
l e</w>
e d
o r</w>
l i
e s</w>
a l</w>
h o</w>
n a</w>
s t</w>
j e</w>
i t</w>
o b
c e</w>
i s
i l
a d
a k
e n</w>
p r
v e</w>
e m
y ou</w>
en í</w>
ž e</w>
s k
t i
a c
a n</w>
a s</w>
d o
u r
T h
a b
n í
m e</w>
e c
l o
l y</w>
t er
i d
u n
t e
s h
th at</w>
a m
e t
en t</w>
o l
u d
en t
at ion</w>
á v
b y</w>
w h
a s
d o</w>
2 0
' s</w>
f or</w>
t o
r i
a p
v y
b e</w>
o p
b y
s u
n ě
er e</w>
ý ch</w>
a k</w>
m o
d e
a v
n ě</w>
c on
k y</w>
í m</w>
v ě
u t
j e
r u
h a
p l
n á
po d
i m
b e
s i</w>
n a
př í
i on
d i
m ě
f or
n é</w>
a g
ř í
e m</w>
a y</w>
k u</w>
l a</w>
se m</w>
g h
é ho</w>
v ý
it h</w>
u l
e s
al l</w>
ou t</w>
u s
w ith</w>
r an
. .
20 0
l á
c om
m i</w>
n i
ř e
Th e</w>
p ra
d ě
e t</w>
i st
r á
l u
v á
t e</w>
e x
k ter
ro z
z a
j sem</w>
i v
.. .</w>
e v
m e
l d</w>
s p
ar e</w>
o d</w>
j í
st i</w>
no t</w>
r t
w as</w>
' t</w>
n 't</w>
j í</w>
h od
i l</w>
f i
s ou
n o</w>
ou ld</w>
h o
it y</w>
c t
pr o</w>
t a
s po
p ar
gh t</w>
d u
c i</w>
e st
ou r</w>
ne b
th is</w>
p e
s a
z á
c o</w>
at e</w>
th e
q u
W h
t y</w>
th er</w>
á ní</w>
t ak
u t</w>
Y ou</w>
o k
t ě
u m
ha ve</w>
ic e</w>
k on
on e</w>
l o</w>
j ak
o t
m y</w>
ic h</w>
h e</w>
z e</w>
C om
l i</w>
neb o</w>
j s
m a
st an
c i
s i
k a
k d
ou n
e a
k a</w>
r e</w>
n e</w>
z ení</w>
v e
g o
j ed
ion s</w>
p er
f f
m u</w>
ic k
no w</w>
f in
p re
A n
c í</w>
pra v
m í
pr áv
f ro
S t
u st</w>
N o</w>
i d</w>
m ent</w>
s l
t s</w>
v o
r y</w>
u je</w>
ur e</w>
k o
la d
st á
fro m</w>
e l</w>
ní ch</w>
k e</w>
n y</w>
il l</w>
př ed
š í</w>
le d
b ud
m in
an t</w>
er s</w>
h i
l en
I t</w>
Com m
ý m</w>
u p
z a</w>
př i
n á</w>
t u</w>
e g
in g
v í
a u
á d
ro v
u p</w>
b er</w>
t ě</w>
y our</w>
ent s</w>
T o</w>
á l
el l</w>
v š
w or
i es</w>
P ro
v ed
v í</w>
no sti</w>
v id
b o
ří zení</w>
c í
n ý</w>
é m</w>
s ion</w>
u ž
c e
w e</w>
po s
for m
t ed</w>
un d
t er</w>
re g
b ý
ad y</w>
á m</w>
t r
v i
20 1
ní m</w>
t ak</w>
m ů
m ě</w>
en d
js ou</w>
s o</w>
ní ho</w>
th ing</w>
t i</w>
ov ání</w>
al e</w>
ou r
A rt
o h
N e
bý t</w>
z d
s v
ro p
Art ic
or d
k u
p la
i r
an ce</w>
Wh at</w>
k now</w>
p ad
z n
wh ich</w>
le č
' m</w>
j i</w>
c an</w>
al a</w>
jak o</w>
al ly</w>
ř ed
n ut
kter é</w>
C h
m i
' re</w>
c o
e y</w>
d ob
en ce</w>
w n</w>
i r</w>
c a
s s</w>
u s</w>
re d</w>
o z
no st</w>
Artic le</w>
t ra
l l</w>
u b
em ber</w>
s om
v z
wh at</w>
ov at</w>
sk é</w>
sh all</w>
s y
d a
ov é</w>
com p
v er
h is</w>
ab y</w>
g ra
at ed</w>
v a
d e</w>
á z
st e</w>
m y
t ro
ar y</w>
ar d</w>
st av
e k
n ou</w>
s ob
en é</w>
er v
is sion</w>
an y</w>
s o
jí cí</w>
pro du
ú č
po r
i se</w>
E u
g u
w e
it s</w>
i ve</w>
t ion</w>
ř e</w>
hi m</w>
i c</w>
v el
o ther</w>
p a
sp ec
at ions</w>
c el
the y</w>
ha d</w>
ab le</w>
stan ov
or e</w>
st at
p ů
J e</w>
i e</w>
h er</w>
or g
y ž</w>
mo h
b ut</w>
le d</w>
su b
w ill</w>
ac c
t u
i f</w>
re c
y s</w>
li ke</w>
H e</w>
j si</w>
l ou
s id
s lu
se s</w>
P o
ti on
an d
ab out</w>
C o</w>
th ere</w>
le s</w>
h e
f a
j ust</w>
An d</w>
ov an
g et</w>
d is
e k</w>
n ých</w>
Comm ission</w>
k lad
d ů
il a</w>
Eu ro
e j
s m
be en</w>
E v
k ů</w>
o w</w>
ion al</w>
po l
v od
h ere</w>
h as</w>
m us
R eg
K om
j ak</w>
in e</w>
e ch
n at
in ter
c er
w ere</w>
g h</w>
po t
pl at
č ní</w>
in c
st ví</w>
l é
n i</w>
di d</w>
ic i
le a
ul ation</w>
I n
ri ght</w>
ř ení</w>
sh ould</w>
m at
ti ve</w>
w ould</w>
m ar
by l</w>
ře b
re s</w>
u st
Euro pe
g e</w>
l í
W e</w>
E U</w>
l ov
Europe an</w>
roz hod
b le</w>
t y
d u</w>
vě t
se l
r at
u ved
pro st
1 9
st up
Th is</w>
t ing</w>
h u</w>
m á
í š</w>
w i
w ay</w>
v ol
č len
e le
o m</w>
t om
z em
Ev rop
n ého</w>
ž en
p o</w>
k ov
m on
c t</w>
i g
ti me</w>
l at
d ec
ž d
j in
st í</w>
m an
po už
č í
N e</w>
ac k</w>
I n</w>
j i
in k</w>
ne j
ap p
m u
fin an
a z
c ov
e p
b ě
sy st
o k</w>
h le</w>
ing s</w>
i z
0 0</w>
ag e</w>
a d</w>
Th at</w>
em ent</w>
' ll</w>
po rt
spo leč
the ir</w>
ti v
s ch
r y
v al
v is
m ore</w>
ar d
in form
c es
em e</w>
pl ic
M ember</w>
nut í</w>
t v
by lo</w>
or y</w>
p at
ý mi</w>
re f
en er
m á</w>
by la</w>
sh e</w>
ne d</w>
le g
j ec
kd yž</w>
at es</w>
U n
b od
Reg ulation</w>
mo ž
A le</w>
ne ž</w>
it ies</w>
a st
lo w
s le
t h</w>
g o</w>
th em</w>
com m
a f
c ould</w>
go t</w>
ro b
m ay</w>
n u</w>
na řízení</w>
d om
el y</w>
t en
j en</w>
d í
j ste</w>
in to</w>
o se</w>
ál ní</w>
js me</w>
po z
h la
E C</w>
e ch</w>
Kom ise</w>
ak e</w>
re qu
č á
kd y</w>
ol d</w>
me z
e z
n ov
t a</w>
ct ion</w>
k s</w>
í ch</w>
et e</w>
n ic
E S</w>
k ing</w>
par t
f e
o t</w>
se e</w>
bud e</w>
lo ž
it el
s erv
y t
u jí</w>
dě l
li d
é mu</w>
B ut</w>
n ení</w>
p an
op er
ř í</w>
f u
for e</w>
som e
s c
w a
a m</w>
b et
ea h</w>
u ž</w>
je ho</w>
pří pad
cí ch</w>
wh ere</w>
k á
le t</w>
mů že</w>
t ran
st ru
ž ád
tion s</w>
c k</w>
wi th
m ent
ne k</w>
š e</w>
u m</w>
pr á
wh en</w>
t ý
al i</w>
to ho</w>
O h</w>
e j</w>
ů m</w>
pod le</w>
ře k
m ents</w>
ap plic
th ink</w>
ku d</w>
ž iv
w o</w>
š tě</w>
d ne</w>
š ení</w>
r ž
d v
to m</w>
sa id</w>
spec i
en ti
kter ý</w>
m é
t ur
w ho</w>
ac í</w>
t en</w>
j á</w>
r it
er i
th an</w>
f o
do wn</w>
' ve</w>
t ri
pre s
d it
en c
s mě
th er
t é
stá t
w ant</w>
b ack</w>
ně ní</w>
g re
ub li
b u
m ust</w>
m an</w>
th or
č en
č in
mus í</w>
je j
il y</w>
on ly</w>
1 0</w>
it u
š tě
fi r
m en
k do</w>
y ing</w>
od po
op at
I f</w>
ř i</w>
po k
z áv
er ed</w>
D o</w>
e st</w>
t ím</w>
st a
pro gra
ick é</w>
ev er</w>
l ud
es s</w>
Y eah</w>
s í
ud ě
ro u
v y</w>
j ist
st ar
r n
vš ech
z k
st ran
člen sk
zn am
my sl
ře j
f f</w>
u se</w>
li v
u res</w>
d y</w>
J á</w>
d á
e č
ic h
e ar
ic al</w>
f ac
uved en
por t</w>
pro vid
p le
n ing</w>
en d</w>
č lá
ra v
ou s</w>
d ru
si g
st o
v lá
St ates</w>
at el
rozhod nutí</w>
kter á</w>
und er</w>
s led
le m</w>
prost řed
P ar
p á
ch od
ci al</w>
su p
D i
n it
tak e</w>
ch an
no t
un d</w>
ea r</w>
ne v
ov er</w>
la st
our t</w>
d al
pr i
D ob
1 0
wor k</w>
pů sob
b r
il i</w>
ta m</w>
f ic
p h
ka z
by ch</w>
au thor
ně co</w>
ro d
J o</w>
k om
mí st
in v
se t</w>
som e</w>
vá m</w>
lo g
ž ad
su ch</w>
au se</w>
l ing</w>
ra z
k em</w>
is ion</w>
ne w</w>
l in
z am
z av
po kud</w>
t al
pro b
T ak</w>
od st</w>
re e</w>
il ity</w>
on g</w>
f e</w>
b ec
d ing</w>
c en
com e</w>
me as
P r
M ar
ev er
de m</w>
ov á
Th ey</w>
le t
m ad
ag a
b or
p ě
g ro
h el
v in
š t
f ol
ap pro
S po
k ol
th ose</w>
al o</w>
př i</w>
č ení</w>
S o</w>
M o
c re
s ure</w>
ž e
M a
ra l</w>
do es</w>
la r</w>
i a</w>
p í
t re
po č
ná m
st ro
při j
B y
A no</w>
ho w</w>
t ady</w>
po ř
re s
c oun
př e
zá klad
jej ich</w>
vě d
th ou
be z
a r</w>
org á
b as
č l</w>
u j
19 9
go ing</w>
pr v
S he</w>
ff ec
r u</w>
opat ření</w>
W ell</w>
u d</w>
a ž</w>
n áv
slu š
z ab
C on
po sk
d at
p en
al so</w>
m lu
an y
k te
s ed</w>
ne ed</w>
ac i</w>
s on</w>
č i</w>
al s</w>
go od</w>
mar k
l it
n out</w>
in y</w>
am i</w>
k o</w>
or s</w>
Evrop sk
P ok
ov er
in st
C oun
k ou</w>
us ed</w>
c ar
c es</w>
ref er
nat ional</w>
in t</w>
J ak</w>
d a</w>
inform ation</w>
za h
t wo</w>
an s</w>
c ed
P ř
ta in</w>
k t
th en</w>
a ce</w>
o s
mez i</w>
Un ion</w>
200 6</w>
m ov
te č
o ff
ni c</w>
' d</w>
j en
sou d
ř en
und er
mě l</w>
člá n
te ch
V y
vý rob
č í</w>
fir st</w>
o w
ž it
m il
á ř
requ i
p ubli
T ak
t le</w>
the se</w>
vo z
Comm un
ne ch
př ed</w>
le p
b el
po u
c ur
š í
be fore</w>
2 0</w>
e f
d ay</w>
P od
M y
sel f</w>
ne z
m ed
v ů
Th ere</w>
posk yt
per i
o ch
m ake</w>
e p</w>
ic es</w>
h y</w>
by ly</w>
ca se</w>
it i
mad e</w>
po mo
pří sluš
ž í</w>
c il</w>
org an
k rá
f un
St ate</w>
d ov
an i</w>
con cer
ho to</w>
bod y</w>
vá s</w>
st r
c ent
p i
inv est
b i
it e</w>
vá dě
en ství</w>
Coun cil</w>
acc ord
Y es</w>
ob la
inc lud
ch y
to že</w>
m al
we en</w>
d s</w>
ov á</w>
t řeb
H ow</w>
no stí</w>
N a</w>
d áv
’ s</w>
D o
fi ed</w>
an t
N a
š el</w>
om e</w>
I I</w>
K d
n ým</w>
ro n
h y
l s</w>
E U
ve řej
i ght</w>
n av
c al
ord er</w>
ces s
s am
p ur
ka žd
op le</w>
it ion</w>
an k</w>
a re
bet ween</w>
s ur
rec tive</w>
g e
a se</w>
to hoto</w>
j de</w>
vě dě
p is
p ac
z působ
f t</w>
u e</w>
Č lá
fol low
af ter</w>
c a</w>
1 2</w>
in a</w>
jí t</w>
o sob
h ra
200 7</w>
la w</w>
í t</w>
Pok ud</w>
te ď</w>
su l
v last
Člá nek</w>
ra p
ver y</w>
s ay</w>
ce p
jí cích</w>
ta in
pra cov
případ ě</w>
d an
v en
a ro
c la
í te</w>
sh i
A l
in f
h app
ex ist
sk u
ou p
to o</w>
D ec
some thing</w>
a i
n or
z mě
Spo leč
m a</w>
J e
r a</w>
st ud
ov al</w>
c ed</w>
in ce</w>
a ch
l ic
n it</w>
pod ni
u jící</w>
pe č
c um
pot řeb
R e
l u</w>
je ště</w>
ct s</w>
at ing</w>
in for
s práv
d ic
il o</w>
mů ž
N em
lad u</w>
té to</w>
á t
con t
o c
p lo
n ap
ar i
sku teč
h led
li m
Commun ity</w>
V ý
rá m
ná m</w>
d ra
oun t</w>
k la
v á</w>
ti l</w>
m od
g on</w>
hod no
tom u</w>
spo n
m s</w>
w ell</w>
st ra
úč in
e ffec
m ám</w>
v nit
r is
d re
pe ople</w>
ro u</w>
kd e</w>
í me</w>
o ff</w>
ur č
re as
ear s</w>
pod po
ap it
meas ures</w>
th rou
sid e</w>
200 9</w>
le dem</w>
lo w</w>
rn ice</w>
t ell</w>
s on
an e</w>
ti es</w>
n al</w>
ut ion</w>
k ed</w>
ch u</w>
j ů</w>
sou ladu</w>
ří k
O k
d en</w>
ch áz
Di rective</w>
so ci
u lar</w>
si ble</w>
di ff
nev er</w>
g er</w>
pro ced
č as
al o
le ss</w>
ko li
c lo
ě l</w>
j ší</w>
3 0</w>
g et
n u
E N
200 4</w>
at o</w>
d er</w>
jec t</w>
pr ů
ev en</w>
en á</w>
k r
A ll</w>
1 1</w>
e b
h or
le v
E x
al i
1 5</w>
B o
w an
ů j</w>
sv é</w>
with in</w>
M y</w>
č e</w>
t á
m et
is ed</w>
par ag
h em</w>
z í
š k
Wh y</w>
re spon
n ad
s pod
y ears</w>
id e</w>
lea se</w>
k ro
200 8</w>
ab y
d od
je k
po žad
ž ení</w>
ú da
lo c
g ener
ard s</w>
k no
w s</w>
lit tle</w>
d ne
h ol
u k
es s
H ey</w>
min ist
L o
in d</w>
ně jak
li st
sp ě
p e</w>
obla sti</w>
ab li
re ally</w>
och ran
s il
throu gh</w>
v a</w>
pod mí
ob sa
200 5</w>
pro vis
part ic
ná s</w>
pla ce</w>
tran s
k e
dru h
le žit
ch ar
Dob ře</w>
j em
s en
zam ě
est abli
ho spod
l ar
Pro č</w>
r d
1 2
ea d</w>
řek l</w>
j ud
p ec
ff ici
b ro
mě la</w>
comp et
la l</w>
st ej
pro vádě
smě rnice</w>
pl á
Ok ay</w>
moh ou</w>
p le</w>
r ů
př es
h lá
s or
it ed</w>
m p
ud e</w>
infor ma
kon tro
j o
Společ enství</w>
š en
z vlá
con sid
t í</w>
ní mi</w>
R oz
Evrop ské</w>
pro s
a id</w>
lo ok
vy š
ma jí</w>
ov ých</w>
w at
N ě
e qu
1 .
ovan é</w>
T o
ut e</w>
mo st</w>
t ry</w>
Com e</w>
al y</w>
hla v
T y</w>
f ri
enc y</w>
t vo
J ak
ž á
t ec
i e
O d
mark et</w>
tý ka
m is
hospod ář
5 0</w>
po ru
š i</w>
as se
st ill</w>
end ed</w>
c ů</w>
ní k</w>
prav id
lá d
bec ause</w>
sk ých</w>
s vět
ná ní</w>
My sl
me an</w>
F or</w>
tě ch
av ing</w>
ic k</w>
st s</w>
ther e
c or
Kd yž</w>
bez peč
Wh ere</w>
S ou
A r
fu l</w>
mlu v
i le</w>
rap h</w>
udě l
základ ě</w>
ick ých</w>
O b
s ol
accord ance</w>
mí t</w>
o wn</w>
mu ch</w>
člán ku</w>
stá ty</w>
ov ý</w>
sa me</w>
ne s
dat a</w>
c ol
s itu
těch to</w>
dec ision</w>
n um
o l</w>
v at</w>
vz ta
progra m
d lou
- -</w>
C o
do hod
ř et
ple ment
i i</w>
poř ád
s w
vi e
z na
e c</w>
do st
R O
rám ci</w>
je st
E n
g a
qu est
pol ic
h er
M us
b re
g ran
třeb a</w>
c est
be z</w>
do st</w>
m es</w>
všech ny</w>
de fin
x t</w>
s ist
C O
pou ze</w>
te m</w>
p ak</w>
n ém</w>
follow ing</w>
la st</w>
leg al</w>
c ourt</w>
oun d</w>
i m</w>
201 1</w>
č et
lo ok</w>
pří prav
fi c</w>
vá ní</w>
in u</w>
ever y
con dit
f ul
sk ého</w>
j te</w>
T I
á š</w>
stanov en
ů ž
EU R</w>
práv a</w>
š ím</w>
m ak
m no
dal ší</w>
re l
par t</w>
201 0</w>
pro tože</w>
l ong</w>
h a</w>
is h</w>
parag raph</w>
d el
re ady</w>
an é</w>
jed not
R ady</w>
sk á</w>
el a</w>
b an
1 3</w>
k ou
ob chod
de vel
s s
z en
pří m
mé na</w>
práv ní</w>
ž al
po vin
be ing</w>
pan e</w>
in t
I S
I s</w>
im port
pro tec
ea ch</w>
M r
al ity</w>
b ot
dob r
se d
li fe</w>
aga in</w>
g ed</w>
establi sh
E N</w>
informa ce</w>
1 4</w>
v ím</w>
moh l</w>
ná klad
d rž
V š
b ou</w>
An ne
to hle</w>
produ cts</w>
pří lo
e y
o stat
ne cess
pro ti</w>
g ive</w>
ur ing</w>
h ov
no st
tak é</w>
ch tě
z i
applic ation</w>
in á
ce ed
t ru
wa ys</w>
b en
v al</w>
i č
4 .
diff er
peri od</w>
dů vod
C ourt</w>
1 3
á d</w>
J sem</w>
h ou
ji ště
i p
thou ght</w>
ter s</w>
n ky</w>
stanov ení</w>
í m
do k
z at
vš ak</w>
sk ý</w>
0 00</w>
S e
l y
p ut</w>
with out</w>
mo c</w>
D ě
S h
živ ot
o te
do ing</w>
o od</w>
g iv
E S
201 3</w>
ec on
Tak že</w>
o sti</w>
pra c
op rav
appro pri
is su
pr in
finan cial</w>
U ž</w>
provid ed</w>
b a</w>
hel p</w>
b al
ob dob
na me</w>
oh led
partic ular</w>
fin d</w>
ž ně</w>
kd y
mat eri
H el
ma in
N ow</w>
ve l</w>
j ení</w>
re m</w>
syst em</w>
a ut
n ů</w>
ct or</w>
y ear</w>
I N
po st
náv r
ch il
ej ména</w>
J ed
l ine</w>
per son
ir d</w>
Anne x</w>
f il
re lev
E C
1 8</w>
b u</w>
na d</w>
con tro
ot áz
a ch</w>
všech no</w>
ou t
k é</w>
h al
vě ř
použ í
publi c</w>
k á</w>
p as
x im
pod ob
do cum
L i
e š</w>
re spec
ag re
b er
ad op
lé č
se t
dob ře</w>
prá ce</w>
vš ech</w>
devel op
gh ts</w>
áv ání</w>
po va
po int</w>
m en</w>
ne r</w>
A s</w>
l ze</w>
at ive</w>
it í</w>
te e</w>
č er
ni e</w>
F ran
h ar
2 5</w>
200 3</w>
ic i</w>
ac tiv
u c
ru les</w>
necess ary</w>
refer red</w>
l an
vě ci</w>
N ot</w>
pod í
š ť
th ree</w>
num ber</w>
k y
b ur
lov e</w>
ro ku</w>
sk up
je jí</w>
ri b
or u</w>
ra d
z ejména</w>
A N
o st</w>
et y</w>
i ent
n an
wh y</w>
d r
d ate</w>
spo lu
li g
t al</w>
N i
m er
ně ž</w>
an other</w>
P ří
re lat
slu ž
v r
ž ná</w>
ro k</w>
Wh en</w>
st řed
za ce</w>
zamě st
is ation</w>
před stav
en ed</w>
1 6</w>
y be</w>
ni ght</w>
vie w</w>
ent ly</w>
O n</w>
kol i</w>
im plement
po w
o č
e se</w>
m g</w>
se con
an g
2 .
0 0
n am
a way</w>
s h</w>
urč it
od y</w>
ch la
t ed
c ení</w>
er y</w>
č erv
mů j</w>
č ních</w>
do t
for m</w>
aro und</w>
T e
bud ou</w>
p end
reg ist
shi p</w>
ad minist
ry ch
un ie</w>
o le</w>
po stup
b ility</w>
L et</w>
te k</w>
h ead</w>
ch o
á h
d ro
p ed</w>
h uje</w>
vy k
l on
á t</w>
od s</w>
ni kdy</w>
před pis
člensk ých</w>
u al</w>
1 7</w>
pro f
in st</w>
f er
sk o</w>
n ab
tak en</w>
b in
fic ation</w>
čá st
te be</w>
v rá
201 2</w>
s ad
s er
at iv
r en
po p
J ust</w>
dě lá
wh e
author ities</w>
pro ces
ter min
tak ing</w>
kte ří</w>
ov e</w>
aga inst</w>
ap pe
úč ast
re sul
stan d
bet ter</w>
r ic
zí sk
t old</w>
áv á</w>
l h
is h
ac tion</w>
ov ého</w>
n ice</w>
obdob í</w>
c ap
om e
pro to</w>
me ans</w>
by t
po d</w>
jed n
includ ing</w>
z ap
tak y</w>
p er</w>
g en
t el
o li
požad av
a sk
J en</w>
pl an
j d
F in
žal ob
mi ght</w>
pos led
man ag
r ation</w>
Z a
Ř ek
cer tain</w>
jí cí
už í
f on
h um
ov u</w>
ri ed</w>
ab ility</w>
ro stát
má š</w>
ich ni</w>
od e</w>
áv a
f ound</w>
ov i</w>
em s</w>
ří ct</w>
d em
condit ions</w>
mě sí
jest li</w>
m any</w>
b ar
od stav
ar t</w>
in di
requi re
pos sible</w>
b us
econ om
p li
my sle
s im
rat eg
uved ené</w>
an o</w>
ce š</w>
id enti
č it</w>
inst itu
con tra
é st</w>
ví ce</w>
3 1</w>
O N</w>
any thing</w>
ou gh</w>
n er
v ed</w>
pro ved
pro č</w>
š ích</w>
n s</w>
serv ices</w>
A re</w>
ty to</w>
ele m</w>
stru k
ž i
k apit
D e
E H
te le
á ch</w>
un i
t or</w>
b lo
odpo věd
a w
pos ed</w>
t ky</w>
prá ci</w>
y ment</w>
pat i
s ing</w>
reg ion
P ol
c ím</w>
re ct
oper ation</w>
d en
T H
j o</w>
k il
le vel</w>
k ur
že š</w>
h and
sl ov
je m</w>
su m
2 4</w>
W ho</w>
en a</w>
J o
te st
kte rou</w>
e u
vid ě
zvlá št
za č
g ir
Kom is
1 9</w>
A p
ent ion</w>
t on
al iz
bot h</w>
produ k
at t
concer ned</w>
spo r
ch om</w>
tom to</w>
op e</w>
chan ge</w>
vnit rostát
Dec ision</w>
T y
pol iti
E R
s ní
J est
pořád ku</w>
pro ceed
em ents</w>
di st
sk a</w>
In ter
li e</w>
bas is</w>
Y our</w>
1 4
f ra
zem í</w>
společ nosti</w>
ne do
av ai
in ess</w>
1 8
h ome</w>
T oh
ho j</w>
li ght</w>
ie ve</w>
by s</w>
d er
d ed</w>
avai la
č as</w>
te ch</w>
an i
kla d</w>
lo sti</w>
1 /
M ám</w>
Toh le</w>
A d
ex am
t řet
2 1</w>
ad v
ji m</w>
ev id
provis ions</w>
ň uje</w>
ok ay</w>
L e
j as
c all</w>
proced ure</w>
produ ct</w>
sk ou</w>
P řed
ob jec
b av
lep ší</w>
ov ala</w>
is l
vý še</w>
ad u</w>
Mysl ím</w>
pres ent
m it
g es</w>
G od</w>
s ud
prv ní</w>
ener g
c ou
ř ád
ne ed
k ové</w>
ně jší</w>
pod por
al ways</w>
f y</w>
u h</w>
um ent
li k
ob ec
z ů
w om
ten to</w>
čet ně</w>
en g
n ými</w>
1 7
ri zi
stanov í</w>
t ly</w>
jed no
li am
D í
ov ou</w>
th ings</w>
j ust
zd a</w>
an al
per son</w>
za ch
om o
m lou
tal k</w>
ac t</w>
c k
Mr .</w>
re ce
tr hu</w>
at y</w>
n on</w>
z ak
prin ci
G ener
d et
v četně</w>
ar m
ví š</w>
fa ce</w>
uj u</w>
1 6
c ri
reg ard</w>
dv a</w>
pa d</w>
Lo ok</w>
B ud
our s</w>
u plat
A hoj</w>
l ení</w>
pur po
sl y
b ra
c l
prav du</w>
in es</w>
it tee</w>
b or</w>
s is</w>
f am
ví c</w>
c our
oz nám
vy pad
ut es</w>
k am
ad dit
s y</w>
al ready</w>
orgá ny</w>
M i
z práv
u stanovení</w>
při po
jed en</w>
rov něž</w>
l od
da ys</w>
př ek
availa ble</w>
ty p
sor ry</w>
sl ou
3 .
y c
Mo žná</w>
Th ank</w>
re sid
acc ount</w>
To to</w>
1 5
b it
H ar
200 2</w>
no log
st and</w>
whe ther</w>
200 1</w>
und s</w>
Př i
B ru
d uring</w>
sou r
le r</w>
Th en</w>
2 2</w>
Z a</w>
f ur
c ing</w>
z ad
Ř í
le ft</w>
s vě
po h
in dic
th ird</w>
stá t</w>
m or
ne t
jin é</w>
z y</w>
pac ient
le ar
mož né</w>
tě ž
mé ně</w>
co sts</w>
st rateg
t ab
ma j
bě ž
R o
quest ion</w>
wh ile</w>
no thing</w>
en sure</w>
st e
ca me</w>
na š
a y
m ů</w>
G ood</w>
app ly</w>
speci fic</w>
ro ce</w>
appropri ate</w>
č il</w>
n en
je š</w>
zá kon
for ce</w>
ov ací</w>
V ě
aby ch</w>
li t</w>
podpo ry</w>
ord in
ně j</w>
č ního</w>
w ard</w>
se l</w>
p al
A c
relev ant</w>
oh ledem</w>
T re
t é</w>
ad ing</w>
b í
c at
stát ů</w>
ic s</w>
zem ě
med i
require ments</w>
vel mi</w>
proceed ings</w>
ct ed</w>
l é</w>
je ž</w>
J s
ted y</w>
m em
tri es</w>
Pr o</w>
K do</w>
st alo</w>
z nám
zk ou
wor ld</w>
ro om</w>
ne ss</w>
l and</w>
jed in
rá t</w>
po vol
lea st</w>
záv az
d one</w>
reg ul
Te ď</w>
mo je</w>
týka jící</w>
st u
at h</w>
secon d</w>
i ther</w>
end s</w>
př id
cont in
d í</w>
fo re
1 00</w>
Par liam
tur n</w>
S te
za řízení</w>
Evropsk ého</w>
z as
so b</w>
ra č
differ ent</w>
man ž
2 3</w>
pova ž
R ad
gre at</w>
ú rov
ka z</w>
ag es</w>
ji ž</w>
nab í
st up</w>
A R
cour se</w>
z v
ovan ých</w>
sv ou</w>
míst o</w>
C ar
stá tu</w>
th s</w>
ně kdo</w>
t ure</w>
h ledem</w>
tro chu</w>
sup port</w>
ick á</w>
s pl
ů vod
syst ému</w>
er ing</w>
ro w</w>
serv ice</w>
w al
p ust
b od</w>
od vět
B e
n ové</w>
contro l</w>
z vý
u ral</w>
pro voz
ou s
ká ch</w>
ever y</w>
in s</w>
or ig
u mož
min im
re du
ev rop
ne jsou</w>
pě t</w>
as k</w>
a ud
em i</w>
zd ro
kter ým</w>
kt ů</w>
on ce</w>
pů vod
d it</w>
4 0</w>
am ount</w>
odpo ví
ge ther</w>
P ře
ke ep</w>
Parliam ent</w>
slu že
K on
el i</w>
a st</w>
á l</w>
un til</w>
lov ě
di v
G re
ick ý</w>
giv en</w>
čí s
ben ef
K de</w>
/ EC</w>
lo st</w>
par ty</w>
en ing</w>
coun try</w>
coun tries</w>
M ě
s ince</w>
lh ů
ch ci</w>
H ow
J u
l ob
á r
By l</w>
roz vo
ní ků</w>
jed nou</w>
N ení</w>
nez byt
moh la</w>
hou se</w>
ac k
re port
a ir</w>
as i</w>
k at
rod ní</w>
gu y</w>
there fore</w>
ej te</w>
g g
tech nolog
T ady</w>
N o
P O
t em
bas ed</w>
nor m
ris k</w>
h and</w>
par la
e ho</w>
u ji</w>
to gether</w>
ma xim
applic able</w>
ne vy
Dob r
kter ých</w>
á me</w>
de termin
ří zen
stru ct
mě li</w>
id e
mo t
k ind</w>
p s</w>
st rá
S u
ne m</w>
děl at</w>
cur r
v žd
en ough</w>
m ember</w>
b a
ě ní</w>
si r</w>
hla s
ní mu</w>
vů li</w>
vi ron
de sig
b ran
vy s
et s</w>
le s
ca ses</w>
ci r
i li
respec t</w>
201 4</w>
by li</w>
K a
R E
over n
om ez
h aving</w>
2 8</w>
on s</w>
Comm ittee</w>
d ri
před lož
S T
přím o</w>
comp le
př est
J si</w>
s na
Gener al</w>
wan ted</w>
stran y</w>
in te
A g
jiště ní</w>
M ůž
en s</w>
D id</w>
provid e</w>
ok ol
m nou</w>
š it</w>
bel ieve</w>
val ue</w>
j im
tri b
má me</w>
evid ence</w>
za jist
ar t
ab ove</w>
sle du
200 0</w>
bě hem</w>
mi li
p ap
ro ss</w>
Pr áv
k ý</w>
sub ject</w>
G et</w>
ti c</w>
J oh
ko ho</w>
fri end</w>
ti mes</w>
bud u</w>
d am
c lud
par ties</w>
M an
ab ly</w>
u ch
sch op
sk u</w>
u r</w>
pomo c</w>
fe el</w>
t ví</w>
se ar
2 9</w>
uděl at</w>
econom ic</w>
o log
d á</w>
ac tions</w>
ob ě
s la
je v
z ni
po in
žen a</w>
e x</w>
v od</w>
sp e
ch ec
to ok</w>
develop ment</w>
c are</w>
be c</w>
U nie</w>
š lo</w>
po čí
bus iness</w>
cep t</w>
pos ition</w>
I II</w>
se cur
l ů</w>
finan ční</w>
i ble</w>
d ří
ma in</w>
ob lig
thou gh</w>
sa w</w>
in ed</w>
hlá šení</w>
c it
l ion</w>
tre at
pros ím</w>
n ich</w>
protec tion</w>
app li
V íš</w>
O r
Q u
M oh
2 7</w>
vy pl
sv ého</w>
t ato</w>
ř it</w>
con tain
m m</w>
P ot
mon ey</w>
mě st
ch ed</w>
Po j
indi vid
every thing</w>
c y</w>
te xt</w>
S ec
zaměst nan
á n</w>
em plo
j mé
můž u</w>
n ak
com ing</w>
vý m</w>
T en
do prav
G u
čá sti</w>
se en</w>
a j
enti al</w>
v ra
použ ití</w>
at ely</w>
fa r</w>
vědě t</w>
v en</w>
w ent</w>
om at
le j</w>
ic ky</w>
pol it
h lí
k new</w>
v es</w>
me th
ur y</w>
vědě l</w>
activ ities</w>
do kon
no ti
ně te</w>
roz poč
stan ce</w>
T ato</w>
in iti
b ers</w>
č lově
V z
m ně</w>
dů ležit
el i
w ar
C an</w>
syst é
enc es</w>
T en</w>
žád né</w>
zah á
re port</w>
m rt
Komis i</w>
s an
fac t</w>
d ou
Vš ech
2 6</w>
P lease</w>
c ul
č k
práv o</w>
hi gh</w>
pati ents</w>
en y</w>
du st
př ev
mě ly</w>
by chom</w>
comm un
A gre
H ej</w>
er e
si bility</w>
úda jů</w>
an ks</w>
t ou
č ky</w>
mysl ím</w>
A u
mysl u</w>
ubli c</w>
re t
polic y</w>
gener al</w>
t ři</w>
c lea
p lease</w>
t vá
it a</w>
be st</w>
R ep
mon it
P or
t on</w>
happ ened</w>
Dí ky</w>
s al
h on
et ing</w>
ac tu
L A
mluv it</w>
k an
eč ně</w>
con f
or a</w>
3 0
a ir
po ko
by ste</w>
M on
f ak
O ffici
záv ě
ni l</w>
ob č
A f
or d</w>
služ by</w>
manag ement</w>
w ron
lea ve</w>
cal led</w>
f re
sh o
lo t</w>
Pod í
ote v
O ne</w>
mož ná</w>
pres ent</w>
sto p</w>
nav r
in ing</w>
de ad</w>
z ku
sch vá
ve k</w>
i an</w>
znam ená</w>
á te</w>
comm on</w>
to to</w>
ici al</w>
v er</w>
fa ther</w>
vě st</w>
author ity</w>
vě dom
vě st
at ory</w>
pl y
do sa
nic tv
jí m
G o</w>
hal f</w>
are a</w>
d ní</w>
de b
at a</w>
ú pl
to p</w>
sh ow</w>
po lož
min d</w>
za po
m l</w>
odvět ví</w>
b lí
vys ok
( 1</w>
é ri
ur čen
O J</w>
dá le</w>
živ ot</w>
rá d</w>
How ever</w>
č ek
mat ter</w>
in stru
pre t
ul t</w>
at el</w>
comp any</w>
ri ghts</w>
l í</w>
en viron
ep t
jí cím</w>
ne u
it u</w>
est ed</w>
un e</w>
0 ,
u la
ch ví
ál ních</w>
wh ole</w>
w rit
in al</w>
wat er</w>
m é</w>
m om
dob u</w>
ná z
R u
Ch ci</w>
jed nání</w>
4 /
pra ct
treat ment</w>
vš ichni</w>
te st</w>
9 0</w>
bor u</w>
koli v</w>
struk tur
5 .
el se</w>
o st
ment u</w>
po n
Ch ar
sa f
t is
Ú řed
c ete</w>
bu il
fin e</w>
ní ku</w>
ně koli
fi el
se be</w>
dot čen
p ly</w>
v hod
V id
ak tiv
9 /
Offici al</w>
he ard</w>
B ec
re al</w>
při prav
dok ument
H a
o f
č ku</w>
k li
čin nosti</w>
vý znam
sm lou
stá le</w>
ick ého</w>
sou d</w>
zn ovu</w>
wor king</w>
oz na
Jest li</w>
dohod y</w>
T E
se qu
an im
3 /
provádě ní</w>
Pod le</w>
od ůvod
2 /
N or
vi z</w>
di e</w>
S y
wron g</w>
requi red</w>
uveden ých</w>
concer ning</w>
in vol
vid ěl</w>
Dě ku
rec t</w>
inform ací</w>
Pro tože</w>
ty pe</w>
ne xt</w>
podmí nky</w>
ka ce</w>
Ma ybe</w>
applic ant</w>
Ú ř</w>
bi g</w>
ut y</w>
em p
gu ys</w>
J as
d or
P er
stav ení</w>
b it</w>
ca r</w>
podpor u</w>
r ing
ic ally</w>
mě lo</w>
th in
ve č
al low
č em
b ad</w>
v ést</w>
establish ed</w>
ve j</w>
t w
sh ed</w>
ď te</w>
A m
V e</w>
A C
ná stro
jící ho</w>
ál u</w>
š et
lu v
ob ě</w>
produ ction</w>
pur su
ř el
our nal</w>
fam ily</w>
pá r</w>
asse ss
l ý</w>
some one</w>
he al
udě lal</w>
M in
n al
consid ered</w>
př ez
řek la</w>
Agre ement</w>
j u</w>
us ing</w>
zna m</w>
at ional</w>
c iv
mon ths</w>
re ž
ous ly</w>
in ě</w>
gir l</w>
S mlou
p .</w>
end ing</w>
š pat
stan ces</w>
B el
tiv es</w>
dě ji</w>
zvlášt ní</w>
in de
te l</w>
r ů</w>
fur ther</w>
e as
úda je</w>
mo c
s ím</w>
di rect
zem ě</w>
žá do
li st</w>
chtě l</w>
G er
O K</w>
u č
c ust
ey es</w>
úč elem</w>
z ru
en ý</w>
op en</w>
fi k
vě c</w>
má te</w>
W a
b í</w>
en o</w>
v stup
g um
199 9</w>
tr a</w>
k lu
v es
pravid la</w>
pí s
ar ing</w>
le y</w>
fun k
k ům</w>
atel e</w>
m ag
CO M
implement ation</w>
itel né</w>
p ub
zá sad
administ rat
N á
sv ůj</w>
J ournal</w>
áv at</w>
Th ese</w>
acc ess</w>
vlast ní</w>
look ing</w>
stan e</w>
ele ct
clea r</w>
zah rn
med ic
jud g
ch ceš</w>
ch op
sou vis
k ill</w>
nictv ím</w>
st it
N ev
z ví
b il
cer ti
k ap
pow er</w>
Dec ember</w>
ask ed</w>
ou cí</w>
u po
pr iv
zů st
tak že</w>
pos al</w>
cl us
6 0</w>
n ému</w>
sear ch</w>
I C
mit ted</w>
fe w</w>
v ari
spor t</w>
iv ní</w>
ň te</w>
te bou</w>
vy tvo
zá j
i gh
přílo ze</w>
b o</w>
u zav
k val
služe b</w>
si ve</w>
t ím
m as
s ám</w>
h ear</w>
TH E</w>
c em</w>
k vůli</w>
požadav ky</w>
import ant</w>
j men
hi gh
rece iv
( 2</w>
Tre aty</w>
vý sled
c ra
c king</w>
S o
z jist
ele k
ší ho</w>
ful l</w>
ně né</w>
sk y</w>
t able</w>
t it</w>
člen ské</w>
u ješ</w>
r ate</w>
zd rav
čá st</w>
docum ents</w>
st oup
me work</w>
ř ad
effec t</w>
ž il</w>
la id</w>
f al
secur ity</w>
mez iná
p ay</w>
hum an</w>
re present
ov ě
c rit
s lož
progra mu</w>
compet ent</w>
Pro sím</w>
jen om</w>
A L
J an
jin ých</w>
y et</w>
znam en
co ž</w>
í t
y ed</w>
8 /
ovan á</w>
c tions</w>
cí lem</w>
V á
Rep ublic</w>
ok am
ní ky</w>
organ iz
každ ý</w>
plat nost</w>
Z á
under stand</w>
ál ního</w>
tr ying</w>
b la
B ar
ro di
tra de</w>
z í</w>
roz sud
pá tky</w>
str ic
od ay</w>
invest ig
ud rž
m it</w>
sou du</w>
co g
š la</w>
ro st
á le</w>
sub jek
př es</w>
ag o</w>
i o</w>
dě je</w>
S ome
pacient ů</w>
poř ád</w>
dov oz
Ne w</w>
at or</w>
d al</w>
adop ted</w>
vů bec</w>
ick ou</w>
5 /
ř i
c u
p ul
D ok
b ře
V y</w>
s ing
k rit
A t</w>
ri st
d lu
g s</w>
prostřed nictvím</w>
pec i
parla mentu</w>
li že</w>
i í</w>
er g
w ing</w>
requ est</w>
Pro mi
c ement</w>
oprav du</w>
me et</w>
f ree</w>
b ě</w>
s ation</w>
ná hra
ál ně</w>
cla im
roz sa
H ere</w>
y our
sv ých</w>
k on</w>
mo ther</w>
inc re
spo třeb
a jí</w>
ji šť
s it
jo b</w>
č em</w>
R A
r o</w>
k re
tal king</w>
e ither</w>
col le
děl ení</w>
cel a</w>
Se e</w>
rel ated</w>
be h
finan c
ý vá</w>
vět ší</w>
de f
dre n</w>
práv ě</w>
p ing</w>
stej ně</w>
eg or
con ne
ter nat
p u
mak ing</w>
P o</w>
náklad y</w>
sou čas
obč an
on a</w>
7 /
en ter
ag ent
tech n
f el
dů kaz
cház e
č ka</w>
an ti
0 1</w>
star t</w>
' il</w>
6 /
my s
řej mě</w>
sou n
sv ob
I T
prostřed í</w>
sour ces</w>
pro de
re cog
be g
in dust
relat ing</w>
wor d</w>
V i
úrov ni</w>
th ers</w>
get ting</w>
b ol
nic al</w>
člá nek</w>
s eri
kno wn</w>
í ho</w>
S k
me chan
l ní</w>
proced ures</w>
sel s</w>
prá v</w>
yc ky</w>
.. ..
n ar
bud eš</w>
b rou
jednot liv
M il
assess ment</w>
se le
O n
pr ice</w>
z ná
G e
ž it</w>
so cial</w>
vý jim
ni ž
manž el
í c</w>
voz id
A b
po j
kdy by</w>
v ention</w>
m už
h ic
ex pec
z alo
t or
P ane</w>
použ i
roz um
poz ici</w>
neb ud
i ev
mov e</w>
ho t
lid i</w>
it al</w>
sw er</w>
li ve</w>
inter est</w>
vý da
spo lu</w>
du mp
fun g
2 9
dů sled
dre ss</w>
O f</w>
ná sledu
v u</w>
C el
dá l</w>
produ c
k ar
z pátky</w>
M ic
w in
le h
č ty
ová ny</w>
u fac
pla y</w>
ne byl</w>
az y
il s</w>
agre ement</w>
žen y</w>
overn ment</w>
v ing</w>
k g</w>
ní ka</w>
k id
fi ve</w>
dlou ho</w>
ovan ý</w>
am at
stát ní</w>
mě ní</w>
z ní</w>
po sou
st ay</w>
pro per
wom an</w>
M al
w w
ko lem</w>
způsob em</w>
ní ci</w>
se m
O ther</w>
s ions</w>
cov ered</w>
C H
pomo ci</w>
ho ž</w>
tě ch</w>
nap ad
x ed</w>
By lo</w>
k ey</w>
mů žeš</w>
Bec ause</w>
pros ince</w>
6 .
h ur
re ad</w>
8 0</w>
L eg
mysl íš</w>
program me</w>
le n</w>
va jí</w>
im o</w>
s áh
pří klad</w>
h ell</w>
W ith</w>
refer ence</w>
Ten to</w>
B u
P e
t la
st er</w>
it ing</w>
uveden ého</w>
g i
č ně</w>
do poru
S am
im pro
š ko
R ight</w>
bo y</w>
d ar
I m
an a</w>
é t
lid í</w>
h á</w>
look ed</w>
poz or
cov er</w>
H e
lat er</w>
z veřej
pís m</w>
nabí d
chil d</w>
commun ic
pod stat
as sist
re member</w>
r un
po vě
J en
ni fic
neb ude</w>
vá žně</w>
tur ned</w>
země děl
chil dren</w>
do or</w>
part ici
dne s</w>
posled ní</w>
k ni
h ran
tre st
to tal</w>
te x
je jí
ent al</w>
tv ůj</w>
l and
č ek</w>
a red</w>
cház í</w>
ak ra</w>
mar k</w>
h ned</w>
dv ě</w>
tím to</w>
mil lion</w>
mno ž
prob lé
anal y
vo j
d i</w>
hod ně</w>
vy j
ar ly</w>
3 2</w>
in ten
an ts</w>
ve hic
ne t</w>
0 /
sk on
do pl
situ ation</w>
vyš ší</w>
chví li</w>
h ard</w>
sk vě
A T
li š</w>
blo od</w>
pří stup
á ny</w>
od e
s li
a ffec
práv ních</w>
ne může</w>
Eu rop
in ion</w>
Js ou</w>
ž í
isl ation</w>
3 5</w>
vi se
pr y
your self</w>
gro und</w>
důvod u</w>
k al</w>
š li</w>
con trib
de sc
z bo
M ay</w>
S ch
náklad ů</w>
vý kon
b rá
za stav
u š
h ist
předpis y</w>
st ě
jedn od
Kd y
k op
v la
ar an
dobr ý</w>
L u
p s
P ra
ch oz
d at</w>
ru p
f la
vy už
prav omo
al u
ch y</w>
s ent</w>
fiel d</w>
F or
t oday</w>
h t
ne po
ter m</w>
V ím</w>
ffici ent</w>
slou ch
qu i
st op
S A</w>
By la</w>
K O
b ed</w>
s myslu</w>
d ve
od bor
inter national</w>
k ra
f our</w>
A s
N ic</w>
případ ech</w>
dí tě</w>
zá stup
et í</w>
brou ght</w>
za se</w>
v ic
žá dost</w>
U N
l ém</w>
ra ce</w>
ar s</w>
eč né</w>
person s</w>
h ours</w>
podmí nek</w>
pří stup</w>
1 ,
y er</w>
sm all</w>
ra di
oun ts</w>
S I
ch ing</w>
in ation</w>
obsa h
se ver
lé d
poč et</w>
y oun
m lad
ř ené</w>
ak ce</w>
nic tví</w>
č ast
nut ím</w>
S ub
g la
a ť</w>
tion al</w>
co operation</w>
po ň</w>
Č len
vy h
U h</w>
M ěl</w>
o re
il l
společ nost</w>
z i</w>
issu e</w>
syst ems</w>
. .</w>
u jících</w>
re comm
car ried</w>
fi le</w>
návr h</w>
mom ent</w>
TI ON</w>
sig nific
šk od
O F</w>
ná sled
speci al</w>
jedno ho</w>
gro up</w>
st ří
reg ard
ru n</w>
on d</w>
sh ow
pla n</w>
hodno cení</w>
b li
est s</w>
prostřed ky</w>
žádo sti</w>
H is</w>
ov ali</w>
EH S</w>
mus ím</w>
sp ek
l á</w>
vy kon
ta x</w>
o gra
va še</w>
om s</w>
leg islation</w>
ide a</w>
osob y</w>
go ods</w>
a me</w>
clo se</w>
vá dí</w>
do m</w>
st ate</w>
Jak o</w>
tv rd
r id
mu se
el s</w>
en ci
du e</w>
per form
vidě t</w>
pri or
sh it</w>
na še</w>
roz dí
kr ét
á na</w>
A P
o s</w>
sh or
šk er
ň ování</w>
is ka</w>
prob lem</w>
chla p
g one</w>
is ing</w>
ý š
f lo
pa yment</w>
syst ém</w>
ka m</w>
sou vise
ú řed
fo od</w>
pub lic
ac ity</w>
sch o
č ist
gran ted</w>
rt s</w>
m imo</w>
prost ě</w>
contin u
mili on
ky ně</w>
t ar
Ni kdy</w>
E M
ak tu
zví ř
můž ete</w>
ch ce</w>
Evropsk á</w>
Vy pad
ře šení</w>
J une</w>
z t
ostat ní</w>
on es</w>
h im
tu to</w>
meas ure</w>
ob serv
L a
Hel lo</w>
c op
j du</w>
mož nost</w>
min utes</w>
al one</w>
effec ts</w>
ri p
p les</w>
pok rač
tech nical</w>
se ction</w>
re publi
fro n
m ul
inst al
need s</w>
krá lov
Ř Í
S or
pří liš</w>
a ční</w>
Ty to</w>
D r
actu ally</w>
energ y</w>
E EC</w>
žád ný</w>
st re
2 5
mě r
ma ybe</w>
vy svět
pry č</w>
souvis losti</w>
odpoví da
na h
krit éri
sa z
R y
Fin an
nic i</w>
cen y</w>
C ol
n im
T ra
id ent
purpo se</w>
po hy
moh li</w>
sing le</w>
c y
ová na</w>
ex t
br ing</w>
příprav ku</w>
Ch tě
D al
de k</w>
V a
B y</w>
ex per
comp li
r ing</w>
dělá š</w>
direct ly</w>
wa it</w>
it ě</w>
ov a</w>
poz ději</w>
saf ety</w>
kil led</w>
lád á</w>
po de
4 5</w>
úč ely</w>
h roz
z ne
bud eme</w>
su c
wor ks</w>
W il
nu al</w>
ná š</w>
by d
E ver
comp an
tak ové</w>
inc reas
princi ple</w>
politi ky</w>
do se</w>
u prav
tr h</w>
2 7
m ého</w>
d res
ur is
at ors</w>
jak o
ob vyk
a ž
at er</w>
lid é</w>
loc al</w>
mysle l</w>
zk um
ro ky</w>
m ou
N ed
I V</w>
so on</w>
soud ní</w>
O p
fin al</w>
S erv
dom ů</w>
dě ti</w>
re st</w>
j azy
ob raz
mu ž</w>
v zd
no c</w>
dost at</w>
Artic les</w>
ne bylo</w>
Po čk
b rat
Th anks</w>
V el
progra m</w>
pří jem
A mer
c as
su d</w>
řík al</w>
do stat
vy žad
he ad
comm it
ment al</w>
him self</w>
Europ e</w>
zkou š
ř il</w>
stá tech</w>
heal th</w>
N ov
vý vo
ch em
P ři</w>
fu cking</w>
e v</w>
inf ra
ve ň</w>
RO P
mor ning</w>
O R
lé ka
c au
Ž ád
č ím</w>
hel d</w>
eri a</w>
st í
sob ě</w>
ň ují</w>
are as</w>
nějak é</w>
jin ého</w>
př en
an ing</w>
vá š</w>
ne byla</w>
d ers</w>
hodno ty</w>
kov ých</w>
se k
is s</w>
u kon
E A
vz hledem</w>
nat ure</w>
in ou</w>
inte g
ch od</w>
reg ional</w>
vz ni
ová n</w>
vy uží
k lí
Roz hod
P ak</w>
stran ě</w>
ter rit
k vět
sk ém</w>
pa id</w>
s ’</w>
P re
k ami</w>
prostřed ků</w>
organ is
kon z
posou zení</w>
th re
ro r</w>
includ e</w>
er a</w>
proces s</w>
ro veň</w>
E m
ví te</w>
g ing</w>
ně j
jec ts</w>
an ých</w>
P ou
ne má</w>
int ended</w>
se par
at i
jmé no</w>
wi fe</w>
F ir
n ila</w>
s ci
s vo
ent er</w>
ch e
á n
m ou</w>
b aby</w>
pří spě
ob rá
sub mitted</w>
L O
ad res
rozsa hu</w>
cir cum
míst ě</w>
la w
en ých</w>
er al</w>
k ul
pro jek
př em
dob ě</w>
we ek
v ní</w>
g lob
as soci
chy b
resul t</w>
m et</w>
A n</w>
su per
pursu ant</w>
de v
har mon
sou kro
ně m</w>
ře l</w>
M áš</w>
se ctor</w>
m ec
můž eme</w>
My sle
i st</w>
accord ing</w>
Ever y
h old</w>
í ze</w>
ú prav
t ří
H i</w>
ě l
cel é</w>
mi le</w>
char ac
čís lo</w>
o práv
2 8
ne s</w>
pod ání</w>
B ro
s we
. eu
se n</w>
á p
ga ve</w>
př át
stat ist
financ ování</w>
appli ed</w>
před mě
ni kdo</w>
N A
dob y</w>
ish ing</w>
C la
vět š
člensk ého</w>
k ri
orgá n</w>
un g
tr at
rež im
w on
do kud</w>
za čí
ú zemí</w>
ich ž</w>
př im
ac ích</w>
C a
ab ys</w>
fra mework</w>
předpis ů</w>
po tra
M ů
zbo ží</w>
po žád
zem i</w>
upo n</w>
kon krét
h mot
t an
f ut
druh é</w>
0 2</w>
o x
M ůj</w>
dis pozici</w>
dic tion</w>
wor k
Ne ch
tu ral</w>
off ice</w>
ap s</w>
pří j
več er</w>
řízen ím</w>
Ka žd
ú ř
vnit ř
dě podob
T i
nezbyt né</w>
áva jí</w>
S ta
se bou</w>
p et
reas on</w>
3 4</w>
qu ality</w>
t í
zd ra
pla ced</w>
ně kdy</w>
t ů</w>
tru e</w>
stav u</w>
len é</w>
pr im
uj eme</w>
part ner
p ut
addit ional</w>
í mi</w>
en for
ric ul
Nem ůž
jed náv
my self</w>
ic a</w>
m r
Pot řeb
červ na</w>
z lep
EN Í</w>
av o
y eah</w>
zpráv y</w>
is lat
pro to
d é
fri ends</w>
z lat
krá t</w>
množ ství</w>
an g</w>
equ ip
youn g</w>
zav ed
f l
or ing</w>
M at
m ob
im pac
c an
tvo je</w>
h lu
třet í</w>
vzta h
hand s</w>
R em
A D
u ary</w>
it ure</w>
nej lepší</w>
Je ště</w>
s si
Or g
t obě</w>
nev ím</w>
Ha ve</w>
w el
rych le</w>
B er
it el</w>
kon kur
m o</w>
hospodář ské</w>
tran sport</w>
k áz
zat ím
nějak ý</w>
na příklad</w>
7 0</w>
k ám</w>
Poj ď</w>
o rov
beh ind</w>
dec id
V žd
docum ent</w>
pro mo
f und
ter ms</w>
ful ly</w>
out side</w>
tak ov
ý ho</w>
spo j
ph one</w>
stanov ené</w>
) (
Děku ji</w>
ve šker
pro posal</w>
Sor ry</w>
op inion</w>
en e</w>
G ro
purpo ses</w>
provis ion</w>
v zá
ali zace</w>
sa ys</w>
M á</w>
f er</w>
ne j</w>
cri min
f av
judg ment</w>
ig n</w>
smě r
F i
gu aran
k ó
reg ards</w>
pend iture</w>
Ju ly</w>
nic h
p il
vš em</w>
exist uje</w>
tro du
k ým</w>
mechan is
O stat
sou tě
s it</w>
ř ád</w>
C I
ab il
fut ure</w>
C or
přílo hy</w>
kov á</w>
organ i
B ě
scho ol</w>
s ite</w>
pa in</w>
n y
z u</w>
moh lo</w>
al most</w>
lon ger</w>
fi g
speci fied</w>
pret ty</w>
Bo že</w>
c lear
u l</w>
rů zn
is ions</w>
stan ding</w>
resid ent</w>
č ním</w>
w it
ma ch
pa y
K e
i ční</w>
pen íze</w>
d on
bo j
4 9</w>
ac tive</w>
E l
pro ti
itel e</w>
i ro
ochran y</w>
b l
d nů</w>
z nění</w>
7 5</w>
Un ited</w>
4 3</w>
nich ž</w>
k at</w>
individ ual</w>
Ne j
Jan uary</w>
c ro
v il
incre ase</w>
curr ent</w>
com es</w>
ovan ého</w>
ch rá
gh ter</w>
b ul
or i
assist ance</w>
po se</w>
uris diction</w>
Fir st</w>
elek tro
he art</w>
do z
ur a</w>
m ission</w>
C S</w>
19 8
W al
do h
jed na</w>
D ou
at ever</w>
an ý</w>
lo žen
vnitrostát ní</w>
tain ed</w>
y es</w>
eli ko
c ause</w>
gum ent</w>
D N
man ufac
nut né</w>
po hled
P an
T ake</w>
je ktů</w>
cel ý</w>
Smlou vy</w>
3 6</w>
get s</w>
Co že</w>
á k</w>
úč et
jed nu</w>
A S</w>
př ist
čá stí</w>
m ist
ev alu
bod ě</w>
mak es</w>
M IS
dod rž
ch es</w>
oznám ení</w>
sc re
prob lém</w>
přim ě
oz řejmě</w>
vý voz
po su
tak hle</w>
l in</w>
z el
jak é
er ation</w>
em ed</w>
ně kterých</w>
it ive</w>
rá no</w>
gu ess</w>
to w
I tal
3 3</w>
dv ou</w>
vý ro
administrat ive</w>
li č
3 7</w>
Wa it</w>
pra vek</w>
Ostat ní</w>
con sum
s vým</w>
a h
H al
0 5</w>
bod ies</w>
od i
in e
O ct
iv er
člově k</w>
přísluš né</w>
p is</w>
T ell</w>
jej ichž</w>
ri c</w>
any one</w>
g ar
skup iny</w>
9 5</w>
přát el
W e
R ec
m ed</w>
ac tly</w>
g al
li š
S lov
H ol
f le
úpl ně</w>
skuteč nosti</w>
kno w
odůvod nění</w>
de ath</w>
provid es</w>
am a</w>
as s</w>
on y</w>
S im
end er</w>
O r</w>
mo ř
ne lze</w>
n ul
Leg al</w>
povin nosti</w>
o sob</w>
4 8</w>
Mus ím</w>
změ ny</w>
mem bers</w>
An i</w>
we b
sk ým</w>
resul ts</w>
y s
k v
kon om
t ku</w>
přes ně</w>
priv ate</w>
prof ess
nu l</w>
respon sible</w>
vzta huje</w>
s rov
sp ar
M e
už iv
h ope</w>
en ess</w>
vyj ád
se x
st al</w>
zna č
an á</w>
ar ran
sm í</w>
ad dress</w>
b and</w>
vis ion</w>
zdrav ot
m ut
K ro
bud get</w>
sur ance</w>
st y
con sul
ht t
jin ak</w>
/ /
de j</w>
ú vě
šet ření</w>
compet ition</w>
í st
M ed
ov aly</w>
program mes</w>
ohled u</w>
ex penditure</w>
stro n
povol ení</w>
gu e</w>
sa ying</w>
a h</w>
T O</w>
ně koho</w>
wan ts</w>
á ž
2 6
ex peri
jd eme</w>
ct ing</w>
crit eria</w>
červ ence</w>
re stric
měsí ců</w>
: //
ta x
E A</w>
ov ě</w>
P oz
kontro l
vý ši</w>
neb o
re z
použ ít</w>
si x</w>
E F
z ohled
způsob il
st or
Af ter</w>
con sist
c ks</w>
h l</w>
pen ě
sm rt
Bru s
T a</w>
effec tive</w>
M u
leg islat
bel ow</w>
ar m</w>
uk áz
ob er</w>
pr il</w>
k l</w>
d ny</w>
re sources</w>
u es</w>
C í
pro hlášení</w>
ve z
za jištění</w>
prob ably</w>
aut omat
st v
B ude</w>
re search</w>
ne g
pí sem
star ted</w>
sel ves</w>
př is
S i
investig ation</w>
maxim um</w>
řík á</w>
z na</w>
ov atel
O ff
ohled ně</w>
poin ts</w>
e konom
záv is
in side</w>
apit al</w>
soci ální</w>
nap ř</w>
in trodu
h r
objec tives</w>
claim s</w>
po hod
al ternat
nov ý</w>
H od
a x
Oct ober</w>
kom ise</w>
m ur
thin king</w>
vá ž
W or
hod in</w>
compan ies</w>
Pro gra
uj ete</w>
ří j
zdra ví</w>
strá n
ž dě
pre ci
ob a</w>
hlav ní</w>
at s</w>
od u</w>
htt p
Li ke</w>
M c
prav děpodob
udě lá
m b
pre v
dá t</w>
T A
kro mě</w>
do ctor</w>
jed no</w>
circum stances</w>
N E
http ://
we ek</w>
ten ance</w>
po tom</w>
vý bě
wor ds</w>
pracov ní</w>
el ig
impac t</w>
en ého</w>
r at</w>
společ enství</w>
dod at
receiv ed</w>
test ed</w>
there of</w>
wan na</w>
s a</w>
bec ome</w>
va š
e ro
co st</w>
c am
va jící</w>
ex er
ex port
N av
pre z
con clud
pla vid
3 9</w>
inf ring
wom en</w>
s at
do stup
podni ků</w>
J ste</w>
pr ices</w>
tý ká</w>
T om
am ended</w>
tra ining</w>
lim it</w>
o či</w>
bas ic</w>
L ist
main tenance</w>
me eting</w>
d le</w>
při šel</w>
cel ou</w>
ně ny</w>
4 2</w>
cí le</w>
de š</w>
Mar ch</w>
an nual</w>
m ž</w>
C ap
s nad</w>
b ut
bezpeč nosti</w>
defin ed</w>
ex t</w>
sv ém</w>
prav da</w>
bo ard</w>
eliko ž</w>
w ise</w>
S peci
bud ete</w>
or row</w>
h ou</w>
at i</w>
ho w
S K
R ob
ochran u</w>
dí ky</w>
res ol
ac ross</w>
sní žení</w>
fi re</w>
le vel
jed né</w>
Vš ichni</w>
A le
p ev
addit ion</w>
J ack</w>
di l</w>
spolu práci</w>
ton ight</w>
min e</w>
l ate</w>
obsa huje</w>
equip ment</w>
dis p
vz or
id i
dobr é</w>
dov ol
léč iv
kov ého</w>
V í
0 4</w>
mí t
á ním</w>
C ase</w>
k al
je t</w>
za ř
en ci</w>
ap ter</w>
poskyt nut
o ro
míst a</w>
několi k</w>
vžd ycky</w>
seri ous</w>
U ni
pod rob
A pril</w>
sly š
W in
cla im</w>
s u</w>
ex pres
he ading</w>
con du
u su
rov na</w>
Jas ně</w>
Ne bo</w>
ne y</w>
con stit
4 4</w>
ish ed</w>
per f
du b
region ální</w>
0 3</w>
respon sibility</w>
podni ku</w>
s rd
ac ts</w>
ent y</w>
exam ple</w>
H la
na jít</w>
oč ek
contra ct</w>
a i</w>
chan ges</w>
zajist it</w>
indust ry</w>
del iv
ing ly</w>
struct ure</w>
c ity</w>
do sáh
po zn
Člen ské</w>
re st
led na</w>
rov at</w>
pů sob</w>
vý zkum
lim ited</w>
rá da</w>
jako ž</w>
K ing
D av
smlou vy</w>
Podí vej</w>
použ it
pě k
rozvo j</w>
oblig ations</w>
b ou
po mí
dne m</w>
ř ování</w>
bro ther</w>
ote c</w>
p ic
m id
need ed</w>
mu set</w>
společ ností</w>
jak é</w>
re main
G o
ent ry</w>
orgá nů</w>
de al</w>
k en</w>
kno ws</w>
person al</w>
J ud
děl á</w>
stand ard</w>
asse ts</w>
al es
po plat
happ y</w>
invest ment</w>
bod u</w>
P RO
finan čních</w>
U r
st áva
spolu práce</w>
min ut</w>
č ené</w>
v ala</w>
dal ších</w>
201 5</w>
pap í
ob y
dů vod</w>
P R
L E
T er
Rad a</w>
pro cess
dost al</w>
důsled ku</w>
D an
každ é</w>
S top</w>
public ation</w>
institu tions</w>
c le
reas ons</w>
O pravdu</w>
tv r
se znam
pa st</w>
B i
Ge org
re view</w>
e e</w>
or o</w>
podni ky</w>
u kaz
př in
ra n</w>
počí ta
ch cete</w>
h ů</w>
w ish</w>
F ro
chec k</w>
prv é</w>
th y</w>
ště stí</w>
af f</w>
ev ent</w>
sp ad
det a
spo jení</w>
ak ing</w>
la n</w>
f is
vá l
k oup
věř it</w>
E d
pos í
kon eč
zá ří</w>
Nev ím</w>
li l</w>
z účast
návr hu</w>
st řel
con cent
do kt
list op
Dobr á</w>
bě hu</w>
Pol ic
produ ktů</w>
Dal ší</w>
i lar</w>
3 8</w>
un g</w>
d uty</w>
otáz ky</w>
zt rá
P et
e ur
th em
ord ers</w>
n ické</w>
navr h
su mp
h rá
quest ions</w>
Je ho</w>
th ro
v in</w>
fel t</w>
ch a
establish ing</w>
se znam</w>
m ess
ú va
m out</w>
Ně co</w>
mov ed</w>
ří t</w>
mys l</w>
M r</w>
l om
H aving</w>
al low</w>
uj te</w>
sc ope</w>
tri ed</w>
pan í</w>
kat egor
R a
to x
as ed</w>
vš e</w>
I S</w>
al ong</w>
Pro to</w>
b at
tion ed</w>
říj na</w>
c ut</w>
norm al</w>
for ward</w>
sch eme</w>
ac cep
Hel e</w>
A si</w>
cap acity</w>
me aning</w>
se cre
Všech no</w>
c use</w>
h ad
Brus sels</w>
C al
an swer</w>
H o
ex pla
vi ous</w>
appe al</w>
pot vr
ro ad</w>
id el
š kol
/ or</w>
vyš et
f y
ě t</w>
ne smí</w>
civ il</w>
exist ing</w>
fron t</w>
raz y</w>
ž ené</w>
proper ty</w>
sou hlas
sup port
k er</w>
comp en
fe el
U R
rov é</w>
vel y</w>
vžd y</w>
ty č
im medi
vo ice</w>
přij etí</w>
účin ky</w>
výrob ky</w>
z pět</w>
diff ic
stá tě</w>
and /or</w>
bře zna</w>
veřej né</w>
Joh n</w>
st aff</w>
N Í</w>
ex ter
su sp
b ank</w>
dec isions</w>
zdro jů</w>
re li
r ý
za jišť
su fficient</w>
vz děl
poč tu</w>
Nov ember</w>
Na řízení</w>
s ady</w>
T ran
signific ant</w>
z e
ru ce</w>
w ea
z bran
kter ého</w>
je hož</w>
jin ý</w>
plat í</w>
vic ti
záj mu</w>
4 7</w>
sig ned</w>
ž ní</w>
em is
květ na</w>
no ci</w>
mě t</w>
Evropsk ý</w>
u ally</w>
b lá
N áv
m ing</w>
u ses</w>
e ce</w>
listop adu</w>
bezpeč nost
happ en</w>
soun d</w>
spo jen
pl nění</w>
do šlo</w>
nat ural</w>
sam a</w>
ac ího</w>
á ře</w>
odstav ci</w>
přij at
vid ím</w>
6 5</w>
stu ff</w>
i fied</w>
D ev
Úřed ní</w>
set t
zd e</w>
inter nal</w>
cou rts</w>
9 6</w>
activ ity</w>
s at</w>
osob a</w>
s er</w>
nov ých</w>
An y
objec tive</w>
know led
g overnment</w>
Mus íme</w>
bez pe
lá da
ře by</w>
c apital</w>
č ila</w>
An g
en ím</w>
0 7</w>
klad u</w>
nim i</w>
T ur
O P
orgá nu</w>
s akra</w>
os věd
typ u</w>
No thing</w>
A ž</w>
kov ý</w>
V íte</w>
pok y
M áme</w>
ně které</w>
obchod ní</w>
li k</w>
ová ním</w>
Ž al
vz ít</w>
low er</w>
hod not
minim um</w>
výrob ků</w>
kom uni
sub sid
W i
zá ležit
av er
vý boru</w>
is on</w>
te k
ick ým</w>
před pok
t ř
ch ance</w>
ales poň</w>
ú spě
Č í
sim ilar</w>
F und</w>
re ach
e f</w>
fac il
d ings</w>
fi xed</w>
week s</w>
ně na</w>
to wn</w>
pří tel
partici p
před běž
ne moc
lar ge</w>
p sy
mus íš</w>
mrt v
ome zení</w>
pomo cí</w>
S ept
O N
r ně</w>
okam ži
vy z
vypad á</w>
připo mí
před k
hla s</w>
iv al
con text</w>
h av
level s</w>
Sept ember</w>
O d</w>
ň ovat</w>
issu ed</w>
pac k
organi zace</w>
list ed</w>
dě lal</w>
l or
cre dit</w>
čas u</w>
sh are</w>
c ord
ne můžu</w>
wh ose</w>
fi ght</w>
cal cul
do stan
Řek l</w>
zahá jení</w>
m er</w>
je j</w>
invol ved</w>
M er
how ever</w>
dří v</w>
ad dres
mus íme</w>
ut h</w>
is ko</w>
S ly
Au thor
cí ho</w>
mi se</w>
život a</w>
m ně
s prav
bu ď</w>
moh ly</w>
H on
aby ste</w>
k ry
vel i
materi als</w>
posu z
rozpoč t
plat nosti</w>
Min ist
dří ve</w>
do tyč
prob le
S a
( 3</w>
Sou d
under tak
dat ab
bo le
Wh ich</w>
člensk ými</w>
Js me</w>
H er
lim its</w>
ry ing</w>
věst ník</w>
ti vely</w>
P a
G ra
id ent</w>
bud ou
bo ok</w>
vlast ně</w>
čem ž</w>
ví me</w>
ex cept</w>
t ors</w>
str eng
King dom</w>
u zn
decid ed</w>
pat ří</w>
at ure</w>
sh ot</w>
h lad
C ent
lea d</w>
Práv ní</w>
meziná rod
ho st
An y</w>
sm luv
nedo stat
hy dro
šť ast
kam ar
h aps</w>
z po
anal ý
rá ní</w>
ter ist
com bin
7 .
exist ence</w>
h é</w>
bezpe čí</w>
4 1</w>
pro jects</w>
hodno ta</w>
it self</w>
R us
pro posed</w>
0 8</w>
se k</w>
par ents</w>
E D
sup pli
sh e
ov ým</w>
ve jte</w>
Pro to
we ight</w>
wh ite</w>
ad ded</w>
su s</w>
vý mi</w>
nech at</w>
lan gu
qu ite</w>
rec ord
ro le</w>
gro w
lí to</w>
i led</w>
9 4</w>
ad ver
se c
kaz y</w>
process ing</w>
fu ck</w>
ry bol
ag ricul
u čin
D is
ag ed</w>
z mí
pro ject</w>
n ers</w>
podmí n
ex actly</w>
sever al</w>
st ory</w>
En g
so lid
dok áz
s av
s r
Můž u</w>
ph s</w>
ě jší</w>
konz ul
režim u</w>
9 8</w>
let ec
ex port</w>
eb ní</w>
př it
materi al</w>
před choz
h u
ob nov
J ust
vz du
kom bin
m un
ani ž</w>
j urisdiction</w>
z působ</w>
Re ally</w>
ště ní</w>
při čemž</w>
il ing</w>
á no</w>
p y
g ers</w>
pot ential</w>
qu ant
import s</w>
ne pro
ti ful</w>
pů j
reg ulation</w>
P á
z ar
ar ity</w>
M ad
emplo yment</w>
ob jev
á tu</w>
re turn</w>
In form
. 0
Z at
ro g
pře ce</w>
ob drž
gu n</w>
8 7</w>
ed uc
řád u</w>
o stí</w>
s .</w>
high er</w>
Ch ceš</w>
every one</w>
ul ations</w>
tro ub
k id</w>
příspě v
la bor
j ně</w>
pří pad</w>
includ ed</w>
tak ový</w>
tom orrow</w>
5 5</w>
Y or
dě l</w>
týka jících</w>
sto od</w>
dub na</w>
g ar</w>
k ých</w>
pří pravek</w>
o thers</w>
rá lní</w>
zak áz
op ak
vlá d
kan cel
vod y</w>
4 6</w>
po c
di rect</w>
c en</w>
20 0</w>
da ň
A ut
o le
inst it
fi gu
h it</w>
ár ní</w>
chtě la</w>
ativ es</w>
tran spar
s mo
enfor cement</w>
ú to
stand ards</w>
sa fe</w>
reas on
et h</w>
sy n
J am
roz ší
rib ed</w>
comm er
p us
ne měl</w>
č uje</w>
vý hod
ad just
h uh</w>
c le</w>
increas ed</w>
fa ult</w>
situ ace</w>
k ej</w>
char ge</w>
D P</w>
form s</w>
Kro mě</w>
áv ám</w>
re ly</w>
se x</w>
Jest liže</w>
vědě la</w>
el e</w>
dom á
’ t</w>
lhů ty</w>
con ver
ro nic</w>
le ží</w>
prof es
6 0
en ou</w>
un iver
h at</w>
w ed
lin es</w>
c us
vi a</w>
št í</w>
y ou
k or
á ř</w>
sen se</w>
gro up
n ’t</w>
s ity</w>
člensk ý</w>
f ám</w>
kontro ly</w>
da d</w>
původ u</w>
Ac cord
soud ního</w>
od mít
my š
králov ství</w>
A T</w>
rt y</w>
f ishing</w>
9 3</w>
od stran
implement ing</w>
vů či</w>
S ome</w>
I I
un ch</w>
or ce</w>
h us
ab sol
2 ,
čís la</w>
lí b
u to</w>
S c
dan é</w>
oblig ation</w>
pol ice</w>
ov alo</w>
Ch rist
povin nost</w>
Mic ha
S M
D one</w>
čin nost</w>
Náv r
t il
p ady</w>
ri es</w>
s qu
věst níku</w>
con clus
plá n</w>
po stav
o ther
ž ím</w>
look s</w>
mi mo
ru le</w>
9 2</w>
v ě</w>
sup ply</w>
mi z
R om
t it
ce ed</w>
al loc
con fir
fa st</w>
f all</w>
am ě
kid s</w>
dem on
9 1</w>
partic ul
u lož
st ep
contin ue</w>
kon tak
ro m
důležit é</w>
F a
po st</w>
mu že</w>
P resident</w>
S er
š ku</w>
rel ation</w>
ct ors</w>
N es
jas ně</w>
s sed</w>
port un
p é
produk ty</w>
A L</w>
certi fic
t ory</w>
re r</w>
M or
G ive</w>
Dr .</w>
vypl ývá</w>
monit oring</w>
pr ise</w>
pře prav
administ ration</w>
postup y</w>
s ses</w>
produc ers</w>
J ac
le ty</w>
energ ie</w>
ý ch
člán kem</w>
různ ých</w>
ativ ní</w>
pohod ě</w>
M ez
ní ž</w>
získ at</w>
un less</w>
Ni kdo</w>
g as</w>
be au
zpráv u</w>
shor t</w>
undertak ings</w>
under taking</w>
St at
ur ation</w>
Mysl íš</w>
B ul
anim al</w>
k ř
lik ely</w>
kom u</w>
jí d
ec t</w>
0 6</w>
c ross</w>
T rib
dů vě
ti ž</w>
Vá žně</w>
stra n</w>
ra ther</w>
prac ování</w>
sta v</w>
Vz hledem</w>
použi je</w>
in j
ar ies</w>
prů běhu</w>
5 00</w>
situ aci</w>
Bru sel
h léd
ru ku</w>
bla ck</w>
arran g
AN D</w>
E L
představ uje</w>
Sec tion</w>
cont ent</w>
čin ností</w>
it ation</w>
Pro ced
hur t</w>
ál ním</w>
D ad</w>
ne jsem</w>
d y
cla ssi
C ode</w>
sup posed</w>
T O
pro gre
podpor a</w>
cel ém</w>
pot é</w>
vzá jem
rá ž
odstav ce</w>
ran ge</w>
h dy</w>
B al
5 1</w>
ně ných</w>
T S</w>
nebo ť</w>
h lou
soud rž
F EU</w>
krá s
k lid
wat ch</w>
ž ít</w>
sat is
e .
kov i</w>
svě tě</w>
benef it</w>
ně no</w>
sp ace</w>
od dí
ne žád
b le
a u</w>
stud y</w>
Por tu
P at
not ice</w>
mon th</w>
B la
instru ments</w>
f ying</w>
tv rt
ved e</w>
ek o</w>
b ab
lá tky</w>
P ri
odpo vě
t ou</w>
vehic le</w>
f unds</w>
f ar
mat ters</w>
lo se</w>
ro us</w>
author isation</w>
dist rib
ra id</w>
V al
vě cí</w>
compli ance</w>
sta ň</w>
prac ovat</w>
wa iting</w>
p amat
O L
Ně mec
N ic
stra š
žen o</w>
cor respon
ed u
d au
On ly</w>
chan ged</w>
Finan cial</w>
k um
desig n
skuteč ně</w>
inter ested</w>
ex cep
na řízením</w>
co l</w>
ai led</w>
V er
tiv ní</w>
zákon a</w>
tab ul
re ven
ho sp
g er
u ck</w>
su sta
wor ry</w>
o p</w>
re pe
dr ink</w>
u vědom
L uc
ne byly</w>
Mo je</w>
appro val</w>
m l
w il
tak es</w>
D ej</w>
př iv
sp íš</w>
ž en</w>
v ap
ál ů</w>
ostat ních</w>
maj et
go es</w>
ok s</w>
determin ed</w>
mo ci</w>
do pad
střed ní</w>
oper ating</w>
vý mě
on ec</w>
Př ed</w>
Všech ny</w>
k ání</w>
ci se</w>
práv ního</w>
di ed</w>
c razy</w>
follow s</w>
člensk ým</w>
con tested</w>
ná mi</w>
čty ři</w>
I M
9 9</w>
přez kou
ap y</w>
to tiž</w>
op portun
člensk ém</w>
ach iev
pre par
nej méně</w>
ra z</w>
iv a</w>
Nemůž u</w>
h our</w>
Par t</w>
výkon u</w>
t in
o g
sig n</w>
s end</w>
P au
zvý šení</w>
h op
noti fied</w>
ny ní</w>
stud ies</w>
h á
no r</w>
St ar
u j</w>
tran sm
B en
bin ding</w>
Brusel u</w>
7 1</w>
ne š</w>
cont act</w>
anim als</w>
S p
run ning</w>
Trib un
c ion
Har ry</w>
op ak</w>
and id
wa r</w>
mu sel</w>
Př es
reg ions</w>
pro jednáv
buil ding</w>
us ion</w>
ů v</w>
A S
c oup
and s</w>
u z
ov liv
ů r</w>
T wo</w>
ová no</w>
vrá tit</w>
g ent
lic ence</w>
ga me</w>
List en</w>
ov y</w>
con om
ch al
author ised</w>
ep t</w>
o to
M áte</w>
do lů</w>
am end
pravid el</w>
let ter</w>
F ur
ou ra
min ute</w>
O pat
R i
žád ná</w>
dam n</w>
vod u</w>
est im
beau tiful</w>
př ech
N et
off ic
mod er
c ent</w>
c ode</w>
liv ing</w>
krá t
Fro m</w>
pan ěl
de pend
im port</w>
el o</w>
c li
stat us</w>
or ů</w>
sump tion</w>
dom a</w>
organ isation</w>
en ční</w>
K ar
před tím</w>
vel ké</w>
nah raz
odpověd nost</w>
di se
ad í</w>
ně n</w>
rop a
car ry</w>
po rad
fi kace</w>
vhod né</w>
st ě</w>
Ger many</w>
au to</w>
T a
oper ations</w>
čem u</w>
E conom
dv ůr</w>
hra d
ot a</w>
záv až
ent it
Sub ject</w>
territ ory</w>
in surance</w>
eas y</w>
A h</w>
co ordin
agre ements</w>
orig in
analy sis</w>
Ž e</w>
ru b
W ill</w>
Sy st
vá mi</w>
ri age</w>
dve ře</w>
5 2</w>
plá nu</w>
D en
let ad
vy lou
k lin
kter ém</w>
míst ní</w>
F eb
hol ding</w>
regard ing</w>
rů z
Ap pro
Promi ň</w>
n erv
P ov
Ev en</w>
sle ep</w>
grow th</w>
ha ir</w>
af raid</w>
finan cing</w>
Th ose</w>
niž ší</w>
ná rod
d in
m em</w>
k in
prv ním</w>
pří ležit
qu e</w>
c ru
J er
Ag ency</w>
A t
problé my</w>
on i</w>
6 8</w>
bre ak</w>
Feb ru
e ing</w>
hlav u</w>
u skuteč
zá sady</w>
w ed</w>
Febru ary</w>
Před mět</w>
zav ol
E V
té ž</w>
aby chom</w>
je l</w>
ep ing</w>
orig in</w>
Va še</w>
meziná rodní</w>
pro por
D ru
stat ement</w>
Do hod
pract ice</w>
rt h</w>
čer a</w>
milion ů</w>
ra phs</w>
off icial</w>
vel ký</w>
av i
Dobr ý</w>
ac ím</w>
ho t</w>
ú nor
inde pend
v est
gran t</w>
l ých</w>
ž as
princi ples</w>
n om
základ ní</w>
de ch</w>
společ ného</w>
D es
á len
z trat
ut ed</w>
rozsud ku</w>
dou b
net work</w>
do ws</w>
S ar
Promi ňte</w>
A k
O S
dal eko</w>
v an
pay ments</w>
s il</w>
A ť</w>
appro ved</w>
od a</w>
fa ir</w>
M ore</w>
k up
ud á
ne mám</w>
fol low</w>
D a
D at
environ ment</w>
pří tom
B r
vari ous</w>
zab i
áp u</w>
sam ot
3 8
th us</w>
ne l</w>
ko ordin
. e
R ich
J ist
stej né</w>
rizi ka</w>
přes věd
pro of</w>
ka jí</w>
zab ít</w>
sk y
in spec
P om
to lik</w>
lé pe</w>
Rozhod nutí</w>
ná rodní</w>
c tion
perform ance</w>
am ong</w>
o h</w>
expec ted</w>
individ u
serv ed</w>
le k</w>
seznam u</w>
ob last
obvyk le</w>
nit ř</w>
e at</w>
cit iz
š ť</w>
ci e</w>
Z áv
jest liže</w>
do spě
F re
wa ste</w>
lu e</w>
pravomo ci</w>
qu ali
dokon ce</w>
stanoven ých</w>
idel ines</w>
ex change</w>
po slouch
po ví
Komis í</w>
funk ce</w>
vypl ý
ž ila</w>
ear ly</w>
společ né</w>
ww w
di alo
V last
set ting</w>
stanov it</w>
dau ghter</w>
D am
ad e</w>
Con vention</w>
zam ít
t un
t ní</w>
di g
con sequ
p al</w>
poin ted</w>
ha j
experi ence</w>
přid ě
K y
jící mi</w>
la u
Ch apter</w>
R es
mal é</w>
vy bav
L id
á ze</w>
ref le
nat ion
B an
výda jů</w>
su gg
com pla
ta jem
st i
O mlou
liv es</w>
le l</w>
men tioned</w>
rů st
er t</w>
Úřed ním</w>
fak t</w>
z cela</w>
ex ten
D on
commer cial</w>
fe et</w>
č et</w>
cri me</w>
5 3</w>
gh t
5 6</w>
Každ ý</w>
hist or
environ mental</w>
B ri
A ust
ká ž
allow ed</w>
správ ní</w>
jak ý</w>
u vádě
D ra
srd ce</w>
issu es</w>
S ir</w>
f ran
se emed</w>
b ri
mě ř</w>
199 8</w>
agricul tural</w>
moh u</w>
C H</w>
k ept</w>
ac y</w>
In di
H en
Fran ce</w>
K o
vidě la</w>
comple te</w>
Do es</w>
č i
d ala</w>
iv ely</w>
ok e</w>
a ř
Mě la</w>
c uk
.... ....
| |</w>
dlu ž
vid e
B ur
zatím co</w>
P la
do w
poc it</w>
Mysle l</w>
dan ě</w>
b om
fig ure</w>
případ ně</w>
bo x</w>
subjek ty</w>
wh atever</w>
RE G
trans fer</w>
I P</w>
art ic
ep tal</w>
sou částí</w>
č tvrt
F ren
rat es</w>
sub mit</w>
fung ování</w>
Řek ni</w>
ere as</w>
p an</w>
každ ého</w>
c lin
an ces</w>
d on</w>
tr uth</w>
prv ního</w>
li sh</w>
á zení</w>
de s
Po sled
tre ated</w>
th i
při bli
EC B</w>
ro n</w>
dů m</w>
agre ed</w>
ot h</w>
program ů</w>
zvíř at</w>
poskyt ování</w>
st ře
dom ní
klad y</w>
x ml</w>
C y
veřej ných</w>
E EA</w>
spe ak</w>
áv al</w>
ří ká
y l</w>
p it
du ties</w>
Cap tain</w>
in o</w>
report ed</w>
b all</w>
e th
z rovna</w>
k ého</w>
sy m
hi b
opat řen
se ems</w>
ir s</w>
th ank</w>
mark ets</w>
ma il</w>
nám it
z ept
vý bor</w>
vy tvá
jednotliv ých</w>
S ince</w>
tru st</w>
n as
chal len
oli k</w>
so ft</w>
ně mž</w>
rov á</w>
conne ction</w>
hled iska</w>
mul ti
vy rov
requi re</w>
maj or</w>
určit é</w>
dec lar
ko sti</w>
parag raphs</w>
appro ach</w>
přísluš ných</w>
třet ích</w>
ko l</w>
určit ě</w>
5 8</w>
Práv ě</w>
ter ed</w>
únor a</w>
p tá
ří dit</w>
.0 10
sa ve</w>
pově ď</w>
compen sation</w>
do l
pohled áv
H y
an ti</w>
stro je</w>
lád at</w>
pr st
kol u</w>
relat ion
pre g
report s</w>
hot ov
nad ále</w>
par ts</w>
následu jící</w>
adv ant
M ag
pot řeby</w>
vnit ř</w>
shi ps</w>
enter ed</w>
A by</w>
fic ations</w>
Omlou vám</w>
ant ní</w>
hus band</w>
s al</w>
pok us
post up</w>
L ast</w>
použí vání</w>
pomo ct</w>
P lat
ula ce</w>
y a</w>
zá znam
cer tain
www .
vzta hu</w>
mno hem</w>
stud i
f ot
záv isl
pre ss</w>
atel ů</w>
mo m</w>
mysl í</w>
typ es</w>
pravid el
přístup u</w>
dosa žení</w>
te hdy</w>
tele fon
9 7</w>
sour ce</w>
zah r
ch yt
P ŘÍ
kamar ád
Ne ch</w>
sk oro</w>
ch a</w>
de leg
důvod ů</w>
tow ards</w>
val id</w>
5 4</w>
b order</w>
zku šen
t ila</w>
them selves</w>
T R
S ure</w>
E ur
zač al</w>
W ould</w>
z u
ne ch</w>
lad y</w>
D E</w>
Chtě l</w>
spo rt
použ itelné</w>
O ur</w>
schvá lení</w>
j ich</w>
tv é</w>
S up
applic ations</w>
a č
přísluš ný</w>
jist ý</w>
plá n
zástup ce</w>
dis cus
okam žit
lá ní</w>
Progra m
proble ms</w>
aver age</w>
est er
dod áv
pok ry
obchod u</w>
nějak ou</w>
ess ential</w>
po chop
zá jem</w>
Econom ic</w>
dri ve</w>
Z ab
kaz u</w>
ap e</w>
hla vy</w>
í ku</w>
f ish</w>
cust oms</w>
f lu
zab il</w>
koli k</w>
T ech
žen ých</w>
poru šení</w>
mar ried</w>
Ex cuse</w>
systé mů</w>
ef for
val id
al ive</w>
list en</w>
E ar
spo ust
com par
bo h
sa d</w>
k nout</w>
zdro je</w>
le tech</w>
L on
Char lie</w>
h ání</w>
or ies</w>
Jak é</w>
wal k</w>
acc ounts</w>
se ly</w>
b our
dor u
vzděl ávání</w>
k ala</w>
par ent</w>
conclud ed</w>
me c</w>
coup le</w>
Počk ej</w>
přij mout</w>
slov a</w>
čast o</w>
z an
Ap plic
š ky</w>
zá ru
her e
ve ter
zach rá
ut er</w>
b on
g over
immedi ately</w>
dump ing
odstav ec</w>
rozpoč tu</w>
val ues</w>
tě la</w>
V e
vozid la</w>
contain ing</w>
vý živ
20 20</w>
P rav
hy per
ovan ou</w>
L is
i at
ver i
t ud
z jiště
fy z
ot s</w>
s věd
ac qu
requ ested</w>
stron g</w>
Bo ard</w>
fu n</w>
giv ing</w>
L I
T ext</w>
or al</w>
av y</w>
contra cts</w>
Off ice</w>
myš len
contrib ution</w>
m to</w>
g r
měsí ce</w>
G ar
cest u</w>
zn ak
ř ila</w>
muž i</w>
cho ice</w>
O bec
ex pi
particul arly</w>
organis ations</w>
výsled ky</w>
7 2</w>
n at</w>
pro spě
A ct</w>
Gro up</w>
ne te</w>
B il
9 .
kval i
rodi č
b ack
část ky</w>
writ ten</w>
a head</w>
polic ies</w>
pod lé
vid íme</w>
finan čního</w>
5 7</w>
dopl ň
cen a</w>
adop t</w>
ces s</w>
po zd
zab ez
Vý bor</w>
z ek</w>
si ze</w>
W ho
8 1</w>
h ate</w>
publi shed</w>
souvise jící</w>
f ru
maxim ální</w>
T r
systé my</w>
le k
za jím
mysl íte</w>
lí bí</w>
dar k</w>
Návr h</w>
evrop ské</w>
over all</w>
es ion</w>
il ure</w>
some body</w>
knowled ge</w>
dec ide</w>
přek vap
ol s</w>
ozna čení</w>
po sl
s mí
proved ení</w>
p t</w>
re ach</w>
disp ute</w>
pro dlou
6 1</w>
ku s</w>
n ilo</w>
Fren ch</w>
zru šení</w>
přem ýš
meth od</w>
mno ho</w>
om et
te am</w>
Ch cete</w>
E I
nástro je</w>
V ery</w>
re ment</w>
appli es</w>
K apit
cí lů</w>
protec t</w>
společ ně</w>
hled u</w>
vi ously</w>
ov ém</w>
arm ac
ur čení</w>
p t
let í</w>
tel ling</w>
účet ní</w>
re ch</w>
G i
několi ka</w>
0 .
ne bezpeč
m ne</w>
í k</w>
M iss</w>
z ved
feel ing</w>
l led</w>
to p
S an
go ti
ad s</w>
život ní</w>
S V</w>
8 8</w>
in ici
EH P</w>
ž i</w>
sp í
na ší</w>
la p
re placed</w>
odpově ď</w>
ten hle</w>
7 3</w>
Polic y</w>
ob tained</w>
ex ec
be y
Pro stě</w>
Bud u</w>
f ou
pracov ních</w>
č eho</w>
tak ového</w>
E R</w>
dě len
sk ými</w>
Just ice</w>
ně jak</w>
M om</w>
lo ď</w>
H er</w>
am ounts</w>
c in
pres sure</w>
zahrn uje</w>
ex ceed
T u
k ování</w>
st ep</w>
u vádí</w>
stran a</w>
pl ně</w>
ra ci</w>
la m
g ument
Posled ní</w>
um í
oh esion</w>
T A</w>
pos sibility</w>
P i
F ra
se v
pol y
tr val
ca ref
F aj
jed ná</w>
dě tí</w>
h ard
ex emp
comp ly</w>
5 9</w>
H or
h rd
ph ys
it ary</w>
0 9</w>
vol u
establi sh</w>
ar ch
att ention</w>
mat ka</w>
ol a</w>
itel ů</w>
gro unds</w>
ří d
EU ROP
hod iny</w>
associ ated</w>
g .</w>
mov ing</w>
pr ve</w>
té měř</w>
soukro m
podni k</w>
doporu čení</w>
V ol
u red</w>
ad equ
b ly</w>
rizi ko</w>
d cer
zah ran
at ta
ch t
lo ss</w>
op ust
fer ence</w>
Sou dní</w>
R ef
ně mu</w>
oc c
wea po
vol ání</w>
y ť</w>
nal é
smrt i</w>
bey ond</w>
in nov
acc es
infring ement</w>
redu ction</w>
pro hlá
re aliz
3 00</w>
im a</w>
clo sed</w>
z pracov
Gre at</w>
pl ying</w>
u se
z is
Su ch</w>
w ide</w>
život ního</w>
in d
inter ests</w>
zlat o</w>
z er
sí tě</w>
ar ri
ick ed</w>
po má
j elikož</w>
ex clud
G ran
ab les</w>
důvod y</w>
D u
tě mto</w>
su ff
dí tě
sal es</w>
pre vious</w>
bezpeč nost</w>
budou c
no te</w>
Jo e</w>
resol ution</w>
ef ek
Pro du
h ů
susta in
sub stan
Faj n</w>
I r
sp ir
b on</w>
při jí
l ying</w>
od pad
Th ere
s nad
prá zd
f an
před po
.eu ropa
medic inal</w>
a im
Vypad á</w>
do lar
fil m</w>
de st
equ al</w>
Serv ice</w>
c tive</w>
počí t
group s</w>
důkaz y</w>
nav íc</w>
im ag
přimě řen
Author ity</w>
uděl ala</w>
6 7</w>
zku m</w>
ex tra
8 .
H A</w>
8 2</w>
consid er</w>
j a
j eme</w>
st vím</w>
stand ard
troub le</w>
S al
do cela</w>
l ou</w>
š ak</w>
iv es</w>
Jist ě</w>
identi fied</w>
D ar
u vnitř</w>
vz al</w>
čí t
S ha
B ank</w>
ti m
sch ů
e b</w>
m and
exer cise</w>
lož ky</w>
av šak</w>
equ ival
vi ol
S na
čen o</w>
le ts</w>
bel iev
form ě</w>
ser ve</w>
fun ction</w>
u h
Proto col</w>
ú žas
com pon
dáv ky</w>
S E</w>
z en</w>
sly šel</w>
S mě
byd li
pri or</w>
desig ned</w>
evalu ation</w>
instit ution</w>
est ing</w>
produ ced</w>
ž ele
znám ky</w>
P oznám
S am</w>
par am
nov ého</w>
reg ion</w>
příprav ky</w>
kritéri a</w>
ol u</w>
reach ed</w>
žalob kyně</w>
cla ss</w>
c ům</w>
do w</w>
qu ar
li v</w>
dv ora</w>
eur o</w>
f a</w>
adop tion</w>
Z ENÍ</w>
zap lat
vnitrostát ních</w>
dlou hod
c us</w>
potra vin
Č á
st al
em at
. ’</w>
pr e</w>
C S
id es</w>
T ro
rozum í</w>
dí v
Jo int</w>
y ours</w>
speci f
indic ated</w>
za čá
tě lo</w>
ní zk
ne ws</w>
š é
výda je</w>
sol ution</w>
al ing</w>
pot enci
e. g.</w>
7 7</w>
follow ed</w>
adv ok
Mů žeš</w>
Kdy by</w>
le ch</w>
dra wn</w>
nech ci</w>
oli v</w>
h rát</w>
jmé nem</w>
Jen om</w>
prob í
respon se</w>
compet it
otáz ku</w>
sh ou
comp uter</w>
pl ant</w>
c old</w>
b ar</w>
sto j
rá mec</w>
is m</w>
po mě
Z vlá
mark eting</w>
Sam ozřejmě</w>
j it</w>
in ov
rec over
skuteč nost</w>
svě t</w>
la jí</w>
sub stance</w>
C E</w>
sh ro
Po řád</w>
chla p</w>
cou z
other wise</w>
tvrd í</w>
lá tek</w>
D om
materi álů</w>
any more</w>
z by
up date</w>
t ation</w>
h nout</w>
ch ran
stát ům</w>
6 4</w>
ic an</w>
ú roveň</w>
t am
z práva</w>
uveden á</w>
ge ogra
p ed
ti v</w>
působ nosti</w>
mou th</w>
Be z</w>
wor ked</w>
Mus íš</w>
no s
fer red</w>
L ord</w>
přij de</w>
ne goti
oblast ech</w>
8 5</w>
ev ším</w>
P Ř
sci enti
vzd álen
in ning</w>
se š</w>
ú mlu
pis u</w>
p y</w>
institu ce</w>
sv at
po lo
zí tra</w>
i ous</w>
determin e</w>
S O
There fore</w>
uveden y</w>
Man ag
N ot
con stru
použ itel
B et
rozdí l</w>
Accord ing</w>
D iv
la b
sh ing</w>
sil í</w>
clear ly</w>
výrob ku</w>
h vě
O na</w>
polit ical</w>
noti fication</w>
ukon čení</w>
ní kem</w>
in jek
of ten</w>
st itu
st age</w>
contain s</w>
Wi th
el u</w>
mod el</w>
uveden ý</w>
h und
an ou</w>
rozhod nutím</w>
O k</w>
gir ls</w>
TE R</w>
prev ent</w>
Aut omat
Par ties</w>
st er
výjim kou</w>
an ci</w>
P op
x es</w>
do g</w>
he aring</w>
ti al</w>
ES C</w>
oh ro
bal ance</w>
W at
y ers</w>
se em</w>
en jo
v at
postup ů</w>
benef ici
I P
odpovída jící</w>
r á</w>
š i
bo ys</w>
enti re</w>
M EN
sor t</w>
zajist í</w>
em o
Inter national</w>
vešker é</w>
ob jek
ex clus
z ích</w>
ur ity</w>
správ ně</w>
b ir
po mal
2 3
ru kou</w>
u vol
condit ion</w>
en i</w>
k od
obla st</w>
i re</w>
vehic les</w>
dáv á</w>
arrang ements</w>
pr del
ne pří
lád ání</w>
každ ém</w>
C am
to gra
uplat ňování</w>
pí sm
š il</w>
zůst at</w>
elig ible</w>
dolar ů</w>
199 7</w>
pro vést</w>
řek nu</w>
oz em
ction ing</w>
z ra
schvá len
2 4
y l
š ek</w>
dov nitř</w>
lic k</w>
m ary</w>
ri st</w>
id s</w>
ká že</w>
rozsud ek</w>
C ould</w>
for ma
ná moř
va ší</w>
dělá m</w>
x i</w>
na prost
cest ě</w>
V I</w>
E P
po stavení</w>
IS O</w>
am s</w>
slov o</w>
E st
cí l</w>
ey e</w>
tý den</w>
léka ř
hlí d
vy d
mar riage</w>
at ion
un k</w>
h ro
Joh n
pro mluvit</w>
Můž ete</w>
em oc
ad ap
slu č
bo j</w>
kov ou</w>
ochran né</w>
al leg
fa ilure</w>
hor u</w>
mess age</w>
S A
v é
sta ro
Z av
zaměstnan ců</w>
K ou
educ ation</w>
establish ment</w>
v it
Mr s.</w>
hlu b
jud icial</w>
cust om
základ ního</w>
otev řen
dump ing</w>
ac ting</w>
la d</w>
b á
r ated</w>
ex ceed</w>
Vý rob
ti e</w>
le ti
so f
ok oliv</w>
ř ela</w>
ob ou</w>
land s</w>
ex pen
druh ý</w>
poz nám
před se
t ří</w>
Ke ep</w>
vstup uje</w>
pap er</w>
Inform ation</w>
mysle la</w>
B oh
ná pad</w>
exist ují</w>
vzni k
ant ly</w>
obec né</w>
m ic
f ed
W ow</w>
st ri
zv u
č el
d im
změ nit</w>
Moh l</w>
úva hu</w>
communic ation</w>
ven ku</w>
sist er</w>
vě dec
br at</w>
li min
regist ered</w>
no s</w>
na šel</w>
kaz uje</w>
iv o</w>
Mus í</w>
Ar gument</w>
z ed</w>
k ce</w>
dow n
be half</w>
O per
med ical</w>
flo or</w>
k ab
za sed
w o
O te
dobr á</w>
langu age</w>
form ul
O D
progra my</w>
2. 1</w>
L E</w>
EH SV</w>
SI ON</w>
Ří kal</w>
Ně kdo</w>
provid ing</w>
předmě tem</w>
řík ám</w>
přez kum
bydli ště</w>
E ESC</w>
re al
off er</w>
í ž</w>
reven ue</w>
léč by</w>
G overnment</w>
sprav ed
6 3</w>
vě ku</w>
manufac tu
pro mise</w>
mis s</w>
Dev el
7 8</w>
N ational</w>
ch ov
ě la</w>
h ý</w>
tem por
fac ts</w>
( 1
zd ů
P al
j u
IN G</w>
6 6</w>
crimin al</w>
měst a</w>
b ed
O R</w>
6 2</w>
í cí</w>
ick ými</w>
Přes ně</w>
ar ily</w>
P l
gre ater</w>
c el</w>
appe ar</w>
závaz né</w>
ed ing</w>
strateg y</w>
su gar</w>
exam ination</w>
observ ed</w>
re over</w>
tak ová</w>
ent ity</w>
at o
guaran tee</w>
š e
postup u</w>
T ed
osob ní</w>
H an
rov i</w>
ext ent</w>
L ou
áz i</w>
w all</w>
tech ni
část ka</w>
výrob ce</w>
8 3</w>
okol ností</w>
det ailed</w>
d eme</w>
kri min
s leč
se st
kur va</w>
fil led</w>
umož ňuje</w>
pur ch
každ ou</w>
ris ks</w>
R od
c ked</w>
mus íte</w>
se s
ší mi</w>
li er</w>
sto jí</w>
m el
re k</w>
Mě li</w>
C an
zd á</w>
mož nosti</w>
part ment</w>
8 9</w>
náz ev</w>
br zy</w>
jo int</w>
es peci
ri al</w>
di rective</w>
n alo
every body</w>
Appro pri
co ol</w>
u jícím</w>
differ ence</w>
z z
z ran
pal ub
dé l
li qu
la y</w>
c ut
tom uto</w>
acc oun
v l
šen ím</w>
plat né</w>
sub stances</w>
vy vá
u šení</w>
B rit
proces u</w>
1. xml</w>
m us</w>
for get</w>
de l</w>
zab rá
stup id</w>
st ated</w>
elect ronic</w>
ar ms</w>
mal ý</w>
Rus si
ved le</w>
An swer</w>
W el
M e</w>
en sion</w>
ů h</w>
beg an</w>
manžel ství</w>
meth ods</w>
O V
fin ally</w>
la ws</w>
char ak
nov á</w>
w in</w>
regul atory</w>
h an
před evším</w>
k ů
přibli žně</w>
ko st
vý raz
O B
especi ally</w>
osvěd čení</w>
dise ase</w>
Od pověď</w>
r t</w>
wor th</w>
F ol
consid ers</w>
d vě
Mo c</w>
E r
recomm end
ph armac
inter net
re ction</w>
Ex ist
hodno tu</w>
just ice</w>
suc cess
n ou
z eptal</w>
ne me</w>
Org an
le aving</w>
in spek
strateg ie</w>
it ions</w>
B ob
profess ional</w>
udrž itel
f requ
c lim
en z
A ud
ŘÍ ZENÍ</w>
charac terist
work ers</w>
Pe ople</w>
stud ie</w>
ban ky</w>
u mě
rozvo je</w>
Devel op
un it</w>
er ror</w>
ně kde</w>
relation ship</w>
6 9</w>
ele ments</w>
soudrž nosti</w>
P ů
7 6</w>
št í
v stoup
soci ety</w>
sh od
t j</w>
z pracování</w>
cháze jící</w>
kon ečně</w>
pow ers</w>
eg ory</w>
Ch y
stop ped</w>
rybol ovu</w>
m at</w>
re main</w>
š ené</w>
and er</w>
majet ku</w>
us ers</w>
L an
z ku</w>
po v
O H
nit ion</w>
nak onec</w>
pe k
as s
več e
am er
vy mez
al ia</w>
ob chod</w>
atel é</w>
do čas
C re
p age</w>
progre ss</w>
rodi če</w>
fund ing</w>
A ch</w>
vý kon</w>
j at
uveden o</w>
i um</w>
š est</w>
á ři</w>
t end
as h</w>
exter nal</w>
kon cent
cre ate</w>
J in
jec tion</w>
con tain</w>
Spo jen
č en</w>
7 4</w>
bu y</w>
orig inal</w>
s dělení</w>
ri ble</w>
dom u</w>
ho od</w>
won der
s ví
aud it
inf lu
H i
appropri ations</w>
Win dows</w>
ne mohl</w>
ži je</w>
B ra
al ed</w>
fa iled</w>
resid ence</w>
š ka</w>
T it
techn ické</w>
prior ity</w>
pode z
or ity</w>
hi bit
bor n</w>
stanov isko</w>
H um
happ ens</w>
fre ed
lo v</w>
H ou
K at
guaran te
do pad</w>
M A
ť te</w>
pro káz
čen ých</w>
D ate</w>
Z em
struktur y</w>
op ened</w>
L at
př er
a ses</w>
kon ci</w>
žen u</w>
s ice</w>
jin ým</w>
lo ha</w>
pla ce
men ší</w>
itel i</w>
benef its</w>
ob lič
jedin ý</w>
ná rok</w>
pozd ě</w>
N áz
svo je</w>
kontro lu</w>
w ood</w>
se a</w>
rů st</w>
á ly</w>
závaz ky</w>
vis ory</w>
zlep šení</w>
k as
l ého</w>
Jed en</w>
V ez
lic en
chod u</w>
pl us</w>
dvě ma</w>
mysle t</w>
7 9</w>
těž ké</w>
republi ky</w>
š ti</w>
pě t
off ici
o svob
jec ted</w>
(1 )(
mluv il</w>
Th e
represent ative</w>
S m
ý v
T ot
C iv
jist ě</w>
thou s
ně ný</w>
za znamen
soutě že</w>
12 .
při zn
rec ord</w>
I D
zem ích</w>
desc ribed</w>
F un
kapit álu</w>
bra ň</w>
v liv</w>
bre ak
li la</w>
ob y</w>
le ct
enci es</w>
c ulation</w>
u ne
impro ve</w>
zabez pe
rip tion</w>
fore ign</w>
Un der</w>
O ut
vyžad uje</w>
b ase</w>
na u
consum er</w>
cest y</w>
spec ies</w>
lod i</w>
tu hle</w>
druh ého</w>
bo že</w>
recog n
met ab
p ped</w>
ak ci</w>
N ice</w>
c vi
po čá
C hi
ur g
dam age</w>
ra cen
U m</w>
c lu
B ez
any way</w>
její ho</w>
dne ska</w>
Ste jně</w>
ves sels</w>
hol ders</w>
G ot</w>
d ů</w>
S il
v ent
k rup
po chyb
t in</w>
plat by</w>
val i</w>
fon du</w>
ab s
jas né</w>
re n</w>
doprav y</w>
EA N</w>
určit ých</w>
při jím
va ž
z lo
sle dek</w>
liv é</w>
N el
pla ying</w>
demon str
T ě
ther more</w>
č e
vztah ují</w>
C EN</w>
stra ch</w>
podpo ru
by e</w>
t lu
ted a</w>
oper ace</w>
W as</w>
cre dit
b s</w>
am ending</w>
čen ím</w>
g rat
p h</w>
ná hod
re j</w>
clin ical</w>
mil k</w>
sam ostat
Z mě
requi res</w>
ro ční</w>
sled ování</w>
hor ší</w>
Vi z</w>
tě l</w>
Dat um</w>
považ uje</w>
Appropri ations</w>
poz ice</w>
Po slouch
1 :
ne měla</w>
dě ku
a zení</w>
už it
rozhod l</w>
ag ent</w>
ch vil
poskyt nout</w>
nic í</w>
jej ím</w>
sub paragraph</w>
provoz u</w>
ener get
zn alo
po ško
Micha el</w>
li vo
ex plo
affec ted</w>
3 ,
Par t
certific ate</w>
ic ation</w>
de stro
So cial</w>
on u</w>
sur ve
na roz
cent ral</w>
Mů že</w>
ro und</w>
oper ators</w>
cau ght</w>
oper ational</w>
tak to</w>
produk tu</w>
ne ut
d ám</w>
Ger man</w>
sub sequ
Georg e</w>
infor m</w>
při způsob
zased ání</w>
s ick</w>
J im
I M</w>
d ře
br id
vy sí
pati ent</w>
equival ent</w>
EV ROP
poj ď</w>
cal ls</w>
použí vat</w>
chy l
tou ch</w>
la s</w>
C z
sub jektů</w>
deb t</w>
win dow</w>
i ky</w>
de gre
odpověd nosti</w>
em erg
tele vi
člán ky</w>
ic í</w>
ast er</w>
kdy bych</w>
te sts</w>
spo ru</w>
nov ou</w>
ší len
st va</w>
ag ree</w>
ca red</w>
ne ar</w>
P rov
an sw
hospodář skou</w>
un t</w>
j ené</w>
ri se</w>
kon stat
je zd
ř á
c ard</w>
U C
důkaz ů</w>
U S</w>
fo ot
pl ans</w>
aud it</w>
ri a</w>
sk in</w>
tar get</w>
recog ni
Some thing</w>
št ní</w>
č ili</w>
it ch
bezpečnost ní</w>
N ap
mov ement</w>
se kt
č ko</w>
MIS SION</w>
nech al</w>
g ust</w>
tud íž</w>
I D</w>
an ia</w>
ot u</w>
kv ó
D nes</w>
he zk
star ting</w>
fun ny</w>
Ref er
comp ared</w>
pod ávání</w>
ně ním</w>
rizi k</w>
za jiště
cht ít</w>
Dou fám</w>
ř ím</w>
sele cted</w>
mně l</w>
řík ala</w>
div orce</w>
N ob
P en
blí zk
report ing</w>
absol ut
EVROP SK
st o</w>
ick ly</w>
s pr
o ty</w>
D el
polož ky</w>
žen ý</w>
recomm ended</w>
služe b
Program me</w>
pol ov
c er</w>
ří dí</w>
K am</w>
odpoví dá</w>
e ut
dom est
ě ji</w>
end ant</w>
mí ru</w>
P h
lik vid
g ri
vel ice</w>
inc or
ul ly</w>
le jte</w>
199 4</w>
ra men
D r</w>
pas s</w>
redu ced</w>
trans actions</w>
okamži ku</w>
din ner</w>
v rd
E ach</w>
mp tom
limin ary</w>
minim ální</w>
S akra</w>
škod nění</w>
entit led</w>
př et
aktu alizace</w>
Mic ro
in ter</w>
con form
Dav id</w>
continu ed</w>
hlav ou</w>
Je sus</w>
a po
Můž eme</w>
COM MISSION</w>
ad er
sh own</w>
z nám</w>
Yor k</w>
úř ad</w>
hospodář ství</w>
podí vat</w>
avo id</w>
stv o</w>
diffic ult</w>
život ě</w>
' em</w>
dě v
ád a</w>
Š paněl
kon ec</w>
kategor ie</w>
St ud
I F
ná men
F uck</w>
u pozor
na horu</w>
z bav
vý znam</w>
le ment</w>
deb tor</w>
ob tain</w>
K olik</w>
dohod a</w>
identi fi
pod at</w>
con sumption</w>
actu al</w>
KO MIS
affec t</w>
S ed
ard ed</w>
D P
správ y</w>
m oun
jud ge</w>
ká mo</w>
mis sed</w>
I R
Ne chci</w>
d ě</w>
dv ac
cel kové</w>
ne od
Al ternat
de ep</w>
me ant</w>
podí l</w>
Tak y</w>
s ale</w>
soud ních</w>
EUROP EAN</w>
Reg ulations</w>
ask ing</w>
ně ná</w>
z braň</w>
D ů
sk len
cel ní</w>
ra dy</w>
ná d
volu me</w>
pas sed</w>
Ur č
L it
La w</w>
svět a</w>
obec ně</w>
F ed
facil it
prost oru</w>
de ad
g in</w>
rod in
vš im
é r</w>
O t
kul tur
g ie</w>
proto kolu</w>
ak cí</w>
cat ch</w>
J i
T ru
ar gument</w>
elektro n
ori al</w>
ká zá
M ami</w>
re ty</w>
k et
St an
špat ně</w>
týka jí</w>
rece ive</w>
žád nou</w>
lo ck</w>
V o
CO N
e ffici
Develop ment</w>
por u</w>
KOMIS E</w>
nut no</w>
S P</w>
me at</w>
de sp
s dru
ď me</w>
subsid i
dra w</w>
H ned</w>
soutě ž</w>
tox ic
S econ
Děku ju</w>
econom y</w>
si st</w>
Pr vní</w>
enc oura
druh ou</w>
vra žd
po prvé</w>
potřeb uje</w>
some times</w>
medic ine</w>
199 5</w>
vr ch
o il</w>
cen u</w>
M an</w>
victi ms</w>
Z ad
coun t</w>
I T</w>
le ch
po le</w>
využ ití</w>
sh a
D or
úř adu</w>
le jší</w>
poz mě
Pet er</w>
No te</w>
prospě ch</w>
dokument y</w>
ná ro
comp at
usu ally</w>
it able</w>
p el
enti rety</w>
Proced ure</w>
g ly
ev ents</w>
ty p</w>
ob tí
úspě š
konkur en
uzav řen
konkrét ní</w>
soud ů</w>
TE D</w>
zař az
ak t</w>
okamžit ě</w>
low ing</w>
od mě
s un
Every thing</w>
pre pa
ch ování</w>
stat es</w>
pů l</w>
po jištění</w>
tain ing</w>
dáv no</w>
separ ate</w>
C ro
čen a</w>
sk s</w>
lu v</w>
do hledu</w>
emplo y
K ur
pre mi
případ u</w>
ne um
sur ing</w>
in stance</w>
us er</w>
compat ible</w>
inf ec
po zem
z vyš
av é</w>
obsa h</w>
za jí
pro jektů</w>
ad er</w>
dod av
sk oč
ple ment</w>
c ky</w>
L ar
present ed</w>
comp let
g ot
Nem oh
Hal ó</w>
inter pret
U LA
zá kaz
způsob y</w>
bi olog
přist oup
us nad
oc cur
d voj
P an</w>
inform ed</w>
v an</w>
ne w
zat ím</w>
ul l</w>
z miz
Vid ěl</w>
Podí vejte</w>
š iro
it im
ter ap
inter pre
d ly</w>
h la</w>
vá z
předlož it</w>
redu ce</w>
oz námen
sk yt
F er
g u</w>
obchod ních</w>
te ro
pop ulation</w>
Vžd ycky</w>
m ac
includ es</w>
liv ě</w>
consid er
zá leží</w>
p ick</w>
Par ty</w>
id ence</w>
be k</w>
lo ad</w>
de set</w>
pi ece</w>
člově ka</w>
vstup u</w>
bě h</w>
.e .</w>
adver se</w>
p in
in come</w>
M ary</w>
b an</w>
concer ns</w>
te plo
r ní</w>
i .e.</w>
eu r</w>
sy n</w>
S pain</w>
cas h</w>
law yer</w>
jin ými</w>
and y</w>
recogn ised</w>
M ac
pro pos
su spec
pokrač ovat</w>
ent ities</w>
výro by</w>
dě te</w>
Fur thermore</w>
vědom í</w>
f arm
d rop
J di</w>
tom hle</w>
Eur at
technolog y</w>
serv er</w>
es ’</w>
det ec
aktu aliz
et c</w>
ú j
E T
Ch am
f ell</w>
reg ular</w>
růst u</w>
uží vání</w>
se ctors</w>
nost mi</w>
be ar</w>
oby v
ad dy</w>
vz pomí
p un
( s</w>
gh ting</w>
w id
z o</w>
cra ft</w>
for d</w>
ta ce</w>
agent ury</w>
it ní</w>
postup em</w>
konzul t
vý hrad
kon ce</w>
n ům</w>
ear lier</w>
zk us
C O</w>
particip ation</w>
al y
obla stí</w>
re pli
B e</w>
gent le
di vid
po by
ra ised</w>
ce ch</w>
re j
Au gust</w>
K rá
Z ů
k us
tá ta</w>
vrá til</w>
perf ect</w>
require ment</w>
žen ou</w>
conclus ion</w>
fi les</w>
pas sen
complet ely</w>
va ši</w>
min u
n ily</w>
Cz ech</w>
výzkum u</w>
mí st</w>
u stanoven
N at
i ze</w>
res h</w>
199 6</w>
implement ed</w>
pos ure</w>
no ted</w>
ge rous</w>
sk o
Smě rnice</w>
secre t</w>
prdel e</w>
Reg ist
not es</w>
hist ory</w>
psy ch
se ven</w>
abs ence</w>
spe ed</w>
b ac
r is</w>
jin á</w>
cház et</w>
ver sion</w>
dělá te</w>
calcul ated</w>
Ma xim
P amat
o ce
ty hle</w>
sustain able</w>
o z</w>
AN NE
tu res</w>
g y
nes ení</w>
T om</w>
Pau l</w>
condu ct</w>
nebud u</w>
ne přes
lá t
K dy</w>
Mo reover</w>
po š
1 50</w>
požadav ků</w>
elek tr
k ovat</w>
prů mysl
vy hlášení</w>
při šla</w>
g y</w>
an nul
em y</w>
St and
přek ro
leg itim
im posed</w>
závě ru</w>
reg ula
pří tel</w>
sig n
sta čí</w>
expla in</w>
fon d</w>
spor ů</w>
Ry ch
do p
ní kům</w>
zveřej nění</w>
k et</w>
pravděpodob ně</w>
independ ent</w>
as pec
am ental</w>
PŘÍ LO
ou cích</w>
recover y</w>
da ily</w>
ch am
sp i
sit ting</w>
jed ním</w>
l ation</w>
stra ight</w>
P P
dlouhod ob
í b
In forma
p es</w>
em u</w>
č né</w>
mi to</w>
al ised</w>
D et
vě cech</w>
citiz ens</w>
c ris
odpověd i</w>
Eng lish</w>
di ag
Jak ý</w>
co ff
iz on
combin ation</w>
á ne</w>
UN I
lá dá
dot čené</w>
4. 4</w>
C lar
step s</w>
writ ing</w>
sim ple</w>
writ e</w>
ž ili</w>
vy dáv
en able</w>
s ion
pozor nost</w>
, 000</w>
s niž
mrtv ý</w>
g am
mož no</w>
0 4
post i
R ád</w>
rov ých</w>
correspon ding</w>
li d</w>
inst ead</w>
part ner</w>
ú st
g overn
případ ů</w>
cle an</w>
tak ových</w>
nor my</w>
U S
ad a</w>
domest ic</w>
dom in
ick ém</w>
b ru
H old</w>
si ght</w>
růz né</w>
ca used</w>
mod i
Civ il</w>
ANNE X</w>
pic ture</w>
ok ra
Sc ot
zach ázení</w>
pre liminary</w>
il ls</w>
tu d</w>
B en</w>
u ply
sam ple</w>
náhra du</w>
hund red</w>
vývo j</w>
poz orov
N O
st ala</w>
jin ou</w>
ne mají</w>
ob s</w>
ot ce</w>
r né</w>
H u
vy tá
i kat
prů měr
otáz ka</w>
D ani
Náz ev</w>
g are
nam es</w>
lhů tě</w>
N ever</w>
v iv
odpo věděl</w>
i bility</w>
H am
řek ni</w>
vozid el</w>
ab ili
fac tors</w>
bý val
instru ment</w>
propor tion
společ en
c okoliv</w>
jaké koli</w>
ka ční</w>
Th ree</w>
potra vin</w>
characterist ics</w>
Hen ry</w>
freed om</w>
využí vání</w>
podob né</w>
Slov en
jednod uch
NA ŘÍZENÍ</w>
or ient
st ic</w>
při jít</w>
dů stoj
infra structure</w>
In vest
e ous</w>
politi ka</w>
g en</w>
Uni i</w>
PŘÍLO HA</w>
M et
REG ULA
ad lo</w>
dev ice</w>
sr p
h ab
pre jud
ob rov
sam ozřejmě</w>
ně ji</w>
jd i</w>
M od
re actions</w>
po star
ko st</w>
declar ation</w>
mis sing</w>
S I</w>
projek tu</w>
z o
invest ice</w>
d ý
d rá
zjist it</w>
f at</w>
S af
conform ity</w>
sí d
H O
ně ho</w>
D ne</w>
Zvlá štní</w>
for my</w>
f li
áz í</w>
Ú čet
do sud</w>
cí til</w>
mat u</w>
resul ting</w>
rozhod nout</w>
ON S</w>
adequ ate</w>
com for
stanoven a</w>
d ou</w>
L in
T am</w>
lear n</w>
tr vání</w>
dě t
zabezpe čení</w>
B re
A ction</w>
la ying</w>
h rn
ai m</w>
se ll</w>
I s
ne hod
poskyt nutí</w>
ban kov
op ening</w>
subjek t</w>
li c</w>
řík at</w>
má ma</w>
pri ses</w>
y sl
d ated</w>
Micro soft</w>
zahá jen
i er</w>
ent ed</w>
pl u
T ab
stav y</w>
sol v
S P
w ine</w>
re struktur
promo te</w>
curr ently</w>
gla ss</w>
wh o
nost ech</w>
legislat ive</w>
av es</w>
j ní</w>
zá sob
sy mptom
se at</w>
obsah ující</w>
m lé
jin ém</w>
Na me</w>
addres sed</w>
ick ing</w>
desig n</w>
rov ol
any body</w>
C ha
Hel p</w>
j deš</w>
op ět</w>
rež im</w>
roz to
práv em</w>
it é</w>
vysok é</w>
klí č
ar gument
účin ků</w>
den ly</w>
c ell</w>
ple as
regul ations</w>
EC R</w>
smluv ní</w>
hlí ž
y tu
deta ils</w>
ne závisl
as poň</w>
dre am</w>
dosáh nout</w>
harmon iz
le j
8 4</w>
Amer ican</w>
Žal ob
ob jem
sk lad
is k
h al</w>
min ut
n od
poz or</w>
Comm on</w>
dra ft</w>
T ati</w>
J men
man ner</w>
e ight</w>
Vlast ně</w>
lin ked</w>
T V</w>
E X
chy ba</w>
dovoz u</w>
ov atel</w>
účin nosti</w>
ex posure</w>
posk ytu
pre sc
de ar</w>
tak ovou</w>
develop ed</w>
C er
dan gerous</w>
vy vol
dis crimin
dě lej</w>
m ým</w>
J de</w>
nástro jů</w>
Ti me</w>
hol ka</w>
h om
appro xim
w ear</w>
gla d</w>
ele kt
m ý
nal ez
dů kaz</w>
Sec urity</w>
ren e
poskyt uje</w>
ch er</w>
Urč itě</w>
t ari
On ce</w>
v ak
S um
smě rem</w>
le ž
some where</w>
republi ka</w>
G al
i ed</w>
f ear</w>
af ter
lat ter</w>
recog nition</w>
Ne ther
ma z
beg inning</w>
f on</w>
' cause</w>
s mysl</w>
protec ted</w>
tě mito</w>
stor age</w>
ne bezpečí</w>
ac cept</w>
atel i</w>
P ut</w>
dru h</w>
sh ut</w>
S us
veřej ného</w>
při pad
wor se</w>
potřeb ovat</w>
be t</w>
přit om</w>
mur der</w>
stáva jící</w>
požád at</w>
klu k</w>
se eing</w>
ry b
oper ate</w>
omo c</w>
um p</w>
un its</w>
ó n</w>
jd ou</w>
( 4</w>
vnitř ní</w>
n oun
th anks</w>
ast ro
a in</w>
Obec né</w>
si e</w>
b lue</w>
t ol
ka ž
pro vádí</w>
ov ní</w>
prav od
offic er</w>
show ed</w>
zvlá ště</w>
kre v</w>
člen ů</w>
in es
L y
wh om</w>
aut a</w>
tion ary</w>
Ital y</w>
prode je</w>
plo yment</w>
10 .
regist ration</w>
al though</w>
použí vá</w>
it em</w>
vid í</w>
rec ital</w>
jist á</w>
g est</w>
ro vá
ru s</w>
Sk vě
it ou</w>
zá klad</w>
vy ře
vy rob
v čera</w>
I N</w>
pre cau
zá roveň</w>
sta irs</w>
va jících</w>
j ím</w>
in ary</w>
s ran
cat egor
gum ents</w>
st one</w>
glob al</w>
fik aci</w>
z em</w>
sch val
čí st</w>
ro l
na stavení</w>
qu ickly</w>
u vést</w>
ař ilo</w>
od liš
b are
ob ject</w>
pro ve</w>
concent ration</w>
distrib ution</w>
na ši</w>
vy bran
di es</w>
z jev
prepa red</w>
oper ator</w>
den ně</w>
att ack</w>
E very</w>
fis her
Inter net</w>
spo čí
správ né</w>
appe ared</w>
air s</w>
k m</w>
od had
ha z
F B
vo la
hlub ok
soci álního</w>
consid eration</w>
Sou d</w>
ochran ě</w>
dru hy</w>
kter ými</w>
úč a
re ading</w>
fran couz
S U
vš e
F ine</w>
initi al</w>
reason able</w>
ing ing</w>
sou dem</w>
U SA</w>
adv ice</w>
partner ství</w>
lu ck</w>
import ance</w>
pot í
od sud</w>
hosp ital</w>
účin né</w>
krup t
Nether lands</w>
get ary</w>
závaz ků</w>
int el
sou bor</w>
men out</w>
ž né</w>
z obraz
n one</w>
A id</w>
prejud ice</w>
pro je
stup ně</w>
Němec ko</w>
použí v
h ey</w>
re la
předběž né</w>
scienti fic</w>
tajem ství</w>
E T</w>
comple ted</w>
fin ished</w>
dostat ečně</w>
prac uje</w>
y e</w>
ordin ary</w>
c yc
zá kon</w>
c ené</w>
jednot ky</w>
en suring</w>
Amer ica</w>
žalob y</w>
všech na</w>
s dí
jud ikat
prez ent
J a
v ti
Nem ám</w>
ph ical</w>
řád ně</w>
ie f</w>
char ges</w>
P ap
ven kov
an ého</w>
Commun ities</w>
d ered</w>
ba g</w>
posled y</w>
pan ts</w>
jen ž</w>
A ct
tem per
srov nání</w>
e ko
H O</w>
C C
krupt cy</w>
J ack
advant age</w>
ach ieve</w>
giv es</w>
č a
vlá da</w>
bu tions</w>
dis krimin
cat egory</w>
d uration</w>
C ur
B a
K en
hol der</w>
vo jen
gh tly</w>
pract ices</w>
su n</w>
ú zem
šk ody</w>
inter ven
de rog
met ody</w>
směr nici</w>
Č e
tempor ary</w>
8 6</w>
sou boru</w>
hy po
il li
chtě jí</w>
A M
pos itive</w>
gre en</w>
fu ck
pokry tí</w>
ru ling</w>
P oh
accep ted</w>
Fra mework</w>
shou l
h ud
Th om
wat ching</w>
před ložen
p ag
pě ti</w>
čin u</w>
M el
lov ed</w>
Soud ního</w>
mar ks</w>
contain ed</w>
c al</w>
ú lo
4 00</w>
REGULA TION</w>
p amě
conf lic
potřeb uju</w>
ovan ým</w>
č el</w>
K ing</w>
b ig
použi jí</w>
Fran k</w>
vytvo ření</w>
to t
p ho
M em
po or</w>
U T
sto ck</w>
dok um
per haps</w>
concer n</w>
per s</w>
cris is</w>
cal ling</w>
vyd ání</w>
dit ional</w>
N en
regard ed</w>
bec ame</w>
s old</w>
T ar
ní že</w>
c eme</w>
Rich ard</w>
I tá
at ures</w>
v i</w>
cho ose</w>
es cap
ha jí</w>
v ement</w>
chvil ku</w>
Ž á
inici ativ
fe ed</w>
B ůh</w>
re cep
l ink</w>
no hy</w>
ta j
on o</w>
o čí</w>
S ol
naprost o</w>
m al</w>
náz oru</w>
K el
and a</w>
abil ities</w>
der iv
Ote v
l un
me ch</w>
ko ly</w>
s cared</w>
- -
http:// www.
pro zatím
constit ute</w>
defin ition</w>
mach ine</w>
. m
pří pady</w>
b ast
on emoc
Roz um
spo leh
alternat ive</w>
nost em</w>
země pis
bro ken</w>
Bě ž</w>
nahraz uje</w>
dob rovol
t ill</w>
povin ností</w>
běž né</w>
h n
nej větší</w>
ap plying</w>
By e</w>
to ward</w>
op ra
ma d</w>
od es
ů l</w>
Ju li
.europa .eu
se y</w>
m ání</w>
děl í</w>
5 0
ved l</w>
be l</w>
Ne jsem</w>
představ ují</w>
stre et</w>
zastav it</w>
st ing</w>
š em</w>
T FEU</w>
opportun ity</w>
vzor ku</w>
w ind</w>
Eurat om</w>
pracov níků</w>
příj mů</w>
itel é</w>
OH IM</w>
P AR
contro lled</w>
zá bav
R ev
Ad minist
Á V
de jte</w>
e fficient</w>
M m</w>
napad eného</w>
druh ů</w>
gran d
car rying</w>
secon ds</w>
tri butions</w>
manufactu rer</w>
úmlu vy</w>
et ings</w>
vid íš</w>
a čního</w>
la ck</w>
ško ly</w>
ň ující</w>
respec tive</w>
per man
ff s</w>
am in
určen a</w>
Mi ke</w>
st ability</w>
te ach
jíd lo</w>
ther apy</w>
Vžd yť</w>
Dě lá
z ky</w>
ist s</w>
aw are</w>
chec ks</w>
h id
4. 2</w>
začí t</w>
K an
rel and</w>
loc ation</w>
předpo kladu</w>
z mat
pro hib
consum ers</w>
ari an</w>
re ctor</w>
happ ening</w>
gu idelines</w>
práv ně</w>
b at</w>
, 5</w>
pos si
s í</w>
součas né</w>
te ční</w>
an u</w>
C ohesion</w>
se ek
ot ing</w>
3 9
přech od
prů mě
bit ch</w>
žen á</w>
stro j</w>
přek áž
Be fore</w>
měst o</w>
pl ane</w>
St rateg
Per haps</w>
urč ené</w>
bi o
svo ji</w>
c ited</w>
ne viděl</w>
mod e</w>
š anci</w>
ac emi</w>
do le</w>
orgá nům</w>
v ou</w>
E li
sch em
amend ments</w>
vidě li</w>
domní vá</w>
sí ť</w>
h ub
ší mu</w>
stá tem</w>
g ged</w>
ur red</w>
num bers</w>
web site</w>
region ů</w>
ždě ní</w>
ne igh
K AP
se ch</w>
tv ou</w>
interpret ation</w>
Ab out</w>
p ha
od dělení</w>
poh led</w>
dob a</w>
řet ě
ta sks</w>
vo te</w>
Sh ut</w>
přátel é</w>
F ar
peně z</w>
J ane</w>
propos als</w>
vrá t
V ra
ti red</w>
k ru
V ic
náv ště
uveden ým</w>
dítě te</w>
star ý</w>
ne musí</w>
úprav y</w>
tý če</w>
RO Z
tri al</w>
n ili</w>
za st
T al
ub lí
pack age</w>
gh out</w>
S wed
S to
čí ch</w>
re struct
jd ete</w>
cop y</w>
T able</w>
wal ked</w>
ky sel
contrib ute</w>
ick s</w>
ces chop
origin ating</w>
St re
závis losti</w>
j n</w>
změ n</w>
de se
dra w
tvá ř</w>
star ší</w>
bro ke</w>
va z
fam ili
základ ních</w>
s me</w>
člán ků</w>
vě zení</w>
udělá m</w>
att emp
na m</w>
ě j
roz u
sm rt</w>
ap li
z bý
achiev ed</w>
1 1
původ ním</w>
pl né</w>
bě žná</w>
dr in
stanov ená</w>
neg ative</w>
I reland</w>
ov ými</w>
k ni</w>
ve get
mil itary</w>
d ni</w>
Am eri
Jam es</w>
gener ally</w>
př ich
ri bu
D ata</w>
přen es
ec k</w>
ap lik
obě tí</w>
tra in</w>
mys li</w>
min ul
sp ent</w>
el im
te pl
stanoven y</w>
H mm</w>
m ých</w>
KAP IT
as y</w>
S et
vla sy</w>
tain s</w>
f und</w>
Řek la</w>
t ic
V AT</w>
lí p</w>
kom ple
poz it
applic ants</w>
vů j</w>
f oun
J deme</w>
před lo
Di rect
at d</w>
peri ods</w>
phys ical</w>
pro te
ad ed</w>
D ov
im ent
sv ému</w>
C at
Tit le</w>
sk ému</w>
práv ním</w>
A B
ví t
práv ními</w>
tvr zení</w>
využ ít</w>
evrop ských</w>
po rov
I C</w>
č ilo</w>
fin ding</w>
o po
Z í
kap ac
S ur
pe c</w>
main tain</w>
gra ce</w>
říká š</w>
bec om
e ř
lhů ta</w>
CH AP
it ems</w>
f fic</w>
jedno m</w>
Re port</w>
g a</w>
P ac
směr nicí</w>
St ru
tra vel</w>
g lu
dan ého</w>
ic ed</w>
fu el</w>
otáz ce</w>
ut ing</w>
ent ní</w>
Pro b
c la</w>
ar ks</w>
h en
naš eho</w>
M P</w>
l ím</w>
přísluš ným</w>
š ila</w>
ne můžeš</w>
m ém</w>
urč it</w>
expec t</w>
innov ation</w>
her self</w>
Nem ů
sim ply</w>
se min
fi f
výbě r</w>
dou ble</w>
ch lad
u n</w>
ved ení</w>
č ce</w>
N um
A U
Je jí</w>
vide o</w>
Ch ina</w>
pla ces</w>
Reg ional</w>
žen ím</w>
soun ds</w>
ill ance</w>
in ts</w>
se ts</w>
OL A</w>
skup ina</w>
vzdu chu</w>
nád her
just i
f it</w>
con tributions</w>
pohy bu</w>
má lo</w>
mlu víš</w>
bra in</w>
an ced</w>
Jed na</w>
tr áv
měst ě</w>
Poznám ky</w>
V Ý
CHAP TER</w>
ch lá
effici ency</w>
mov it
měsí c</w>
z lom
form er</w>
Z dá</w>
ku m</w>
mi kro
t ender</w>
f light</w>
ac id</w>
commit ted</w>
tou to</w>
doub t</w>
k ot
al th</w>
vé d
nebud ou</w>
ma ster</w>
vlá dy</w>
pro dáv
posled ních</w>
cent rální</w>
vel ká</w>
ok ed</w>
Bel gi
ag ing</w>
k l
zaměstnan osti</w>
restruct uring</w>
cor rect</w>
Tot al</w>
konkuren ceschop
st ation</w>
mlu ví</w>
F unds</w>
plan ned</w>
S he
got ten</w>
na z
ten d</w>
da m</w>
souvise jících</w>
it ch</w>
výsled ků</w>
2 2
ap preci
N ak
inj ury</w>
sen sit
.europa.eu /
is on
poky ny</w>
Un der
Vě t
mus ic</w>
jednod uš
R el
B P</w>
prost or</w>
Dam n</w>
sur face</w>
u jícího</w>
tr ary</w>
KAPIT OLA</w>
bud getary</w>
sh ran
sho ot</w>
devel op</w>
st y</w>
usu al</w>
mal á</w>
věř ím</w>
refer enční</w>
in hibit
S hi
pod áv
m ami</w>
Žád né</w>
St ay</w>
199 2</w>
Kon tro
sp á
Im plement
zab ý
T an
roz poru</w>
š est
schop nost</w>
jas ný</w>
A .</w>
c m</w>
š uje</w>
diffic ul
nen áv
ni m</w>
pomal u</w>
I .</w>
dem and</w>
vý zkum</w>
obsah ovat</w>
jak ý
závě r
s ent
lo stí</w>
nej později</w>
č t
z moc
id a</w>
en ě</w>
Po tom</w>
produc er</w>
cre ated</w>
enc ed</w>
st abil
míst nosti</w>
obsa hu</w>
categor ies</w>
Ear th</w>
dro p</w>
hon ey</w>
b ory</w>
příprav ků</w>
St ra
vy p
se be
změ nu</w>
dov oz</w>
te jte</w>
ú silí</w>
Jim my</w>
PŘ I
fi x</w>
fal ling</w>
provádě t</w>
U se</w>
L é
pravomo c</w>
Pan í</w>
evrop ského</w>
test ing</w>
Sh it</w>
stan t</w>
organiz ací</w>
t ati</w>
un ii</w>
sch edu
v ad
expres sed</w>
show s</w>
V áš</w>
ap pointed</w>
změ ně</w>
č aro
S en
sled ovat</w>
muž ů</w>
comm ents</w>
len g
ca st</w>
zásad ě</w>
vel kou</w>
C P
šen ý</w>
kam a</w>
ex ist</w>
ar u</w>
am az
C Y
l at</w>
srp na</w>
skup inu</w>
mach ines</w>
k ři
ord ered</w>
end a</w>
Sh ould</w>
aliz aci</w>
lab our</w>
kon struk
z práv</w>
param et
AC E</w>
přid ru
s in</w>
defin it
in jection</w>
fru it</w>
pl od
úrov ně</w>
vol un
na jednou</w>
ali ze</w>
bro ad
Ital ian</w>
do ta
C ity</w>
coff ee</w>
exceed ing</w>
S lu
ne ither</w>
Cent ral</w>
be at</w>
L et
pod poř
.m .</w>
Ch in
Net work</w>
swe et</w>
iz ed</w>
speci fic
In de
hmot nosti</w>
ha m</w>
hand le</w>
mí ry</w>
ne jsi</w>
geogra phical</w>
r ide</w>
cháze jí</w>
s word</w>
li dem</w>
zni v
199 3</w>
spo t</w>
contro ls</w>
zbran ě</w>
throu ghout</w>
ma je
sc é
olog y</w>
řad ě</w>
přis pí
te en</w>
tý dny</w>
Ř ec
iná ch</w>
at eral</w>
to rem</w>
ak es</w>
práv u</w>
účin ek</w>
re lease</w>
zdů raz
u ště
Nob ody</w>
zept at</w>
fo ot</w>
oro vání</w>
káž u</w>
pro po
Ap pe
C -
ves sel</w>
ho ře</w>
P L
f low
b ound</w>
bo at</w>
spo ke</w>
sl un
.010 0
pro ud</w>
K ter
vy stav
plat it</w>
at elem</w>
Wh ile</w>
ra b
200 6/
he j</w>
hlas ování</w>
poko ji</w>
in em</w>
z r
vytvo řit</w>
E G
nezbyt ná</w>
n ant</w>
ch ro
dat um</w>
k av
k i</w>
ev ening</w>
emerg ency</w>
us poko
Mysle la</w>
zap la
C F
hospodář ského</w>
con ven
h led</w>
L ea
it ted</w>
just ified</w>
na posledy</w>
její ch</w>
ses sion</w>
svob od
bre a
tý dnů</w>
K Y</w>
ra da</w>
část ku</w>
ric ity</w>
lid ské</w>
naš ich</w>
8 5
je ví</w>
W ar
quant ities</w>
přezkum u</w>
dec la
T vůj</w>
ne řekl</w>
p hi
g un
nějak á</w>
mi les</w>
Wh ereas</w>
re ci
fa jn</w>
Ru les</w>
Poj ďte</w>
h am
raz il</w>
Pro f
pod ě
er ated</w>
po sto
victi m</w>
Man ufac
dě ní</w>
iv é</w>
ve j
dru hu</w>
G r
M íst
Po ložky</w>
Hi gh</w>
stran ge</w>
s ně</w>
im possible</w>
stát ních</w>
boh at
om lou
b ing</w>
adres u</w>
V yt
drž et</w>
provádě cí</w>
ost rov
ext ended</w>
thin ks</w>
emis sions</w>
Wh atever</w>
muse la</w>
pre ced
hod inu</w>
ak tiv</w>
gran ting</w>
v ac
C all</w>
sk ut
jednotliv é</w>
M ake</w>
vý slov
il ní</w>
politi k</w>
Dobr é</w>
Rad ě</w>
skvě lý</w>
consist ent</w>
dost ala</w>
am ing</w>
cap able</w>
jak ou</w>
ob ra
přij ala</w>
transm ission</w>
be j
á ku</w>
vis ed</w>
Ma x</w>
T ER
pohy b
prode j</w>
sa h</w>
soud ce</w>
D F</w>
pres ence</w>
confir med</w>
Op en</w>
pí se
ac qui
sk em</w>
dov oli
op tion</w>
eč ný</w>
y ho</w>
ne existuje</w>
l ut
im pa
Opat ření</w>
Manag ement</w>
od hal
P lu
rod iny</w>
plavid la</w>
připomí nky</w>
kom is
dokáz al</w>
pů jde</w>
la h
ac cel
Dohod y</w>
initi ative</w>
itel ný</w>
4 0
posuz ování</w>
a ff
vyšet řování</w>
y el
sha res</w>
zaved ení</w>
bil lion</w>
S at
M ur
de p
de si
z pět
ot y
ple a</w>
De fin
choz í</w>
f resh</w>
pode ps
pla yed</w>
Y ou
w ards</w>
účin nost</w>
comm ittee</w>
st ed</w>
kval ity</w>
Jed in
N iz
lau gh
ú ro
p tion</w>
vaš eho</w>
schem es</w>
sa h
Moh u</w>
sle ch
c andid
Evrop ě</w>
čin í</w>
ř adu</w>
no body</w>
al ko
T i</w>
annul ment</w>
norm ální</w>
Org ani
d ce
dri ving</w>
en ým</w>
vlast nictví</w>
fi x
ov o</w>
tw ice</w>
comm and</w>
port s</w>
sch od
naš li</w>
remain s</w>
no on</w>
vybav ení</w>
cel kem</w>
vra ž
nu to</w>
in ky</w>
we st</w>
zvlá d
sna ží</w>
z jištění</w>
z vá
znak y</w>
DP H</w>
inc urred</w>
off ered</w>
na hra
pre sid
i al</w>
d av
uk lid
tr ž
inspec tion</w>
acc ident</w>
led ne</w>
zač ala</w>
tiv eness</w>
fon dů</w>
Vá s</w>
ar guments</w>
support ed</w>
ná ležit
cre w</w>
st im
čin ů</w>
ič ních</w>
bli ž
pan a</w>
láda jí</w>
stran u</w>
re turned</w>
li f
tiv ity</w>
k áv
l ice</w>
ro vání</w>
ak e
conf identi
M ex
as ing</w>
rám ce</w>
zdravot ní</w>
úča sti</w>
ok rát</w>
lu cky</w>
I EC</w>
b us</w>
ne mohou</w>
nav ig
I sl
i ka</w>
n ka</w>
zab í
schop nosti</w>
cí t
D od
li es</w>
tis íc</w>
per cent
V II</w>
1 1.
úč t
sud denly</w>
appe ars</w>
th es</w>
do pro
Niz ozem
Con tra
En erg
něj ších</w>
vě n
úč el
u ální</w>
am ed</w>
h un
Sly šel</w>
vzta h</w>
te j</w>
l ing
As soci
na chází</w>
pé če</w>
zku š
Comm it
m as</w>
receiv ing</w>
ob ran
prv ky</w>
dv ak
C a</w>
A G
emis í</w>
pust it</w>
vy hov
conne cted</w>
vý chod
té hle</w>
s low
ok ing</w>
po soud
Pře staň</w>
veče ři</w>
hled at</w>
z t</w>
commit ments</w>
zá pad
in sul
ho tel</w>
vrá tí</w>
u la</w>
Bu ď</w>
dom ě</w>
dvak rát</w>
os vět
pra kt
mas s</w>
h ád
F e
A ha</w>
um n</w>
region y</w>
j obs</w>
da je</w>
mno ha</w>
tě mi</w>
návr hy</w>
tra ck</w>
sup er</w>
inform aci</w>
dodrž ování</w>
re ver
vod ní</w>
al u</w>
nej de</w>
pro per</w>
bour g</w>
develop ing</w>
sol di
st ore</w>
Some one</w>
kapit ál
por ters</w>
Am end
provis ional</w>
export ing</w>
T ele
Z lat
Ch an
pod ně
coordin ation</w>
Z d
mo ji</w>
dohod u</w>
Evropsk ých</w>
příj my</w>
str áv
po znamen
me etings</w>
ovan ém</w>
vy rá
zach ování</w>
perform ed</w>
součas ně</w>
pěk ně</w>
dost ali</w>
vlast nosti</w>
oček áv
sp át</w>
olog ical</w>
classi fied</w>
považ ovat</w>
b un
st ly</w>
relev antní</w>
loc ked</w>
Vid íš</w>
regist raci</w>
se dě
un av
wh is
b lin
ban ks</w>
děl ala</w>
t ře
li ability</w>
T vo
ká r
pe ace</w>
we ird</w>
tis í
po int
ná zv
con trary</w>
ck et</w>
větš ina</w>
le ading</w>
tra ffic</w>
tal ked</w>
ap art
d ali</w>
jedn at</w>
Fa ther</w>
aspec ts</w>
sm a</w>
ně mec
sou dy</w>
ov šem</w>
st a</w>
rov no
d ani</w>
ř uje</w>
sup pose</w>
k lo
car ri
pře shran
př il
p ist
Dan ny</w>
Com pet
Pá ni</w>
ga in</w>
inf ek
P S</w>
k ali</w>
žit í</w>
strá nky</w>
Ty pe</w>
s ami</w>
nen a
V ám</w>
el le</w>
z h
recommend ations</w>
k ýv
Sta ff</w>
tex tu</w>
sy na</w>
di am
o v</w>
N on</w>
řen ý</w>
By li</w>
de pos
relev ance</w>
výrob ní</w>
effor ts</w>
t ý</w>
odbor né</w>
Hla vní</w>
pro ces</w>
přísluš ného</w>
ch ud
la sk
docum ent
bo ss</w>
sele ction</w>
ob il
success ful</w>
nežád oucí</w>
pul led</w>
di ver
řen a</w>
w er</w>
služ b
pre fer
Po s
dal šího</w>
indust rial</w>
D ejte</w>
ic ích</w>
hor izon
represent ed</w>
quest ion
mo jí</w>
haj z
h es
W o
náz or</w>
sdru žení</w>
Tra de</w>
ar ti
ud y</w>
hod il</w>
c od
fo cus</w>
dre w</w>
wel come</w>
E D</w>
rat ing</w>
won der</w>
projek ty</w>
produk ce</w>
U kra
degre e</w>
B on
M ol
e en</w>
Bě hem</w>
th row</w>
f en
příspě vek</w>
ne se</w>
sk i</w>
na stav
coun ter
slyš et</w>
institu cí</w>
jo in</w>
op s</w>
With out</w>
prim ary</w>
e a</w>
bole st</w>
šen a</w>
dosa ženo</w>
ab sor
potřeb a</w>
y ch
zahr nut
P ay
Est on
asse ss</w>
ag g
mem ory</w>
brat r</w>
we igh
cí tím</w>
R en
plan ning</w>
čen y</w>
Spo jené</w>
ch air</w>
N y
vě t</w>
rodič ov
dist ribu
d ry</w>
aktiv ní</w>
K ore
D rž
j ete</w>
th a</w>
part ners</w>
record s</w>
maj ority</w>
sc ale</w>
lu je</w>
Hod no
blízk o</w>
3 4
dov ed
špat né</w>
F ac
muse jí</w>
rec ent</w>
a il</w>
struk tu
k la</w>
hlou p
Speci al</w>
b al</w>
voj á
R os
C ust
introdu ced</w>
stej ný</w>
pop ulace</w>
constru ction</w>
Commun ication</w>
získ ání</w>
A D</w>
jící mu</w>
přísluš nými</w>
příprav kem</w>
pro m
le te</w>
as su
bel on
thous and</w>
loc ated</w>
estim ated</w>
jedin á</w>
nej en</w>
L im
S ever
Záv az
in tra
cel á</w>
ch e</w>
S C</w>
pou ště
Vel mi</w>
communic ations</w>
Lu x
zvlášt ních</w>
D op
podpo rovat</w>
F o
š ní</w>
compon ents</w>
ip ul
sm luv</w>
sig ná
organiz aci</w>
1. 1</w>
C as
re spek
dan ý</w>
J elikož</w>
t ent
rá t
ES F</w>
dě j
acces sion</w>
elect ricity</w>
as signed</w>
uděl ali</w>
di stance</w>
s lo</w>
H DP</w>
200 4/
desc ription</w>
indic ate</w>
ni koli</w>
Bud eme</w>
žádo stí</w>
re akce</w>
bal ení</w>
úč ast</w>
be m</w>
M ul
Le x</w>
přin es
pro kázá
ode jít</w>
sí ly</w>
příjem ce</w>
hlav ě</w>
tří dy</w>
sav ed</w>
pen sion</w>
g al</w>
infra struktury</w>
Al though</w>
svět la</w>
za člen
fi ghting</w>
at ic</w>
b ř
kó d</w>
R um
p a</w>
z ené</w>
Sly š
sekt oru</w>
o rem</w>
začí ná</w>
nalé hav
F il
pre ven
D un
ner ship</w>
ri d</w>
kter ému</w>
J on
Organi zace</w>
s n
eč ná</w>
sur viv
PŘI J
ho le</w>
plan et</w>
Ví ce</w>
incor por
m lá
fle x
sta ňte</w>
pul l</w>
léč bě</w>
Tak hle</w>
vo c
clo sure</w>
apo log
di pl
bil ities</w>
ter rible</w>
pli fied</w>
zar u
uč ování</w>
pen al
civ ili
změ na</w>
nat el
consequ ences</w>
ni z
en ant</w>
od kaz</w>
ex ha
adjust ment</w>
wor ried</w>
začá tku</w>
náhra dy</w>
Za č
Ý CH</w>
rad ši</w>
T em
Rem ember</w>
živ ovací</w>
Evropsk ým</w>
Čá st</w>
pust il</w>
eng ine</w>
ta il</w>
G DP</w>
D A
a huje</w>
stu po
mist ake</w>
Secon d</w>
rom ady</w>
len ě</w>
čty ř
o ly</w>
svět lo</w>
B us
st abili
Č au</w>
radi o</w>
stran ami</w>
át or</w>
an te</w>
hvě zd
colle ction</w>
technolog ií</w>
certain ly</w>
excep tion</w>
medi um</w>
tvo ří</w>
zá mě
ov atele</w>
3 6
T ony</w>
rod ina</w>
S how</w>
ta hle</w>
ček at</w>
kritéri í</w>
ci gare
fac tor</w>
ob leč
ná sob
lid ských</w>
é n
norm ally</w>
asse ssed</w>
ester day</w>
ch lor
N A</w>
při roz
pat h</w>
R ak
or an
vy pracov
liv er</w>
vy kaz
exist enci</w>
Pří sluš
em ia</w>
Evropsk ou</w>
dev ices</w>
me k</w>
ž íš</w>
Č er
č ej
přest o</w>
t ým</w>
F org
Chtě la</w>
ho st</w>
pří pust
spoust u</w>
tele fon</w>
D ri
skvě lé</w>
im plement</w>
Chin ese</w>
compet itive</w>
veter iná
klad ů</w>
Rem arks</w>
caref ul</w>
A ir
Vět š
weapo ns</w>
tr hů</w>
do stane</w>
vy dá
decla red</w>
charac ter</w>
do jde</w>
š ed
H ung
len a</w>
sur pr
dri ver</w>
Žád ný</w>
uch ov
M A</w>
pří běh</w>
použí vá
ó ny</w>
jak mile</w>
Organ isation</w>
ř iz
in i
poko j</w>
Mar k</w>
Informa ce</w>
C opak</w>
OS N</w>
při hlá
3. 2</w>
pot vrd
S FEU</w>
po jist
trans action</w>
u ra
představ it</w>
rá l
sí tí</w>
Pro tec
occur red</w>
drž í</w>
liv ý</w>
Za po
o znam
Sar ah</w>
sh ar
s dě
shro má
it ting</w>
offici als</w>
h ne</w>
á la</w>
Z ap
tla čít
předlož í</w>
fin ance</w>
buil t</w>
zbran í</w>
str a</w>
Af ric
Potřeb uju</w>
m p</w>
pres sion</w>
M as
I B
š né</w>
v ul
Fran k
Bud eš</w>
Saf ety</w>
chla pe</w>
M ove</w>
blí ž</w>
ř en</w>
H AS</w>
stanoven o</w>
fund amental</w>
manag ed</w>
ž nosti</w>
d ál
před sed
expen ses</w>
obec ného</w>
on line</w>
s vými</w>
pod iv
př ej
d vo
vý z
n on
atta ched</w>
vě ří
fung uje</w>
us az
ed s</w>
it or</w>
stric t</w>
stanov iska</w>
ke eping</w>
D ále</w>
D O
id u</w>
ř ed</w>
tv á</w>
qui et</w>
cal culation</w>
ou ght</w>
skup in</w>
accoun ting</w>
výrob u</w>
beh avi
re moved</w>
de emed</w>
enti ally</w>
exam ined</w>
shi p
pod ařilo</w>
emp ty</w>
b ie</w>
po ně
přen os
ho l</w>
ard ing</w>
řen ím</w>
Výrob a</w>
TH IS</w>
benefici ary</w>
í bí</w>
po št
p .m.</w>
vis it</w>
cest a</w>
r ations</w>
řen ých</w>
de al
iv eness</w>
ak tu</w>
Při prav
k es</w>
kla si
m its</w>
fed er
tot ally</w>
determin ing</w>
o cel
produ ce</w>
design ated</w>
ad d</w>
veřej nosti</w>
2 50</w>
doru čení</w>
ič ka</w>
Pol and</w>
sou ght</w>
subjek tu</w>
oper ací</w>
é mi
invest ments</w>
regist er</w>
brid ge</w>
á ta</w>
zá chran
br inging</w>
ri e</w>
k in</w>
řen y</w>
re t</w>
zeměděl ských</w>
zají má</w>
P ě
del ay</w>
R am
Jak á</w>
ní kovi</w>
di rection</w>
tran sport
rozhod ne</w>
b i</w>
vi rt
sm art</w>
jazy k</w>
inten z
c lick</w>
P ur
zat racen
při šli</w>
mo tor</w>
výrob ců</w>
we aring</w>
V III</w>
F ore
ut í</w>
úč et</w>
přím é</w>
Zd rav
A l</w>
def endant</w>
zkouš ky</w>
psy cho
facilit ate</w>
ex tra</w>
sna žil</w>
j ader
4 6
H ur
Syst em</w>
clo thes</w>
identi fication</w>
ser ver
exper t</w>
ni a</w>
ro ck</w>
sla b
podstat ě</w>
maje tek</w>
invest iční</w>
re jected</w>
j a</w>
serv ation</w>
záležit osti</w>
sig ns</w>
hospodář ský</w>
Lux em
R ol
od vola
m ra
he pat
ag ents</w>
dokument u</w>
me ň</w>
he avy</w>
st at</w>
lod ged</w>
L ev
us nesení</w>
S li
podob ě</w>
du š
z rych
dv ou
pa ir</w>
T ím</w>
hor se</w>
jedin é</w>
spoj ené</w>
i ku</w>
to to
rou gh</w>
g old</w>
ri g
support ing</w>
men u</w>
M á
tur ns</w>
ý t</w>
od tud</w>
bus y</w>
dne ch</w>
ion ální</w>
hum an
d ance</w>
pr ud
toxic ity</w>
bod ů</w>
uplat ň
accord ingly</w>
b ral</w>
tě m</w>
otáz ek</w>
lož it</w>
spraved l
rám cov
on om
zástup ci</w>
skuteč né</w>
předchoz í</w>
al isation</w>
T řeb
umož ní</w>
occ up
k le
dokument ů</w>
roz liš
qu ick</w>
ryb ář
Ar t</w>
appropri ation</w>
opráv ně
f low</w>
streng th</w>
C aro
rect ly</w>
hlav ních</w>
před u</w>
řetě z
dokum ent</w>
j our
a jící</w>
approxim ately</w>
g ly</w>
p ack</w>
následu jících</w>
Belgi um</w>
vš eho</w>
clear ance</w>
form al</w>
sk r
Appe al</w>
et u</w>
kro k</w>
Fran cie</w>
oc cas
V E</w>
AD OP
eg u
ar a</w>
sluč itel
an ne
V ů
Refer ence</w>
ná prav
e es</w>
Mus íte</w>
F ree</w>
uzav ření</w>
pro cent
k lep
identi fy</w>
význam né</w>
polic ie</w>
valid ity</w>
tv ého</w>
prez ident
ob vin
nic méně</w>
Con tro
technolog ie</w>
podni k
ob li
u přes
výrob ci</w>
dor az
amend ment</w>
bo oks</w>
S pe
ne movit
ř ili</w>
liv ed</w>
přílo ha</w>
zalo žení</w>
naš tv
hod not</w>
Ma j
st ick</w>
přísluš nosti</w>
manž el</w>
r ich</w>
Every one</w>
he at</w>
lear ned</w>
F OR
jednod u
rozší ření</w>
přij me</w>
val u
dru g</w>
Act ually</w>
ADOP TED</w>
at tra
por a</w>
air craft</w>
pů jdu</w>
Mo st</w>
leng th</w>
osob ních</w>
Rych le</w>
temper ature</w>
quant ity</w>
potřeb í</w>
artic les</w>
t ore</w>
Mysl íte</w>
la v
z vol
deliv ered</w>
původ ní</w>
de tek
prostřed ku</w>
atel né</w>
rov ého</w>
en u</w>
ad mis
zjist il</w>
et a</w>
V ed
č ase</w>
.. ..</w>
dovoz ní</w>
Fin ally</w>
zav á
nes ses</w>
ful f
šen y</w>
opportun ities</w>
li ber
alloc ation</w>
wit ness</w>
pá nové</w>
man i
bur den</w>
inc l
mid dle</w>
a c</w>
rel ations</w>
pres sed</w>
on to</w>
ste el</w>
percent age</w>
consul tation</w>
vědě li</w>
ří dí
Tak ing</w>
she et</w>
vš emi</w>
kil ling</w>
dist or
nej lep
port ion</w>
s mi
ex tre
dokon al
doh od</w>
Pro střed
Jak mile</w>
su b</w>
no rem</w>
MEN T</w>
dotčen ého</w>
Z e</w>
inde x
Bil ly</w>
cov ers</w>
tur ning</w>
důvod ům</w>
Smlou vu</w>
za ční</w>
subsequ ent</w>
dě lají</w>
dí l
ó zní</w>
A R</w>
qu ot
e ze</w>
s ně
nej vyšší</w>
ci pl
ic o</w>
i or</w>
ho tel
zvý šit</w>
purch ase</w>
8 7
f at
t ick
za potřebí</w>
it es</w>
techn ických</w>
sym bo
M no
ca re
k ne
enjo y</w>
nam ed</w>
č ný</w>
lat est</w>
DN A</w>
tw are</w>
T ed</w>
t ask</w>
stran ou</w>
A re
sto le</w>
ško le</w>
s lad
vo lal</w>
g est
facil ities</w>
Sou th</w>
er ve</w>
f em
zel en
ch o</w>
fi es</w>
claim ed</w>
živ u</w>
přimě řené</w>
cuk ru</w>
čí n
m í</w>
pě st
invest ic</w>
pova hy</w>
dáv ka</w>
a čních</w>
mad am</w>
vš ude</w>
podpo ře</w>
zd an
C ‑
Bob by</w>
elekt ř
t ations</w>
m in</w>
su m</w>
u věřit</w>
Bel g
rec tives</w>
R ed</w>
pe k</w>
I L
pha se</w>
Poslouch ej</w>
ch em</w>
: 00</w>
K ate</w>
jak ým</w>
Hou se</w>
před em</w>
z řejmě</w>
John ny</w>
jí ch</w>
comp ani
3 7
A no
rej stří
the less</w>
ser ies</w>
F on
fir m</w>
skup ině</w>
lod í</w>
zav o
n ut</w>
imag ine</w>
f ly</w>
ne máš</w>
g ol
sou střed
zahrn ují</w>
L oc
zn al</w>
S E
de fic
mezinárod ních</w>
M luv
r áv
přev z
Luxem bourg</w>
se ment</w>
poby tu</w>
vy bí
deliv ery</w>
L t
PŘIJ AL
plan ts</w>
3. 1</w>
te ř
č ními</w>
jed e</w>
idi ot</w>
re y</w>
š er
stat ut
f ázi</w>
kvali fik
id y</w>
č in</w>
tre at</w>
písem ností</w>
od chyl
U vidíme</w>
requ ests</w>
n ku</w>
situ ations</w>
2. 2</w>
ter ro
signific antly</w>
ni koho</w>
N G</w>
av ý</w>
Gre ece</w>
u tions</w>
buil d</w>
Bi g</w>
vývo je</w>
vz po
COM (
a č</w>
N ad
Jed nou</w>
integ rated</w>
pod la
J ap
chec ked</w>
J im</w>
pop s
interpre ted</w>
Nech te</w>
ček á</w>
s mile</w>
s ac
F is
8 /EC</w>
pr ch
apli kace</w>
C op
Dob rou</w>
gro wing</w>
itel ství</w>
vyvá že
uni form</w>
observ ations</w>
rece ip
C I</w>
d ary</w>
x e</w>
h ně
In stance</w>
nežád oucích</w>
Wh ite</w>
J ej
I A</w>
hou se
n ine</w>
sp end</w>
dohod ě</w>
mal ých</w>
integ ration</w>
nech těl</w>
vo lit</w>
Nem ysl
G a
přez kum</w>
ap par
increas ing</w>
na hoře</w>
ti le</w>
exper ts</w>
disp utes</w>
par ental</w>
hu ge</w>
TO TO</w>
10 7</w>
od volání</w>
S ing
fun ctioning</w>
jmen uje</w>
pl ing</w>
J du</w>
i me</w>
ne ví</w>
dotčen ých</w>
Ale x</w>
r ent</w>
při hléd
met rů</w>
pracov ního</w>
dis cre
rod inu</w>
g od
bou ght</w>
val o</w>
cor por
or ate</w>
Stre et</w>
přítel e</w>
úprav a</w>
stanov is
C ra
t ree</w>
kro ky</w>
datab ase</w>
Bez peč
d ých
t ov
ozna č
inv ited</w>
HO DN
tab let</w>
zaměst n
N ext</w>
FB I</w>
pů l
ar ising</w>
environ ment
In dust
Pod pora</w>
vie ws</w>
chy by</w>
inter esting</w>
al ities</w>
au th
ch u
zař azení</w>
pro mě
po vr
hospodář ských</w>
sequ ently</w>
bi rth</w>
země mi</w>
e ti
8 4
S PO
precau tionary</w>
obec ných</w>
hran ice</w>
har m</w>
spl něny</w>
fe es</w>
........ ........
sit es</w>
u přím
prof it</w>
Wel come</w>
rozvo j
per mit</w>
M is
t ary</w>
gg ing</w>
Hod ně</w>
cel l
roz dělení</w>
správ ce</w>
administ ered</w>
spojen ých</w>
ent ů</w>
Portu gal
um b
osob ně</w>
S ele
ut r
vý lu
lo an</w>
lo y
Num ber</w>
ad la</w>
invol ving</w>
med ia</w>
exten sion</w>
za š
ř ad</w>
alloc ated</w>
děku ji</w>
ur ch</w>
effec tiveness</w>
příležit ost</w>
osob ám</w>
vyšet ř
nost ní</w>
sev ere</w>
proced ural</w>
p icked</w>
veli kosti</w>
dy nam
pra xi</w>
Ste ve</w>
Mez i</w>
custom ers</w>
jak á</w>
podí val</w>
sid es</w>
wh ereas</w>
place bo</w>
čen ý</w>
Associ ation</w>
ne správ
Pří loha</w>
ed ge</w>
it ors</w>
Sec ret
už ití</w>
kr ve</w>
ved oucí</w>
Do ctor</w>
věř il</w>
M S</w>
uděl á</w>
poky nů</w>
id ance</w>
su ffici
kid ding</w>
preg nant</w>
pě tí</w>
uk rad
Č ek
ar bit
gentle men</w>
bir th
inter vention</w>
vyplý vající</w>
ro rální</w>
Lea ve</w>
Kdy bych</w>
Every body</w>
ear th</w>
Ag ent</w>
po tě
B ill</w>
oun ds</w>
od bě
služ bu</w>
wed ding</w>
artic le</w>
TI ONS</w>
3 5
ho koli</w>
gover ning</w>
clim ate</w>
ra ději</w>
net works</w>
arm ád
gra du
surve illance</w>
met al</w>
10 1</w>
tra di
boj ovat</w>
inde ed</w>
větš inou</w>
M om
i ště</w>
S pan
medic ines</w>
et te</w>
la bel
prom ised</w>
trest ných</w>
A TION</w>
A K
sett lement</w>
fin dings</w>
zaměst nání</w>
c ab
it al
Tvo je</w>
Ten hle</w>
ra w</w>
polic ej
cel ls</w>
Who a</w>
řen á</w>
navr hov
rost lin
men ším</w>
kancel áře</w>
le ji</w>
Ně kdy</w>
l ové</w>
použí vají</w>
mat eř
gir l
Závaz ky</w>
Pay ments</w>
vz ala</w>
S an</w>
ne ck</w>
P us
stat ements</w>
le z
m on</w>
rozsa h</w>
fo reg
re alize</w>
ther n</w>
IS I
projek t</w>
kon ečné</w>
áva jící</w>
K vůli</w>
St ill</w>
ú koly</w>
R ach
D va</w>
vývoz ní</w>
ro čně</w>
s low</w>
slou ží</w>
respec tively</w>
nu clear</w>
Par la
poskyt ovat</w>
ro per
wat ers</w>
mut ual</w>
N one</w>
ser t</w>
sh ing
k andid
Nic méně</w>
sub je
H uh</w>
vy pla
pří rod
sm ut
vyjád ření</w>
Vě c</w>
rá di</w>
r s</w>
z ně
polož ka</w>
S ay</w>
l ers</w>
zá sad</w>
ú drž
appro ach
prostřed ek</w>
adv ance</w>
lar s</w>
head s</w>
nod ded</w>
sou těž
Př id
represent atives</w>
ne tu</w>
dru ž
ší ření</w>
pen di
ne mohla</w>
Con t
lid mi</w>
inte roper
main ly</w>
řád né</w>
ztrá ty</w>
kri ze</w>
Jud icial</w>
finan ced</w>
od ej
ru š
den ní</w>
osob ě</w>
el d</w>
hra je</w>
ž to</w>
oby čej
D áv
ci i</w>
sm ell</w>
R ay
dal o</w>
condu cted</w>
lo sses</w>
žalob ce</w>
fo li
u re
D ist
U L
sam é</w>
li ghts</w>
vod a</w>
pract ical</w>
cov ering</w>
KO M</w>
con sci
Th ink</w>
in du
l ým</w>
nástro j</w>
no se</w>
Třeb a</w>
monit or</w>
exemp tion</w>
vý sky
n ý
h od</w>
S el
pří kaz</w>
h m</w>
en tem</w>
of ici
část ečně</w>
territ orial</w>
způsobil osti</w>
u jist
pravidel ně</w>
exam ine</w>
posí lení</w>
200 1/
stá l</w>
zby tek</w>
sur prise</w>
ov acích</w>
A C</w>
zd á
vy sl
vý počtu</w>
Mez iná
zavol at</w>
řek ne</w>
problé mů</w>
c et
prav a</w>
doh romady</w>
pow er
jím ž</w>
compla int</w>
vý car
c et</w>
lov es</w>
fulf il</w>
čin y</w>
pomo c
Amend ment</w>
á čku</w>
su it</w>
w on</w>
solv ency</w>
pr ison</w>
ř ič
ved lo</w>
sh ad
fore ver</w>
op ě
s in
partici pat
manufac tur
V en
ne můžeme</w>
fiel ds</w>
po bře
individu als</w>
lo t
fin ish</w>
sí lu</w>
S e</w>
ren al</w>
Poj ďme</w>
Vý boru</w>
P hi
d rob
figu red</w>
předse da</w>
ta h
Nav íc</w>
aud i
kontro l</w>
sh led
stej nou</w>
rozhod ně</w>
en se</w>
enter prises</w>
em ie</w>
ál ními</w>
výro bek</w>
mil uju</w>
srov natel
minist er
re d
pok ou
dal ším</w>
B es
hlav ně</w>
V O</w>
ří kají</w>
an noun
ag ue</w>
Ano ther</w>
opat r
G en
gu ard</w>
Vě děl</w>
perman ent</w>
poč kej</w>
oro vá
5 4
ag ency</w>
Ma inten
negoti ations</w>
chod em</w>
refer ring</w>
ss ing</w>
record ed</w>
okol nosti</w>
c emi</w>
Dr ž</w>
ro ll</w>
D A</w>
plá ny</w>
B ran
S ku
an ém</w>
bo y
plat eb</w>
aw ard</w>
PŘIJAL A</w>
t ovat</w>
vid íte</w>
compani ed</w>
ku chy
h ang
vý raz</w>
Dok once</w>
pro sec
ar di
commit ment</w>
ra ise</w>
im age</w>
z pí
ct i</w>
ode šel</w>
slow ly</w>
N an
pohy b</w>
z hor
Wat ch</w>
S ame</w>
curr ency</w>
pa in
žele zni
4. 1</w>
se ek</w>
we ak
Lo oks</w>
4. 3</w>
člen y</w>
tr žní</w>
poč t
Plat by</w>
ac companied</w>
leg s</w>
rez erv
U E</w>
ná ch</w>
dostup né</w>
stan u</w>
tran sl
St ran
air port</w>
pis y</w>
beg in</w>
rovno cen
ref er</w>
z prostřed
av en</w>
mov ie</w>
D E
is u</w>
potřeb ujeme</w>
prepar ation</w>
any where</w>
mě ření</w>
mo ře</w>
orgá nem</w>
Wor ld</w>
5. 1</w>
aut om
wonder ful</w>
saz by</w>
to ols</w>
cí tit</w>
opatřen ích</w>
spí še</w>
zvíř ata</w>
Mu se
U K</w>
in ci</w>
Manufac ture</w>
rozhod la</w>
eč ných</w>
ar gu
h ang</w>
ří ci</w>
t ac
R R</w>
T ři</w>
ig n
Na še</w>
si a</w>
cest ou</w>
proper ly</w>
ol der</w>
určen y</w>
kr m
mark et
eb ních</w>
s /
mb H</w>
g ence</w>
pl ný</w>
D EC
zvlá šť</w>
podporu je</w>
d es</w>
veri fication</w>
i k</w>
u le</w>
ti li
clo ser</w>
refer en
EI B</w>
cli ent</w>
O de
potvr z
200 8/
wat ched</w>
gra de</w>
ž nost</w>
lig ence</w>
ag encies</w>
bre ath</w>
om u</w>
C ast
mer ely</w>
hod it</w>
chod it</w>
Lid é</w>
poko je</w>
L ab
Cham ber</w>
gran ts</w>
The ir</w>
il le</w>
E s</w>
pl ate</w>
zem řel</w>
F OR</w>
C ause</w>
ro t
zd rž
vytvá ření</w>
ví tě
h ide</w>
effor t</w>
staro sti</w>
as set</w>
můž ou</w>
li ked</w>
vlast ního</w>
Gu idelines</w>
O ni</w>
6 00</w>
p are</w>
Some times</w>
klid ně</w>
kli du</w>
čen á</w>
chod í</w>
A ir</w>
thre at
re ag
mechanis m</w>
gu il
y esterday</w>
specific ally</w>
dělá me</w>
certi fi
elim in
symptom s</w>
slož ky</w>
c ular</w>
z ul
Th us</w>
přij ata</w>
drop ped</w>
Pr ů
separ ation</w>
v teř
účast níků</w>
T im
zúčast něné</w>
Sku teč
Aust ria</w>
f áze</w>
metab oli
gre at
ček al</w>
rov nov
anti dumping
put ting</w>
amaz ing</w>
J ess
spl nění</w>
b low</w>
b ere</w>
guarante es</w>
em bur
sl oup
ces sion</w>
Z práva</w>
Christ mas</w>
M E</w>
po jišť
al co
de fault</w>
lo g</w>
mluv ím</w>
sed m</w>
ul ici</w>
Par ag
vývoz u</w>
Mainten ance</w>
suppli ed</w>
t ob
kapit oly</w>
Záv ě
go od
hů ru</w>
spo t
di ab
em ic</w>
rybol ov
ov o
analý zy</w>
spo ko
wal king</w>
spotřeb itele</w>
Kon ečně</w>
jedn acího</w>
palub ě</w>
9 1/
b ad
D ne
použit ím</w>
ir t</w>
O ver
dcer a</w>
še sti</w>
Uni ver
má l</w>
náhod ou</w>
Commit ments</w>
územ ní</w>
bod ech</w>
dis cipl
o te</w>
ď ar
A .
mas a</w>
la ce</w>
fun ctions</w>
kon ver
st ake
Finan ční</w>
transpar ent
li i</w>
cy k
Lon don</w>
influ ence</w>
chtě li</w>
Ří ká</w>
h le
B as
ra zn
3 1.
Par is</w>
sta r</w>
sou sed
v acc
obrá tit</w>
kil omet
no ční</w>
phi c</w>
řen o</w>
bo je</w>
def ence</w>
ion ally</w>
informa ční</w>
vnitrostát ním</w>
tě les
here by</w>
mi x
L a</w>
S Z
spo ň</w>
vy chází</w>
dokt or</w>
na živu</w>
druh ém</w>
Energ y</w>
ste ro
ro und
vy hlá
k ří
O ver</w>
uveden ou</w>
syst emat
čer stv
dec re
fi e</w>
' am</w>
am b
duš ev
rozpoč et</w>
realiz ed</w>
D addy</w>
saf egu
t ical</w>
ú kol</w>
eas ily</w>
En for
S hel
Po žad
po et
přiv ed
kol a</w>
it ý</w>
expres sion</w>
vá leč
Š véd
W est</w>
chví le</w>
podí vej</w>
vy mě
da r</w>
vla j
snad no</w>
á ty</w>
ep s</w>
on el</w>
sh r
B or
léka ře</w>
ec .europa.eu/
sk ří
T u</w>
lit er
att ac
bor ů</w>
tě hot
C N</w>
he ar
z mi
ing u
tr hem</w>
v o</w>
cre ation</w>
te j
T C</w>
nech ce</w>
aktiv a</w>
tri p</w>
gen et
M L</w>
m hle</w>
F R
Moh la</w>
zeměděl ství</w>
odstran ění</w>
nen ech
ně kým</w>
con solid
e -
labor ato
ě li</w>
K al
ma p</w>
dr ž</w>
re ad
op tions</w>
nam ely</w>
bal í
ber te</w>
Evropsk ému</w>
omlou vám</w>
h ý
Con sequently</w>
Ed die</w>
nes mí
o zení</w>
ce le
ir ing</w>
sub mission</w>
společ ných</w>
star é</w>
záznam y</w>
5. 2</w>
employ ees</w>
He alth</w>
rov ané</w>
j ména</w>
áh l</w>
nabíd ky</w>
differ ences</w>
noti fy</w>
cháze jících</w>
át ní</w>
sv á</w>
pil ot</w>
St řed
bo ha</w>
ru m</w>
přistoup ení</w>
výslov ně</w>
g od</w>
eb o</w>
fl ying</w>
occ ur</w>
do pis</w>
ra in</w>
30 .
h mm</w>
mí ře</w>
G ol
vo z</w>
kla dem</w>
T am
p u</w>
R ap
t ich
con cept</w>
D uring</w>
repli ed</w>
Mar tin</w>
rost lin</w>
after noon</w>
ne máme</w>
m ate</w>
I V
zahrn ovat</w>
on y
allow s</w>
kol ů</w>
Mi les</w>
se g
star á</w>
sou l</w>
ř ete</w>
cl ari
COM M
In stru
nation als</w>
F akt</w>
expla ined</w>
sec ure</w>
se stav
Z ach
D ef
k iss</w>
Portu gal</w>
us pořád
cel o
žen ého</w>
s ong</w>
defin ice</w>
n ur
š ování</w>
r i</w>
under stood</w>
závě r</w>
Tom my</w>
pro mi
ově ření</w>
přev ed
frequ ency</w>
apart ment</w>
Ch eck</w>
oblič e
C D</w>
Su per
P har
ová ni</w>
vzá c
ved la</w>
val y</w>
ká mo
lo ans</w>
G ab
ukáz at</w>
C ou
od vol
pol ici
ro li</w>
vzta hy</w>
lic ences</w>
z one</w>
i ses</w>
Implement ing</w>
vz hůru</w>
ne arly</w>
su itable</w>
předlož ení</w>
pro jev
předpis u</w>
studi ích</w>
mag ic</w>
rat i
ci z
Wa shing
G mbH</w>
ak ty</w>
okamži k</w>
C ho
fou rth</w>
vil la
b loc
sp at
prost řed</w>
mob ility</w>
cro w
re kla
i ž</w>
sou část</w>
pos lal</w>
ad mi
ú smě
er u</w>
ke ys</w>
bre ach</w>
COM P</w>
199 0</w>
t z
d enti
vnitrostát ního</w>
caref ully</w>
re ve
áv ala</w>
Rum un
Di rector</w>
fri end
qu ota</w>
pos ád
trans akce</w>
zaměstn ance</w>
kap acity</w>
nes l</w>
Jac ku</w>
ev ent
hov or</w>
acqu is</w>
pova hu</w>
M other</w>
t rá
restric tions</w>
Enfor cement</w>
produk t</w>
under standing</w>
us al</w>
sex y</w>
ident ity</w>
weapo n</w>
určit ou</w>
hrá l</w>
ka ž</w>
classi fication</w>
Bo b</w>
B lo
Z obraz
vlast ních</w>
potřeb né</w>
cel ého</w>
P ublic</w>
compet ence</w>
possi bly</w>
et ary</w>
nu la</w>
conflic t</w>
is k</w>
ar my</w>
výbě ru</w>
y n</w>
zpo chyb
efek tiv
bě žně</w>
ří dil</w>
zaměstnan ci</w>
považ ují</w>
ap art</w>
nes pl
se stra</w>
discrimin ation</w>
S par
fisher ies</w>
son s</w>
poč kat</w>
k ém</w>
bej t</w>
ně kam</w>
A my</w>
určen ých</w>
pe š</w>
Ma y
přis pě
Mi mo
T or
et er</w>
oč ima</w>
a j</w>
J ake</w>
Rach el</w>
čer p
g ay</w>
ž ď
chem ical</w>
schop en</w>
Span ish</w>
tab lets</w>
E L</w>
de partment</w>
Z P
ban ka</w>
spotřeb itelů</w>
zač ne</w>
li able</w>
8 00</w>
ec es</w>
nap l
bo hem</w>
Ry an</w>
Rak ou
Minist er</w>
Žá dost</w>
conclus ions</w>
š te</w>
Ny ní</w>
ex plan
sum ed</w>
ustanoven ími</w>
komuni k
hro mad
Nemů žeš</w>
dou fám</w>
Ne ž</w>
přísluš nost</w>
Cí lem</w>
špat ný</w>
požadav ek</w>
os m</w>
v nější</w>
onemoc nění</w>
pro vin
cust ody</w>
st ers</w>
dese ti</w>
Evrop y</w>
va r</w>
ov acího</w>
ně komu</w>
bor ně</w>
R ov
působ í</w>
ovan ými</w>
birth day</w>
trans ferred</w>
sum mary</w>
sho p</w>
stáva jících</w>
form at</w>
mi g
rá l</w>
app ed</w>
In foreg
i v</w>
re prezent
léd l</w>
Inforeg io</w>
( 5</w>
ch lo
V Í</w>
an ci
high ly</w>
re ply</w>
v liv
politi ku</w>
En ter
záj my</w>
b rát</w>
com pre
M í
Č l</w>
Itá lie</w>
na j
kte ch</w>
le aves</w>
z as</w>
F ood</w>
kil ler</w>
constit utes</w>
um íst
Nor th</w>
léčiv é</w>
soud nictví</w>
cu rement</w>
streng th
res ist
učin ě
provoz ní</w>
lou d</w>
Inter im</w>
j un
příprav y</w>
Ag ricul
at trib
h at
so le
strán ce</w>
M aster</w>
př eč
e z</w>
S le
N ab
ni ž</w>
dob rou</w>
sc ene</w>
Any thing</w>
podpo r</w>
o red</w>
av ě</w>
certain ty</w>
sel ling</w>
ab led</w>
z byt
use ful</w>
1 20</w>
ele ment</w>
su rov
dan ger</w>
sh ape</w>
K ev
derog ation</w>
al l
v em</w>
kt ům</w>
ř az
ro se</w>
B ack</w>
rene w
Ob a</w>
Pra cov
sk ills</w>
fl at</w>
a sh
for got</w>
bus ines
ap point
ti ally</w>
dů chod
Účet ní</w>
povin né</w>
Ch ce</w>
scre en</w>
pa ying</w>
mo to
j á
k s
is y</w>
chy bě
enz y
vy so
st on</w>
200 3/
challen ge</w>
H os
Jej ich</w>
C P</w>
di a</w>
nenáv id
doh led</w>
skon čí</w>
D án
druh á</w>
roz mě
meas ured</w>
L R</w>
t áv
r ice</w>
ici p
t m
inter rup
Dě lej</w>
le g</w>
iv ních</w>
ob jem</w>
C en
Nel ze</w>
tla k</w>
om luv
definit ely</w>
s f
C .</w>
sou hrn
T ri
wil ling</w>
ard y</w>
řek neš</w>
uz nání</w>
art an</w>
vá me</w>
u tive</w>
Ch il
ber t</w>
vy hled
připo jení</w>
T ys</w>
slun ce</w>
em bar
contra ct
stud ií</w>
Lt d</w>
ostat ními</w>
CO UN
ch ut
l ord</w>
s atel
ir ment</w>
al fa</w>
char ged</w>
po věd
prior ities</w>
sp read</w>
kli d</w>
živ oč
M O
mis sions</w>
od škodnění</w>
S ho
clo sely</w>
ne měli</w>
per form</w>
u važ
Ch rist</w>
funk ci</w>
r ical</w>
hroz ně</w>
K am
ref und</w>
car bon</w>
re ál
struct ures</w>
ev il</w>
K ra
sup plement
thre sh
na jí</w>
mal ou</w>
la ys</w>
parla ment</w>
Tak é</w>
S leč
Počk ejte</w>
9 0
zákon em</w>
výrob ního</w>
kdy bys</w>
mat ch</w>
šen o</w>
b ub
ring ing</w>
zna čně</w>
spo uses</w>
k ok
Rom ania</w>
prů myslu</w>
10 4</w>
pod vod
leti ště</w>
vyrá bě
escap e</w>
Af gh
200 9/
fla g</w>
Wil li
N ick</w>
instru ctions</w>
ň ovací</w>
p ig
bot tom</w>
dru gs</w>
Je an</w>
Go od
sh el
re form</w>
se ss
fe els</w>
N C
zeměděl ské</w>
co p</w>
Pr in
mož ností</w>
receip t</w>
hol ky</w>
Swed en</w>
ví ce
Zdrav ím</w>
žad atel</w>
Ale x
w ake</w>
http:// ec.europa.eu/
en emy</w>
př ep
Kur va</w>
z pravod
ang ry</w>
un able</w>
Z am
produ cent
agent ura</w>
remain ing</w>
B oth</w>
le tu</w>
fi re
děl ali</w>
č ná</w>
finan čním</w>
pi re</w>
ter y</w>
mod ified</w>
í d
měr ně</w>
girl friend</w>
uveden ém</w>
dan á</w>
nej dříve</w>
bud dy</w>
Prostřed ky</w>
suffici ently</w>
domá c
en han
souhlas í</w>
čí me</w>
at or
pi sem</w>
ic ide</w>
záru ky</w>
struct ural</w>
pok roku</w>
je z
ro rs</w>
ně ného</w>
sen átu</w>
S ci
iv ě</w>
uved ení</w>
plat ební</w>
kter é
inter im</w>
účin ku</w>
řík ej</w>
vol ného</w>
strán kách</w>
ukáz al</w>
Mar ket</w>
vě ří</w>
ent a</w>
L ady</w>
ž es</w>
id ed</w>
k ální</w>
rov al</w>
v is</w>
sleč no</w>
cyc le</w>
Z kou
adres a</w>
vě jší</w>
dead line</w>
funk cí</w>
Serv ices</w>
výrob ě</w>
D y
dáv ku</w>
i p</w>
Any way</w>
och ot
sent ence</w>
vi rus</w>
tw enty</w>
vzájem né</w>
z ou
dra wing</w>
technolog ies</w>
f u</w>
end y</w>
ch ou</w>
lin ed</w>
pat ter
re sc
to s</w>
stop y</w>
V nit
O LA
r h
re pub
re move</w>
re le
se es</w>
reg ime</w>
sla v
ref ers</w>
Stan ov
D ele
zas lou
tv or
Mal ta</w>
mar ry</w>
Řek něte</w>
on g
leg ally</w>
mic ro
papí ry</w>
cho sen</w>
repub lice</w>
aim s</w>
impa irment</w>
surpr ised</w>
F ive</w>
Fol lowing</w>
sett led</w>
I .
oddí lu</w>
sh ody</w>
deta il</w>
blá zen</w>
uplat nění</w>
We 'il</w>
speci fy</w>
for tun
ků že</w>
l unch</w>
zachrá nit</w>
š aty</w>
takov ém</w>
poplat ky</w>
ir a</w>
pod odstavec</w>
bud oucí</w>
do ors</w>
Při šel</w>
ne věděl</w>
vysvět lit</w>
Pl nění</w>
pů r
pop is</w>
stud ii</w>
pos ing</w>
Vů bec</w>
l d
tr vat</w>
něj ším</w>
Med ic
ž te</w>
uživ atele</w>
ně ným</w>
ra y</w>
zjev ně</w>
osob u</w>
T é
sw ear</w>
spe aking</w>
transpar ency</w>
jí zd
cap tain</w>
B A</w>
kontro lní</w>
i ii</w>
e š
udá losti</w>
co m</w>
prokáz at</w>
uveden ými</w>
A m</w>
cor ner</w>
E lect
potvr zení</w>
hel ped</w>
Z o
mark ed</w>
SM Es</w>
le b
an ebo</w>
dan ých</w>
objem u</w>
us il
pleas ure</w>
e ff
ist a</w>
or ie</w>
monit orování</w>
pen sation</w>
naš la</w>
ř in
An nual</w>
Com p
ri an</w>
Automat ic</w>
promo tion</w>
vnitrostát ními</w>
cal m</w>
er o</w>
podni kům</w>
po bí
To o</w>
k les
láda jící</w>
tari ff</w>
Sou du</w>
s ý
appreci ate</w>
O sob
obě ti</w>
zkušen osti</w>
Thom as</w>
e ful</w>
ná te</w>
f ab
mas o</w>
th u
Le e</w>
expi ry</w>
stoup ení</w>
prodlou žení</w>
pří s
i čí</w>
super vision</w>
P il
jí st</w>
t ub
UT Í</w>
a th
rov ou</w>
kr vá
ok na</w>
' Cause</w>
tra vel
F ond</w>
op í
buil dings</w>
nej dřív</w>
kou sek</w>
Mil uju</w>
an á
U N</w>
1. 2</w>
b one</w>
š ená</w>
Hos pod
statist ics</w>
participat ing</w>
práv n
Den mark</w>
itel ných</w>
r ick</w>
ces sive</w>
ó z
kov ě</w>
it als</w>
domá cí</w>
seri ously</w>
vnitř ním</w>
potí že</w>
effec tively</w>
gro w</w>
199 1</w>
at mo
server u</w>
A G</w>
zam il
swe e
zůst ává</w>
im bur
figu res</w>
z al
bast ard</w>
ter i
de part
vy skyt
st olu</w>
R ay</w>
ur u</w>
skuteč ností</w>
ro te</w>
raz it</w>
met od
poskytu jí</w>
Fran c
itch en</w>
kř es
ro ute</w>
dar k
An dy</w>
ma x</w>
Ab sol
p í</w>
proces ses</w>
ic ul
let ters</w>
chy tr
ná ct</w>
p as</w>
obsah ují</w>
sní žit</w>
rec ently</w>
vyso ce</w>
tr pě
nost ních</w>
ph as
důsled ky</w>
ex pozice</w>
En viron
ed iat
sv az
pr ison
fac es</w>
susp ension</w>
ov ky</w>
pří bu
sp er
By ly</w>
ně hož</w>
argument y</w>
wor st</w>
Ar ch
ment ion</w>
L en
c ové</w>
tre es</w>
poplat ků</w>
d leně</w>
Ob jec
ut or</w>
st able</w>
e ’</w>
bat tle</w>
p au
te prve</w>
bo ji</w>
ic et</w>
Luc embur
pop táv
el o
chrá nit</w>
Co ž</w>
milion u</w>
na opak</w>
el la</w>
bo rem</w>
odpovída jícím</w>
sly šení</w>
s co
svob ody</w>
nor th</w>
compon ent</w>
W ol
ri ver</w>
inter medi
g l
jí š</w>
initi atives</w>
sur g
tor ů</w>
da jí</w>
col umn</w>
Administ rat
c at</w>
200 5/
H led
sel hání</w>
pla cing</w>
is sion
Vý kon</w>
T -
re mun
vy práv
I X</w>
z přístup
injek ční</w>
lé čených</w>
za č</w>
indic ation</w>
T ry</w>
comple x</w>
umož nit</w>
pro fe
hum ans</w>
dostat ečné</w>
d ates</w>
S we
ne znamená</w>
B un
zdá lo</w>
pro ud
smo ke</w>
příspěv ky</w>
blo ck</w>
Mu sel</w>
it elem</w>
ne závis
minu losti</w>
Russi an</w>
umí stě
š ance</w>
cul tural</w>
Je ží
vý sledek</w>
serv es</w>
ish es</w>
záj mů</w>
n ud
sum mer</w>
koncent race</w>
poz orová
nav ští
Š výcar
se as
Pok rač
ea st</w>
4. 8</w>
Před pok
Dani el</w>
č ů</w>
kapit áne</w>
Ri ghts</w>
roz vodu</w>
ří v</w>
it is</w>
an ed</w>
’ m</w>
dv aná
cel kového</w>
d ying</w>
Hum an</w>
dis posal</w>
k er
ř ily</w>
zne či
Ap pendi
zakáz ek</w>
al d</w>
ak ci
200 2/
A li
ru hé</w>
případ né</w>
be er</w>
od dělen
introdu ction</w>
sp ust
I E</w>
A č
v inc
answ ered</w>
mar gin</w>
Appendi x</w>
sof tware</w>
vy brat</w>
S ig
ž id
Pě k
fan ta
venkov a</w>
Rob ert</w>
dr unk</w>
G iv
up í
no ise</w>
liqu id
sran du</w>
ele v
hel ping</w>
Jess ica</w>
u e
z vyk
in ami</w>
S ez
f let</w>
b ag
d edu
Z ak
tru ck</w>
Společ nost</w>
set kání</w>
dis orders</w>
show ing</w>
lear ning</w>
Ně které</w>
T ex
fo togra
dě la</w>
wil d</w>
veli kost</w>
in no
P u
á peš</w>
příspěv ku</w>
Lou is</w>
ovo ce</w>
t at
G lob
do ses</w>
d ně</w>
skvě le</w>
slyš ela</w>
elektro nické</w>
commun ity</w>
Cel kem</w>
radi o
poskyt ne</w>
zaměst nav
led vin</w>
plat ná</w>
( 2
Evrop a</w>
zvu k</w>
do jít</w>
materi álu</w>
zpráv ě</w>
fin ds</w>
sc en
daň ové</w>
pé či</w>
tlačít ko</w>
arri ved</w>
tr vá</w>
Com pensation</w>
pan el</w>
iniciativ y</w>
Tribun ál</w>
fe e</w>
el l
comfor table</w>
kon ě</w>
návr hů</w>
po může</w>
stu ck</w>
H S</w>
Zí tra</w>
ne zapo
L íbí</w>
sele ct</w>
in after</w>
okol i</w>
associ ation</w>
pro file</w>
substan tial</w>
S nad</w>
fin gers</w>
plavid el</w>
Počk at</w>
požad ované</w>
příspěv ků</w>
bo t</w>
b oun
K u
at om
připo jen
par tial</w>
sub jects</w>
kontrol ou</w>
rá na</w>
pre viously</w>
cha in</w>
Ar th
ten ed</w>
hla va</w>
dé le</w>
dist ur
s lo
0 3
poskytnut a</w>
uží vat</w>
jednot ka</w>
dig it
pořád ně</w>
vě c
provoz ovatel
ov lád
comm od
kýv l</w>
AT A</w>
defic it</w>
shoul der</w>
její ž</w>
át ů</w>
spir it</w>
Exist uje</w>
stit ution</w>
Yor ku</w>
M ist
com plic
emplo yed</w>
ř ely</w>
och rá
for ced</w>
as ide</w>
sm an</w>
roz dě
li ps</w>
Nem ěl</w>
re present</w>
ř ec
min or</w>
přij al</w>
obchod ního</w>
pit om
é ru</w>
ro kem</w>
Fun ctioning</w>
mod r
za stavení</w>
výhrad ně</w>
car s</w>
Zem ě</w>
iv ý</w>
aim ed</w>
ti ght</w>
pla st
Tab ul
challen ges</w>
vysok ou</w>
rych leji</w>
J es
cod es</w>
by sme</w>
Ch e
hlav ním</w>
aut onom
áv ejte</w>
uch az
Bul har
zabrá nit</w>
za střel
ko leg
here inafter</w>
So ci
Bla ck</w>
ply nu</w>
clu b</w>
fav or
námit ky</w>
Lid i</w>
nech ceš</w>
osvob ození</w>
expi red</w>
en su
g ate</w>
exclud ed</w>
podez řel
míst ních</w>
it ím</w>
cent re</w>
h ust
M org
poskytnut é</w>
co s</w>
certific ates</w>
Žalob kyně</w>
for mu</w>
opráv nění</w>
R an
hub u</w>
indic ators</w>
Ne jd
bě ž</w>
w rote</w>
c oh
nad ě
exist s</w>
des k</w>
stim ul
nen ap
součas nosti</w>
4 4
mil li
stake holders</w>
Nem us
dota z
st ává</w>
ni jak</w>
Do cum
r al
document ation</w>
nebud eš</w>
accel erated</w>
gar ia</w>
ol ution</w>
ion e</w>
ch ápu</w>
Zlat o</w>
man age</w>
ap parent</w>
F R</w>
jako žto</w>
Ne w
jed ná
combin ed</w>
par al
dem oc
Ch ápu</w>
S w
odpo ledne</w>
Z avo
dě s
ro man
kon čí</w>
P as
B ut
kombin aci</w>
dostup ných</w>
Re search</w>
re dit
podni kání</w>
jed u</w>
ac ted</w>
ná kup
á ka</w>
form ou</w>
že b
úlo hu</w>
B at
klu ci</w>
stan ds</w>
námoř ní</w>
J E</w>
S vět
ter ing</w>
K im</w>
m il</w>
uved en</w>
satis fac
not iced</w>
i k
ostat ním</w>
pravid ly</w>
tr hy</w>
tla ku</w>
pravid lo</w>
smi led</w>
o sm
on e
8 8
fi red</w>
ra jí</w>
len o</w>
pos itions</w>
livo st</w>
so le</w>
fav our</w>
war m</w>
společ ný</w>
násled ně</w>
ot va</w>
R est
b ered</w>
princi pal</w>
h ra</w>
roz ví
potřeb uješ</w>
Meziná rodní</w>
ř idi
OLA F</w>
í čko</w>
re mem
incl usion</w>
po ol</w>
langu ages</w>
arm ed</w>
d ce</w>
dodat ečné</w>
J urisdiction</w>
proces sed</w>
pro curement</w>
ul ts</w>
can cer</w>
ast er
n ac
wal ls</w>
Ban kruptcy</w>
z tra
gi ft</w>
hon est</w>
x y
žalob u</w>
Rozum ím</w>
M lu
řek li</w>
m ir
de le
design ation</w>
Z emi</w>
op ti
žád á</w>
zpracov ávání</w>
iti me</w>
áv ací</w>
pomě ru</w>
Bul garia</w>
U stanovení</w>
ev a</w>
exer c
Po int</w>
Inter nal</w>
vy slech
eč nou</w>
přidru žení</w>
v ot
nan cy</w>
et i</w>
ú tv
eko log
zvlášt ního</w>
každ á</w>
k ejte</w>
kre v
přítel i</w>
j um
Pro ces
zaměstnan ost</w>
ROZ HODN
nej spíš</w>
10 2</w>
qu es</w>
en ém</w>
B os
o gen
D ol
exha ust
už el</w>
pu ště
kov al</w>
d us
materi ály</w>
pracov al</w>
v rt
udělá me</w>
ú kolů</w>
zásad ní</w>
boy friend</w>
Op inion</w>
Char les</w>
s od
lik es</w>
třet ím</w>
f are</w>
impro ving</w>
nov ým</w>
Minist ry</w>
š en</w>
st ages</w>
pra chy</w>
pad ek</w>
el ling</w>
počíta če</w>
presid ent</w>
col or</w>
zůst al</w>
em a</w>
P ati
zaplat it</w>
Prav omoc</w>
ř eli</w>
benefici aries</w>
bl b
kli matu</w>
n ské</w>
super visory</w>
perf ec
rat u</w>
M ně</w>
Off ic
power ful</w>
letad la</w>
mlu víme</w>
m raz
přijat ých</w>
dan ém</w>
tra ding</w>
t iny</w>
okol o</w>
sh ared</w>
o cen
l ům</w>
n t</w>
lea flet</w>
up dated</w>
závě ry</w>
main tained</w>
sm al
U ved
ru ral</w>
kal end
ROZHODN UTÍ</w>
out come</w>
pro saz
rozdí ly</w>
pra cí</w>
dí vat</w>
S .</w>
ko š
Ří kala</w>
vis ible</w>
v ar
S and
spo ry</w>
Un less</w>
občan ského</w>
Ma jí</w>
redu cing</w>
napad lo</w>
r é
Some body</w>
el ně</w>
Před běžná</w>
I U</w>
D al</w>
p neum
Zat ím</w>
řet í</w>
import ed</w>
rá di
sek und
exec ution</w>
We b</w>
op hi
vhod ná</w>
st res
roz e
š paněl
É M
C R
compre hen
určen o</w>
ne dáv
cent er</w>
ra k
Př em
Pou ze</w>
c ování</w>
ochran ná</w>
Har mon
profess ions</w>
jedn ak</w>
U p
absolut ely</w>
Po čet</w>
ter e</w>
pří bal
V rá
ent u</w>
Z as
la bel</w>
fi b
Out turn</w>
výhod y</w>
te eth</w>
ak tů</w>
zav az
mo ři</w>
far mak
univer z
dve ří</w>
ow ned</w>
la dies</w>
h rub
program ming</w>
ú kon
sli ghtly</w>
k do
mrt vá</w>
U dělal</w>
st ac
pre vention</w>
polit ické</w>
A P</w>
re imbur
in solvency</w>
koup it</w>
pres ents</w>
bo ty</w>
doporu čuje</w>
Ta hle</w>
pi eces</w>
gra ci</w>
Z rovna</w>
tran spo
z im
Automat ické</w>
K N</w>
E qu
budouc nosti</w>
strá ž
služeb ního</w>
úřed níků</w>
znamen at</w>
ú zk
appoint ment</w>
sto letí</w>
pří stroje</w>
vý bu
ur čí</w>
muse li</w>
klin ických</w>
Co operation</w>
fore st</w>
č te</w>
pok uty</w>
zam ýš
sh are
jedno tek</w>
stor ies</w>
přijím ání</w>
stro jů</w>
CI L</w>
h ry</w>
vál ky</w>
oddí l</w>
indic ations</w>
sugg est</w>
podez ření</w>
porov nání</w>
stej ného</w>
ing u</w>
oblič ej</w>
pravomo cí</w>
ko lek
m bo
S it</w>
9 8/
kov ém</w>
d ž
St ále</w>
k itchen</w>
důležit ější</w>
de ch
exper im
žalob ní</w>
kr ku</w>
re ality</w>
inc en
O P</w>
dan í</w>
P le
post ele</w>
tol er
Hospod ář
se ctions</w>
ho ten
dol lars</w>
ic ing</w>
ge ant</w>
hon or</w>
chan ging</w>
nějak ého</w>
1 10</w>
contract ual</w>
předpok ládá</w>
navr huje</w>
excep tional</w>
S právně</w>
you 'il</w>
lo st
ag on
en ever</w>
otev řít</w>
po mohl</w>
zu by</w>
G ri
od ráž
Con ne
dovoli t</w>
li s
ed ly</w>
Progra m</w>
le la</w>
cop s</w>
potřeb uji</w>
isl and</w>
fis cal</w>
T E</w>
nej výše</w>
R ES
ob lí
vzor ků</w>
a x</w>
ran de</w>
h ung
ow ner</w>
sle eping</w>
Ž iv
satis fied</w>
Contro l</w>
immedi ate</w>
colle cted</w>
ici ous</w>
dialo g</w>
ne udělal</w>
confidenti al</w>
automat icky</w>
an alo
ov ská</w>
dá š</w>
použit ých</w>
do gs</w>
Gre ek</w>
závaz ek</w>
lar g
hran í</w>
Comp any</w>
sho ok</w>
ra ge</w>
s k</w>
region u</w>
automat ically</w>
strateg ic</w>
kni hy</w>
ti ky</w>
j am
K i
in k
atel ům</w>
roz pětí</w>
thre at</w>
il legal</w>
zajišť ovací</w>
spo l
inv itation</w>
s age</w>
závis í</w>
person nel</w>
ne víš</w>
Pro posal</w>
fe atures</w>
u vidíme</w>
ře b</w>
tr y
nemoc nice</w>
pre clud
an í</w>
eas ier</w>
přes un
Prof ess
enti rely</w>
At lan
C le
ic als</w>
ch at</w>
CI A</w>
O chran
a qu
nev in
E ast</w>
7 0
vá te</w>
po vz
Col onel</w>
Žád ná</w>
t vým</w>
ch ief</w>
0, 5</w>
energ ii</w>
est er</w>
uplat ňuje</w>
passen ger</w>
tr h
soud ním</w>
passen gers</w>
L ie
00 1</w>
z ná</w>
ta ste</w>
internet ových</w>
Protec tion</w>
conver sation</w>
10 8</w>
k ut
PRO D
iv er</w>
feel ings</w>
3 2
av ir
G race</w>
ob čas</w>
mně la</w>
chlap i</w>
zastav il</w>
pohledáv ka</w>
smě ř
do chází</w>
destro y</w>
bur n</w>
as y
Contra cting</w>
Člen ský</w>
pla cement</w>
sig nal</w>
klí č</w>
r ut
Při j
ob avy</w>
dokt ore</w>
zas ran
kontrol ovat</w>
vstup ní</w>
roz sáh
develop ments</w>
podstat né</w>
200 7/
část ek</w>
competit iveness</w>
od kaz
Ch ic
ochran a</w>
sto cks</w>
oper aci</w>
é ž</w>
J ord
Cust oms</w>
občan ské</w>
li p
Le on
statist ical</w>
m end
Větš ina</w>
lu m</w>
V A</w>
1 12</w>
bot tle</w>
pra v</w>
T on
vi ze</w>
objev il</w>
Pří pravek</w>
dá me</w>
K e</w>
Dne ska</w>
Míst o</w>
vy má
me an
te t
Lit tle</w>
P lá
war ning</w>
ul u</w>
du m</w>
instal lation</w>
se ct
jed eme</w>
úpl né</w>
te a</w>
livo sti</w>
Stru ct
datab áze</w>
učin it</w>
m ess</w>
M id
particip ate</w>
r are</w>
vy nalo
cam era</w>
oprav ného</w>
4 ,
uvádě ní</w>
COUN CIL</w>
v čas</w>
fo ol</w>
lád ám</w>
ch ick
acqu is
z ó
5 ,
ná kla
stanoven ého</w>
pojišť ov
Tro chu</w>
bor ne</w>
colle ge</w>
clo ck</w>
ar ance</w>
dialo gue</w>
R al
av ost</w>
lod ě</w>
O ut</w>
ý ma</w>
za uj
credit ors</w>
allow ances</w>
Ne bylo</w>
dv oru</w>
co ated</w>
SI S</w>
ulož it</w>
aut ob
odpověd ný</w>
R et
k ře
iv ního</w>
ra cí</w>
na znač
manžel ů</w>
u ght</w>
smlou va</w>
ří ch</w>
ob viously</w>
c ards</w>
ú řad
itel ně</w>
rovnov á
á tem</w>
contra cting</w>
pu štění</w>
náv ací</w>
žalob ky
Russi a</w>
re l</w>
dopad u</w>
léč bu</w>
řízen ích</w>
tar gets</w>
mo tion</w>
dec reas
l on</w>
Gre en</w>
ni komu</w>
lim it
per mitted</w>
Joh ne</w>
ztrat il</w>
e ating</w>
Are a</w>
sou th</w>
šťast ný</w>
prst y</w>
10 5</w>
lož ení</w>
znám ka</w>
iv ně</w>
k lou
kontro le</w>
li ší</w>
Absol ut
P ete</w>
S T</w>
straš ně</w>
bro ad</w>
dre ams</w>
dou f
zná š</w>
vá ch</w>
tra ditional</w>
zer o</w>
rest au
I ts</w>
busines ses</w>
O oh</w>
ej menším</w>
Serv er</w>
V an</w>
mechanis ms</w>
Sum mary</w>
mlé ka</w>
u ložen
head ed</w>
zlep šit</w>
zby teč
správ u</w>
ch est</w>
inter val
s ory</w>
B ea
N evid
vy dal</w>
com b
zahran ičí</w>
ali for
log ical</w>
dlou hé</w>
ton nes</w>
promo ting</w>
před stí
determin ation</w>
de ep
S wit
Bes ides</w>
sah ám</w>
letec ké</w>
cen ých</w>
ou pen
compar ison</w>
B .</w>
sr de
Em ily</w>
w ast
dest ination</w>
t ough</w>
h ovat</w>
sci ence</w>
meth od
fal ls</w>
kancel áři</w>
P í
ma žď
komple x
rozhod ování</w>
dis play</w>
metab ol
ick ému</w>
it y
e ters</w>
lo sing</w>
suff ered</w>
u prostřed</w>
znač né</w>
in ery</w>
polici i</w>
le c</w>
S .
tra g
dal šími</w>
soukro mého</w>
deleg ated</w>
9 2/
strateg ii</w>
produk ci</w>
comp ati
připrav en</w>
eng ine
ář ů</w>
ka jící</w>
společ ným</w>
profe se</w>
difficul ties</w>
Dob a</w>
sou bory</w>
Fed eral</w>
před ví
manag er</w>
li li</w>
fra ud</w>
charak terist
allow ing</w>
Změ na</w>
port foli
n é
er ie</w>
tu n</w>
přijat é</w>
ob jeví</w>
export s</w>
I AS</w>
čt ení</w>
úč tu</w>
Mon it
uveden a</w>
Lis bon</w>
wa ited</w>
ta r</w>
n ýho</w>
K or
pří ští</w>
ar rest</w>
hy pot
z lo</w>
Maxim ální</w>
s ake</w>
form ed</w>
ra dost</w>
kni fe</w>
reci pi
nev adí</w>
obra zení</w>
smlou vu</w>
pla sma</w>
k ers</w>
L au
se cu
end ar</w>
our selves</w>
proceed ing</w>
sp lit</w>
kno wing</w>
al iment
do sti</w>
rat io</w>
k ní
Inde ed</w>
F lor
pro portion</w>
zá pisu</w>
it ude</w>
cí li</w>
. 1</w>
nej prve</w>
remain ed</w>
ne smě
M ich
h ru</w>
te ach</w>
ad mit</w>
Div orce</w>
vy plá
institu tional</w>
im plic
lé ky</w>
blin d</w>
Ro ad</w>
polož ek</w>
do káže</w>
f ó
Do poru
kni hov
zá znam</w>
under lying</w>
st vo
an ým</w>
konzul tace</w>
Applic able</w>
sim ul
brá ní</w>
umož ňují</w>
spoust a</w>
f est
itel ná</w>
ran t</w>
o proti</w>
Fin land</w>
multi ple</w>
systé mem</w>
D C</w>
m ý</w>
standard ní</w>
r ala</w>
Sup er</w>
L ad
ekonom ické</w>
but ton</w>
fix ing</w>
Kapit ola</w>
jednoduš ené</w>
vysí lání</w>
bud ovy</w>
heal thy</w>
remun eration</w>
po žá
R S</w>
lin ks</w>
ot ní</w>
proper ties</w>
peri od
Cent re</w>
zakáz ky</w>
ni ght
věd í</w>
chy bí</w>
D er
il é</w>
kov ým</w>
in zul
chla pec</w>
la un
chlap a</w>
vod ě</w>
x th</w>
to ři</w>
Od škodnění</w>
A N</w>
zat í
vy lu
národ ních</w>
Hla v
mez í</w>
lá tku</w>
Rod ič
rec tions</w>
jak ou
b ai
Vý sled
Tran s
zdůraz ňuje</w>
ut í
sh irt</w>
presc ribed</w>
drž el</w>
Ří kám</w>
uděl ení</w>
ph en
p san
rozum ím</w>
exclud ing</w>
vyk ládá
použ ity</w>
lov ely</w>
neu věř
Chi ef</w>
získ ané</w>
Lie ut
es ome</w>
TI C
du ly</w>
slož ení</w>
hol ds</w>
re action</w>
impro vement</w>
mo on</w>
ak s</w>
di strict</w>
dostan u</w>
T P</w>
spl ňuje</w>
san kce</w>
posoud it</w>
mí ra</w>
k men
suppli es</w>
introdu ce</w>
f roz
pos il
nech ala</w>
naroz en
K rist
D V
ard en</w>
ká š</w>
PP E</w>
s éri
quar ters</w>
high est</w>
od eb
i us</w>
tax es</w>
Hon or</w>
Sez nam</w>
záv odu</w>
hodno tě</w>
tr zích</w>
Vý borně</w>
EF TA</w>
F our</w>
tri als</w>
spravedl nosti</w>
o we</w>
výživ né</w>
C est
Vid ím</w>
č kou</w>
pamě ti</w>
k de
it ion
hung ry</w>
bole sti</w>
K ey</w>
ex cuse</w>
becom es</w>
émi e</w>
N est
offic ers</w>
chu ť</w>
vnitř ního</w>
ra cy</w>
no sy</w>
j ack
b lu
sle p
form a</w>
mo tiv
par k</w>
a e</w>
náhra da</w>
li ed</w>
získ al</w>
Rob er
con stitu
uk ládá</w>
Ned ě
str ý
6 ,
š ir
n ings</w>
drin king</w>
ist an</w>
V eg
ele ss</w>
ú myslu</w>
á zá
encoura ge</w>
exclus ive</w>
im al</w>
b id
de aling</w>
důvě r
vti p
quali fied</w>
la mp
N Í
Moh li</w>
del ší</w>
ba th
legitim ate</w>
D .</w>
Jen že</w>
Alternat ive</w>
soci álních</w>
ve st</w>
uved la</w>
obli ged</w>
2. 3</w>
vz ore
por te
iro n</w>
přeshran iční</w>
.010 00
zohled nit</w>
p ping</w>
zdro j</w>
a če</w>
lé kár
ná hle</w>
úč el</w>
g in
t one</w>
ele c</w>
čí sl
blí z
TI ES</w>
back ground</w>
poru čí
stanoven ými</w>
povol ání</w>
Lieut enant</w>
proportion ate</w>
Cla ire</w>
sole ly</w>
institu cion
Mar ie</w>
6 4
f arm</w>
ST VÍ</w>
přihléd nutím</w>
W TO</w>
dce řin
Vy živovací</w>
ue il</w>
s bě
i ent</w>
Sm ith</w>
up set</w>
list ening</w>
něj šího</w>
ff er
mez i
kte m</w>
ď á
pod odstavce</w>
communic ate</w>
Li thu
compar able</w>
del i
budouc nost</w>
ig no
b ov
vaš ich</w>
’ re</w>
Rec ueil</w>
pre pare</w>
fa ith</w>
inov ace</w>
udělá š</w>
Z nov
tabul ce</w>
vá zá
T SI</w>
Li st</w>
B ol
fi kov
trans f
Hung ary</w>
H ist
d l</w>
fav or</w>
přijím at</w>
care er</w>
hov o
zapo mněl</w>
ic acy</w>
L A</w>
len e</w>
Ne byl</w>
ang le</w>
závaž né</w>
cre ating</w>
colle ctive</w>
Parag raph</w>
Sus an</w>
j oke</w>
adjust ed</w>
DEC ISI
Mem bers</w>
po unds</w>
ol i</w>
ch ceme</w>
k is
E -
10 6</w>
app y</w>
ter mí
nar az
sam ples</w>
zúčast něných</w>
gun s</w>
tent okrát</w>
sho es</w>
believ es</w>
Or der</w>
u lo
ti še</w>
po pis
Roz vod</w>
uply nutí</w>
le ader</w>
deb ate</w>
M ě</w>
A ff
c ore</w>
Nemysl ím</w>
Proced ural</w>
vez mu</w>
hla sem</w>
speci ally</w>
is ations</w>
udrž et</w>
pl ant
mlad ý</w>
inter net</w>
as ist
appe arance</w>
re infor
všim l</w>
10 00</w>
rozpočt ový</w>
obě ť</w>
čast é</w>
rele ased</w>
cí tila</w>
stan ou</w>
kontro lov
ved lejší</w>
ti se</w>
L am
aut ě</w>
proved ena</w>
nej ist
V is
podmín kách</w>
cí mi</w>
liv á</w>
pa st
.e u</w>
plán ování</w>
občan ů</w>
Á NÍ</w>
s ů</w>
du m
úda j
ste in</w>
nepro dleně</w>
jist é</w>
il led</w>
M eas
An nie</w>
vysvět lení</w>
with draw
ox y
zač ali</w>
čí mž</w>
v ag
stre am</w>
nerv ous</w>
zen a</w>
přest a
mig ration</w>
ther ed</w>
wonder ing</w>
přil o
aw arded</w>
Willi am</w>
skuteč ný</w>
F la
kdy si</w>
pow der</w>
od d</w>
rozvo ji</w>
dit ions</w>
z řízení</w>
dvac et</w>
rodičov ské</w>
fac ility</w>
my st
před ep
201 1/
přítom nosti</w>
ě né</w>
int elig
S on
Un til</w>
inc idence</w>
hop ing</w>
secur ities</w>
SPO LE
hotel u</w>
stro j
depend ing</w>
ak er</w>
z es
present ation</w>
re min
il u</w>
Alternat ivní</w>
Cen elec</w>
hoten ství</w>
tax ation</w>
říká te</w>
assu me</w>
h h</w>
gener ation</w>
oznám í</w>
fa x</w>
G od
Proces ní</w>
believ ed</w>
solid arity</w>
otev řené</w>
sou hlas</w>
obchod ování</w>
zkus it</w>
zkušen ostí</w>
i hned</w>
’ d</w>
jak osti</w>
vy vin
re ss</w>
Giv en</w>
desp ite</w>
vý klad</w>
c ohesion</w>
1, 5</w>
ne myslím</w>
k rat
O s
re v
st ůl</w>
n ó
š pi
pev ně</w>
av ky</w>
výmě ny</w>
příprav u</w>
energet ické</w>
os la
pl en
D á
že h
2 1
řad a</w>
specif ické</w>
Th ird</w>
sk rý
ef ici
con vinc
uchaz eč
po l</w>
dív ka</w>
en vis
deliv er</w>
CF SP</w>
způsobil é</w>
Vid ěla</w>
wh ere
A ra
m am
přítom nost</w>
cell ent</w>
in ions</w>
Direct orate</w>
for ces</w>
PRO V
ved ou</w>
Hon ey</w>
judg ements</w>
dist inc
oper ated</w>
C E
eng aged</w>
ob slu
W est
P on
ra il
insul in</w>
acqui red</w>
Každ á</w>
F al
D ám</w>
be side</w>
do jem</w>
administrat ivní</w>
sensit ive</w>
áh nout</w>
oper ative</w>
12 5</w>
star s</w>
Tribun álu</w>
ne vztahuje</w>
vrá tím</w>
b át</w>
sex ual</w>
přest at</w>
strán ka</w>
ře šit</w>
prohlá sil</w>
bu ju</w>
h i</w>
tabul ky</w>
ti ka</w>
mag ne
Bet ter</w>
gu idance</w>
n b
Čí slo</w>
bo w</w>
zjist í</w>
partici pants</w>
ál nímu</w>
lé t
Par ental</w>
cen ý</w>
pří čin
rych lost</w>
ru ky</w>
pic tures</w>
brat ra</w>
pok rý
správ ních</w>
pů dy</w>
čist é</w>
stanoven ým</w>
li abilities</w>
K ó
tý mu</w>
dáv at</w>
podí lu</w>
kontro lu
chlá p
takov ým</w>
mat ku</w>
postup ně</w>
B ringing</w>
bu ň
thro at</w>
F ind</w>
ne můžete</w>
ob vious</w>
SPOLE Č
Ex cept</w>
gro wn</w>
čí sle
thi az
dat ing</w>
N G
spo r</w>
rozdí l
vyz ývá</w>
s ová</w>
se h
mno ho
Pra vid
il lu
D G</w>
there to</w>
V an
ub lic
odi um</w>
y al</w>
ula ci</w>
z ub
K are
S pol
SZ BP</w>
zá lo
. ht
Ag ent
ch áp
S S</w>
Žal oba</w>
es át</w>
hand ling</w>
L ong</w>
za stup
EF SA</w>
head ings</w>
doprav u</w>
y le</w>
konkrét ně</w>
nov i</w>
ha w
potřeb u</w>
služ ba</w>
in et
thou ghts</w>
c ot
ser ted</w>
žen ým</w>
hléd l</w>
br ž</w>
dáv ek</w>
ER DF</w>
S eri
concent rations</w>
zd i</w>
ře čeno</w>
gover ned</w>
im un
M E
en h
vy pořád
Cy pr
výmě nu</w>
projednáv ané</w>
inter netu</w>
uplat nit</w>
přich áz
em ission</w>
nor mal
compati bility</w>
alleg ed</w>
Hur ry</w>
ne mohu</w>
Sim on</w>
put s</w>
Nak onec</w>
pla v
ot á
list s</w>
pro voz</w>
t át
we ak</w>
požad ovat</w>
chlap če</w>
dam ages</w>
ex pl
av á</w>
ref use</w>
rov ý</w>
ný brž</w>
přenes ené</w>
every where</w>
Cel ý</w>
význam em</w>
ku ř
contro l
r ud
dáv ce</w>
tar get
relat ive</w>
Pa ří
La ur
pracov níky</w>
rejstří ku</w>
oprav dov
poru chy</w>
Cí tím</w>
Španěl sko</w>
S und
sil ný</w>
pod odstavci</w>
kom pli
léčiv ých</w>
pro bud
by tek</w>
Poz or</w>
t oru</w>
zru šit</w>
ú z
rodič ů</w>
uvědom il</w>
a že</w>
šen ého</w>
v am
ně me</w>
proved e</w>
bur g</w>
skon čil</w>
záležit ost</w>
přidě len
sp ac
vie wed</w>
leg ality</w>
ř ady</w>
s wi
nej ste</w>
Em ployment</w>
před pis</w>
est ate</w>
vol ný</w>
jednoduch é</w>
stru ction</w>
Poznám ka</w>
20 7</w>
equ ity</w>
předpok lá
Cypr us</w>
poslouch ej</w>
st om
dělá ní</w>
Al so</w>
bě h
D Y</w>
be aring</w>
mluv ila</w>
ič ku</w>
ro l</w>
k ari
speci fications</w>
star ts</w>
B O
region álních</w>
Ne u
uspoko j
in '</w>
Roz počt
jednot li
(1)( b</w>
bir ds</w>
w are</w>
ne byli</w>
spo use</w>
plat ný</w>
S un
H a</w>
m ation</w>
f ill</w>
Dor učování</w>
Ed ward</w>
z mr
vi z
R ose</w>
P it
vý stup
předlož ila</w>
hospodář ská</w>
sto red</w>
ber g</w>
F ile</w>
koneč ném</w>
lá ska</w>
potřeb oval</w>
typ y</w>
harmon ised</w>
c ry
5 7
big ger</w>
great est</w>
ES VO</w>
nap rav
oura ble</w>
ži jí</w>
š ně</w>
sou části</w>
Qu est
E gy
ne mělo</w>
hmot nostních</w>
em phas
prů zkum
sh aring</w>
intra ven
e tic</w>
13 9</w>
z lob
zved l</w>
úřed ní</w>
l ery</w>
vlast ním</w>
mot or
pravděpodob né</w>
provádě jí</w>
b right</w>
Ch em
čty ř</w>
sta red</w>
F ri
j er
e h</w>
új my</w>
n ity</w>
I t
pacient i</w>
uved l</w>
destro yed</w>
Rodič ovská</w>
U p</w>
zavo lal</w>
m es
speci aliz
W ere</w>
Ma ďar
r ky</w>
Potřeb uji</w>
D ep
bom b</w>
streng then</w>
che ese</w>
compen s
Lon dý
L ove</w>
áv ali</w>
pus h</w>
ne máte</w>
Sim plified</w>
zů stane</w>
rozto k</w>
ich a</w>
kapit án</w>
ig ation</w>
trans it
there by</w>
připo menout</w>
gre w</w>
ší te</w>
e ň</w>
10 /
ch urch</w>
Min im
ar i</w>
an o
porte ur</w>
chy b</w>
b and
Un cle</w>
nav zájem</w>
as pek
mí r
Accord ingly</w>
spad ají</w>
pozn al</w>
v dě
O ral</w>
koordin aci</w>
osob ou</w>
ulož ení</w>
sedě t</w>
hla ví</w>
sil ence</w>
Indi a</w>
the tic</w>
sta ying</w>
regul ated</w>
attemp t</w>
Pro vádě
Ú padek</w>
impro ved</w>
tvá ře</w>
comprehen sive</w>
partner ship</w>
l or</w>
certifi ká
k ými</w>
A sh
o podstat
zrych lené</w>
požad uje</w>
discus s</w>
tro j
úspě ch</w>
oto čil</w>
navští v
st ipul
využí vat</w>
ri f
lah vi
em en
c okoli</w>
Ex actly</w>
podpoř it</w>
li br
demonstr ated</w>
P lan</w>
vzni ku</w>
nar ušení</w>
kon cep
Da ve</w>
slu ší</w>
in i</w>
id ing</w>
law ful</w>
omez it</w>
seek ing</w>
b ird</w>
od kud</w>
ká me</w>
0 2
veter inary</w>
K ol
IN TER
bun ě
po t</w>
organ ised</w>
suspec ted</w>
em ise</w>
ves míru</w>
shro mažď
ok o</w>
cut ting</w>
ná š
in ové</w>
Ja pon
doprav ní</w>
San ta</w>
j ater</w>
O l
dob ou</w>
mí r</w>
kapit ole</w>
použív ané</w>
post eli</w>
vývo z</w>
re mov
bo lov</w>
zap s
ec tive</w>
u rement</w>
přátel e</w>
ful fil
shor t
rel ate</w>
Nemůž eme</w>
allow ance</w>
ú stav
vel kých</w>
re lig
poskyt ovatel
mi xed</w>
Afric a</w>
nam íst
pr en
ph y</w>
it er
K ir
aro n</w>
C V</w>
vyrov nání</w>
L U
př á
pohledáv ky</w>
d ová
Vyt vo
pr int</w>
vod ou</w>
mo l</w>
con sent</w>
ví ch</w>
A V
čer tu</w>
An na</w>
myšlen ky</w>
nej více</w>
rec ru
T oday</w>
Jo se
ther ine</w>
svět le</w>
farm ers</w>
secon dary</w>
vykon ávat</w>
ident ical</w>
depend s</w>
nov ě</w>
yel low</w>
zdan ění</w>
il ý</w>
Ru le</w>
výraz ně</w>
l shit</w>
kam en
nez mě
žád ném</w>
jin de</w>
řed itelství</w>
ja il</w>
Enter prise</w>
fin ger</w>
naroz ení</w>
t es</w>
hla d</w>
Rec om
6. 1</w>
suc cess</w>
soldi ers</w>
zd ory</w>
stan eš</w>
(2 )(
ob haj
f an</w>
out put</w>
vyh raz
pro spec
me zení</w>
H igh
hard ly</w>
Lar ry</w>
vý počet</w>
D e</w>
po m
znám o</w>
v ní
zad rž
váž né</w>
Pi er
m ap
ukaz uje</w>
nebezpeč né</w>
alko hol
ici an</w>
h ové</w>
g ger</w>
mach inery</w>
stand ar
neu stále</w>
zahá jit</w>
b ry
ok res
té hož</w>
stě ž
ie w</w>
dis k</w>
Sele ct</w>
T w
manž ela</w>
re sta
vypad al</w>
9 9
Vz pomí
spr ing</w>
no hou</w>
chy bu</w>
Qu een</w>
dostan eme</w>
Jer ry</w>
ú h
př iná
d ude</w>
conf idence</w>
decre ase</w>
pohled u</w>
2 :
š pin
M ak
T ou
vysok ý</w>
R oc
indi rect</w>
cam p</w>
iv id
umíst ění</w>
qu it</w>
vzdu ch</w>
Offic er</w>
N U
0 5
prv ních</w>
demonstr ate</w>
zásad ou</w>
aliment ační</w>
lau gh</w>
é ry</w>
nepřes ahuje</w>
bo w
pack aging</w>
gra v
Ex ec
sil ni
Pamat uješ</w>
č íš</w>
K no
Comm ander</w>
ac knowled
DECISI ON</w>
jedin ou</w>
SO U
perf ek
zá tě
V še</w>
N am
on ed</w>
C A</w>
initi ated</w>
fe eding</w>
D ot
lod ě
fem ale</w>
Potřeb ujeme</w>
tím hle</w>
mob ili
AS T</w>
přij mou</w>
Par k</w>
sly š</w>
adv anced</w>
technolog ical</w>
ex p
přin ejmenším</w>
schedu le</w>
ch ázení</w>
Rozhod né</w>
z řej
th in</w>
posl at</w>
D vě</w>
so lid</w>
p ion
č len</w>
Struct ural</w>
sud den</w>
Mr s</w>
ver ze</w>
St art</w>
Tech nolog
al in</w>
199 9/
judikat ury</w>
Aff airs</w>
we b</w>
kon textu</w>
Ne jsou</w>
scé ná
ru šení</w>
sh es</w>
Z jednodušené</w>
u prch
Pati ents</w>
M AR
pře kon
alco hol</w>
hid ing</w>
b lad
ob raz</w>
accep table</w>
Ru n</w>
Jas on</w>
ě ny</w>
s ending</w>
iv ity</w>
inten sity</w>
Pod mí
admis sible</w>
le ss
ic ated</w>
cen ou</w>
cra p</w>
consider ations</w>
restric tive</w>
Poz mě
dí val</w>
arch it
Řek nu</w>
ř ilo</w>
Práv nické</w>
201 0/
respon si
refle ct</w>
tel ls</w>
favor ite</w>
du še</w>
I denti
člen ové</w>
tele vision</w>
credit or</w>
er ion</w>
serv ing</w>
fo c
resta ur
nut s</w>
th ly</w>
Nor way</w>
Bud ou</w>
á nu</w>
quot as</w>
přis pět</w>
restric ted</w>
svo jí</w>
Strateg y</w>
inform ovat</w>
Nem áš</w>
Bud get</w>
člán cích</w>
in put</w>
N ová</w>
vlá k
suspec t</w>
Čá st
bez prostřed
ví k
p ití</w>
spl ňují</w>
nov al</w>
issu ing</w>
emo glob
Tre at
prode ji</w>
K A</w>
14 /
comp ul
rozpočt ové</w>
Ú daje</w>
Pac ient
j eli</w>
3 3
vý ho</w>
Za stav
j ela</w>
atel ské</w>
p en</w>
ne dě
H as</w>
T ali
příležit osti</w>
form ation</w>
t ape</w>
ič ky</w>
ic ho</w>
vy počít
ri be</w>
kvó ty</w>
syn dro
ma 'am</w>
.europa .eu</w>
Prob ably</w>
w ol
dim en
O rd
Maxim um</w>
Al ice</w>
uc k
dump ed</w>
uživ atelů</w>
finan cov
dospě lých</w>
P RA
ci es</w>
mat ic</w>
poznám ky</w>
i zace</w>
some how</w>
nej vět
Maj or</w>
g an</w>
přev od
obleč ení</w>
instal led</w>
cel ková</w>
itel ům</w>
inde x</w>
ut a</w>
s é
cele br
Des cri
jazy ce</w>
manufac ture</w>
finan cí</w>
di rty</w>
g lan
změ nil</w>
ist ic</w>
exten d</w>
ali st</w>
P omoc</w>
proti právního</w>
bla me</w>
mů m</w>
Kel ly</w>
pod aná</w>
am end</w>
vý cvi
j děte</w>
ester n</w>
žen ě</w>
ne roz
uzn ávání</w>
zn ova</w>
vý chozí</w>
vrá tila</w>
policej ní</w>
spoko jen
X X
transit ional</w>
at ý</w>
Not ice</w>
ov ered</w>
pap ers</w>
sud ek</w>
sou borů</w>
interoper ability</w>
under taken</w>
materi ál</w>
dro g
pří znaky</w>
ab and
A ri
elect rical</w>
H ome</w>
výjim ky</w>
ř iv
K la
2 (
hod ný</w>
p um
in her
s l</w>
přer u
Do stal</w>
b ak
el né</w>
spolu prac
PROD UC
Anne xes</w>
int ention</w>
consequ ence</w>
pomě r</w>
a v</w>
mo zek</w>
cer e
V čera</w>
jednot né</w>
c ti
vešker á</w>
gam es</w>
c ry</w>
ar de</w>
x y</w>
reli ef</w>
přek rač
kontro la</w>
A dam</w>
tou ched</w>
De partment</w>
l are</w>
chlo ro
Ro ger</w>
veri fy</w>
pa ce</w>
U klid
D ay</w>
fir ms</w>
P rá
á lem</w>
il la</w>
hur ry</w>
pod ána</w>
zjist ila</w>
Opat řování</w>
rov nou</w>
refer ences</w>
mili ard</w>
famili ar</w>
telefon u</w>
sh i</w>
n ce</w>
Ú řad</w>
dotyč né</w>
jo ined</w>
sub mits</w>
píse mně</w>
šťast ná</w>
ra du</w>
při blí
proti právní</w>
se znám
symbo l</w>
t ance</w>
H IV</w>
200 0/
O ld</w>
vyžad ují</w>
ni k</w>
9 3/
sad ím</w>
nov er</w>
nut a</w>
bre ast</w>
4. 5</w>
vraž du</w>
dlu hu</w>
discre tion</w>
Wh e
viol ence</w>
ide as</w>
bu ji</w>
O thers</w>
z aci</w>
Arth ur</w>
blo ody</w>
Vžd y</w>
necess arily</w>
zahran iční</w>
L oty
Tribun al</w>
do klady</w>
O w
R on
potřeb ují</w>
h all</w>
Spojen ých</w>
ben e
sil né</w>
pal iva</w>
govern ance</w>
Se a</w>
consist s</w>
Pe rorální</w>
uzav í
sek ret
peč livě</w>
léka ř</w>
cal endar</w>
un known</w>
ag li
Do st</w>
s and
žd y</w>
sex u
odpo čin
a b</w>
she ets</w>
Lat via</w>
vítě z
cel kový</w>
8 0
překvap ení</w>
re ti
d ation</w>
Loty š
C N
způsob u</w>
hlad iny</w>
Sy n
Kapit áne</w>
kategor ií</w>
PO D
grat ulations</w>
cy to
bar ri
restruktur alizace</w>
D O</w>
Tabul ka</w>
poško zení</w>
čí ho</w>
p est
B ack
Ho ly</w>
prohib ited</w>
z řízen
N áš</w>
provádě cích</w>
přezkou mání</w>
kal ho
CO D</w>
struktur álních</w>
ově řování</w>
ví na</w>
dres sed</w>
In stal
cont ents</w>
okol í</w>
sh ap
C it
měsí ci</w>
dark ness</w>
prin ted</w>
step ped</w>
speci fik
průmě ru</w>
proved eny</w>
invol ve</w>
av ir</w>
ex cessive</w>
po bo
di ble</w>
L ily</w>
embar ra
ovan ému</w>
nap ě
L and
mess ages</w>
ent ing</w>
oz bro
10 3</w>
ok rat
obě ma</w>
sp la
poh ř
ut s</w>
sí la</w>
consid ering</w>
ea se</w>
analý zu</w>
pre dic
dis ku
ply nů</w>
Přem ýš
u li
proportion ality</w>
ě n</w>
proved l</w>
Ch ris</w>
zav ést</w>
vy ví
t ings</w>
sol utions</w>
jmen ování</w>
f as
smal ler</w>
or ation</w>
Eng land</w>
dis covered</w>
dis closure</w>
ang i
D on</w>
fung ovat</w>
Z amě
h ala</w>
republi kou</w>
ob jas
ok ru
ch apter</w>
pas sing</w>
o šet
subsequ ently</w>
A však</w>
S O</w>
žalob a</w>
Mar k
stran ám</w>
ne dovol
With in</w>
sh ole</w>
Nejd řív</w>
ná bo
sam pling</w>
dar ling</w>
pe ň</w>
candid ate</w>
Vi et
lo s</w>
prode j
opě tov
zept ala</w>
pla ys</w>
perfec tly</w>
sla u
ra d</w>
CY P</w>
dor uč
P ic
withdraw al</w>
enti ated</w>
žal ud
pe l</w>
ne stalo</w>
eff icacy</w>
hy gi
Bus iness</w>
acquis ition</w>
ve ďte</w>
for give</w>
d are</w>
zn i</w>
vi ve</w>
fra g
B í
nez nám
ta ught</w>
TI NG</w>
ho ř
hmot nost</w>
R U
G I
T EN
Y ear</w>
Speci fic</w>
stanoven ou</w>
krát kod
od ol
fyz ické</w>
id ly</w>
pend ing</w>
Wal ter</w>
ru kama</w>
P res
fav ourable</w>
certi fication</w>
star t
re place</w>
plu kov
Tech nical</w>
u mění</w>
mluv ili</w>
subsidi arity</w>
st ali</w>
lo k
stru gg
ok ine
b um</w>
stud ent</w>
spočí vá</w>
ře z
pos lech
vypad at</w>
nebud eme</w>
st áv
wit nesses</w>
Znov u</w>
An dre
pra xe</w>
W ant</w>
car di
pos ite</w>
villa ge</w>
as sist</w>
léč ba</w>
ro s</w>
upozor nění</w>
re di
pr del</w>
oprav dy</w>
Stud ie</w>
S V
vy dě
p iz
san k
lá m</w>
analy z
y sle
L Á
veget ables</w>
pl í
odpovída jí</w>
Wh it
ra il</w>
Z jist
EU R
V ir
L or
Bud ete</w>
v lh
fle et</w>
ch ovat</w>
h em
odstran it</w>
poví dat</w>
ne řekla</w>
prv ků</w>
ob těž
ro č
N É</w>
S bohem</w>
w et</w>
thresh old</w>
dcer u</w>
P ad
ut ch</w>
počíta č</w>
A dv
con ferred</w>
oprav ný</w>
kom un
míst ech</w>
Y oun
nabíd ku</w>
A niž</w>
soukro mé</w>
ton s</w>
St átní</w>
CS .0100
původ ního</w>
pochop it</w>
zá kaz</w>
hr ud
Gr and</w>
záv a
invest or</w>
íb il</w>
F und
in s
mo le
automat ic</w>
ž ky</w>
tv ém</w>
re med
Tran sport</w>
crit ical</w>
Fur ther</w>
odpad u</w>
sho oting</w>
thre w</w>
p yt
obvyk lé</w>
ab on
se děl</w>
ko stí</w>
rat s</w>
deriv ed</w>
naš em</w>
we 'il</w>
Y et</w>
chec king</w>
ok inet
IB M</w>
export ed</w>
arrang ement</w>
param eters</w>
infec tion</w>
W eb
mo zku</w>
posto j</w>
ř ka</w>
rec itals</w>
ro oms</w>
e ve</w>
by to
diag nost
roz mezí</w>
vzájem ně</w>
dodáv ky</w>
er ate</w>
4 7
n is</w>
pra y</w>
k ůž
lar ger</w>
požád al</w>
re put
sty le</w>
defin e</w>
způsob it</w>
cest ujících</w>
ad i
uplat ňovat</w>
ref used</w>
guarante ed</w>
ad ult</w>
N ový</w>
věn ovat</w>
pro jít</w>
strán ku</w>
s bí
TI VE</w>
tit le</w>
S vat
lí k</w>
mat ky</w>
nad měr
kr vi</w>
r v
doprav a</w>
ST I</w>
D I
rec al
15 .
kat astro
F le
sna žím</w>
crit erion</w>
Invest ment</w>
Forg et</w>
so il</w>
po jem</w>
úžas né</w>
ful filled</w>
elektr ické</w>
EN .0100
I cel
zk ur
up per</w>
změ ní</w>
I g
lát ka</w>
lí š</w>
vy slov
žad atele</w>
froz en</w>
Compet ition</w>
hod nosti</w>
tv ých</w>
dodat ku</w>
is ol
ž lut
zprostřed kov
veteriná r
individu ální</w>
elektron ických</w>
m ale</w>
inno cent</w>
ha jící</w>
Reg ions</w>
lea r</w>
he ro
ad o</w>
polic aj
im porters</w>
indic ates</w>
mon d</w>
živoč i
kar tel
Luc y</w>
fak tory</w>
N O</w>
hyper ten
id ů</w>
c ovat</w>
Al ways</w>
ím co</w>
human it
vz dělání</w>
dob rej</w>
počíta č
secre ts</w>
Sing le</w>
respon d</w>
op position</w>
Ne boj</w>
j ump</w>
form ální</w>
střed ních</w>
Vypad áš</w>
šen ých</w>
stud ents</w>
mit ting</w>
Di rectives</w>
vý kladu</w>
J os
lo aded</w>
as le
Instru ment</w>
cel osvět
vi se</w>
sl áv
Z ku
Slov in
Col le
bai li
ca m</w>
br zo</w>
p av
fig uration</w>
E lek
ro ws</w>
responsi bilities</w>
sum mon
organ ic</w>
Bri an</w>
le ta</w>
Sloven ia</w>
P ho
ch al</w>
M mm</w>
manag ing</w>
availa bility</w>
k lá
zásad a</w>
Zat ímco</w>
Lu ke</w>
Č lově
veřej nou</w>
bo st</w>
B ring</w>
incre ases</w>
c ute</w>
Dok tore</w>
l ka</w>
regula ční</w>
st ol
bezpečnost ních</w>
ú pad
společen stvím</w>
mlu v</w>
re vised</w>
incorpor ated</w>
určit ý</w>
S C
zá sil
de vět</w>
u hlí
v é</w>
rá m</w>
pro cház
wea ther</w>
vaš em</w>
id er</w>
g ear</w>
K á
PR O</w>
nez let
ho hle</w>
od kazy</w>
krá l</w>
jak á
hod í</w>
transpar ent</w>
god damn</w>
r ické</w>
je jímž</w>
In st
roz man
cít íš</w>
ří cí</w>
zásad u</w>
rod ině</w>
mag az
počá teční</w>
eu roz
št ích</w>
pa th
J děte</w>
vylou čení</w>
Con ver
odbor níků</w>
ově řit</w>
hod né</w>
ku f
úvě rů</w>
nej horší</w>
S EC
CH MP</w>
roz lu
fon dy</w>
S r
you th</w>
13 6</w>
E M</w>
sch ov
poin ting</w>
H z</w>
mimo řád
kdy byste</w>
surg ery</w>
ca st
vin a</w>
ru ka</w>
dne šní</w>
Jed ná</w>
cí lov
Z nám</w>
custom er</w>
pe ch</w>
pozn at</w>
p ivo</w>
U s
neg ativní</w>
ve y</w>
St ro
h ování</w>
pho togra
198 9</w>
ex plic
tvo ji</w>
mo te</w>
s áz
plat ných</w>
it á</w>
da ň</w>
_ 201
C ri
b lon
nemoc nici</w>
b um
B is
law yers</w>
Hodno cení</w>
ser ž
ci zí</w>
M .
význam ný</w>
kůž i</w>
pobře ží</w>
ediat ric</w>
pokrač oval</w>
jak ých
vari ety</w>
ag enda</w>
nav rá
Y ep</w>
ich t</w>
at us</w>
Na příklad</w>
H ell</w>
sig nature</w>
stit ute</w>
sluč itelné</w>
j ád
lí st
quar ter</w>
po cket</w>
2, 5</w>
r ku</w>
Dů ležit
ad il</w>
Sat ur
Ně kteří</w>
M P
bý vá</w>
předlo ženy</w>
kom pen
mo ther
cam pa
zabi je</w>
po cházející</w>
ol u
assess ing</w>
závaz ku</w>
smluv ních</w>
Pol ice</w>
co operate</w>
ž el
it ative</w>
repe ated</w>
pro hlíd
o čích</w>
příjem ci</w>
u jícími</w>
hodnot ou</w>
4 8
bil ateral</w>
upo vat</w>
m ení</w>
hov ala</w>
fa ster</w>
zni čit</w>
televi zi</w>
funk ční</w>
ád ně</w>
vol ně</w>
l er
no h
oblí ben
př ec
h omo
Tak ové</w>
ban kruptcy</w>
em er
ab road</w>
b unch</w>
bo ther</w>
š ný</w>
4 5
run s</w>
ár ních</w>
rec overed</w>
provid ers</w>
zr c
x i
us ly
Pur su
lož ka</w>
obnov ení</w>
zra k</w>
carri er</w>
her o</w>
ne sen
počá tku</w>
považ ována</w>
communic ated</w>
st ret
P C
dipl omat
d il
eg gs</w>
K ru
vyře šit</w>
hang ing</w>
přísluš ná</w>
T AR
remem bered</w>
teach er</w>
rat ic</w>
hand ed</w>
pozit ivní</w>
vy žád
recommend ation</w>
podlé hají</w>
v ky</w>
studi ed</w>
Reg ion</w>
ask s</w>
B ab
fel low</w>
Syst ém</w>
exclus ively</w>
30 1</w>
termin ation</w>
prepar ations</w>
sur round
ovan í</w>
cel ních</w>
une m
ov ce</w>
pla stic</w>
m léč
pro ni
an na</w>
mož ný</w>
rest ed</w>
podlé há</w>
squ are</w>
mob ile</w>
2 -
20 .
18 0</w>
break fast</w>
ref usal</w>
bare ly</w>
zad av
Kev in</w>
mil uje</w>
le sk
nar uš
ma r</w>
nation ality</w>
M odi
con ci
ně která</w>
zad ní</w>
vel kého</w>
z ie</w>
ost ech</w>
cest ov
šk rt
zar uč
Vez mi</w>
ke eps</w>
Scot t</w>
D ude</w>
samostat ně</w>
v stup</w>
zač alo</w>
omez ené</w>
0, 000</w>
regul arly</w>
kra b
sc rip
kas ačního</w>
dig ital</w>
n ery</w>
by t</w>
sign ment</w>
posí lit</w>
aud itu</w>
Č as</w>
to k</w>
extre m
spot řeby</w>
vit ro</w>
div né</w>
zen ím</w>
R áda</w>
D Ě
rez id
čísle m</w>
příj mu</w>
stu ffs</w>
kni hu</w>
in ovací</w>
N ar
al es</w>
produ cing</w>
š at
Cer ti
relev ant
nap s
B od</w>
Eli zab
mak ro
16 0</w>
dat u</w>
sim pli
Pot é</w>
Soud nímu</w>
You 'il</w>
fa sh
mysle li</w>
Rad ou</w>
předchoz ích</w>
komuni kace</w>
u ře</w>
AU C</w>
H appy</w>
pá rty</w>
obsa hem</w>
ni koliv</w>
aut or
považ ovány</w>
ot v
krás ná</w>
hezk é</w>
á ti</w>
re au</w>
neigh bor
cigare t
rad ě</w>
sniž ování</w>
T ow
o stro
S her
lí bit</w>
coh er
dokument ace</w>
ut u</w>
and ed</w>
tru ly</w>
různ ými</w>
bre aking</w>
objec tions</w>
V ar
lim itation</w>
N Á
z la</w>
1 15</w>
zná te</w>
Me th
f ts</w>
guil ty</w>
použit é</w>
up s</w>
stan ice</w>
H m</w>
tax able</w>
k lob
em i
In stitu
strength ening</w>
um í</w>
soukrom í</w>
pů jdeme</w>
preci se</w>
bel ong</w>
TI T
wor e</w>
R ed
lé ta</w>
Tru st</w>
ing redi
Na šel</w>
ú ct
Ameri č
na h</w>
asse mb
subje ktům</w>
pay able</w>
affec ting</w>
dluž níka</w>
pa ch
h mo
přev odu</w>
jest y</w>
Ky le</w>
ste al</w>
s ly</w>
TH EM
prav é</w>
S S
Ar gument
dist ingu
ře t</w>
Exist ují</w>
š ly</w>
bal ls</w>
ul ture</w>
mand atory</w>
to ol</w>
sta yed</w>
justi fy</w>
s or</w>
o b</w>
investig ations</w>
um es</w>
osvob oz
ved ou
hol ku</w>
support s</w>
vá t
satis fy</w>
Pou ží
com position</w>
vě z
K ey
vez me</w>
res erve</w>
O prav
M I</w>
ref unds</w>
foun ded</w>
pi sech</w>
dotčen ý</w>
práv y</w>
re tail</w>
nech te</w>
gro ss</w>
er rors</w>
tur nover</w>
associ ations</w>
o že</w>
Ad d</w>
N as
roz kaz</w>
comple tion</w>
železni ční</w>
icul ous</w>
úprav u</w>
Applic ation</w>
pl ní</w>
asle ep</w>
pok r
t um
elect ro
od ě
du st</w>
Ve šker
signá l</w>
ob ez
koup il</w>
objec ts</w>
di vision</w>
bezpeč né</w>
wo od
tvo jí</w>
cent ury</w>
urč en</w>
an ese</w>
U kaž</w>
1. 3</w>
št ina</w>
tex t
ná silí</w>
u a</w>
fo od
. c
ra ble</w>
hid den</w>
chlap ci</w>
tlu st
internet ové</w>
be s
sp here</w>
D an</w>
roz p
Z ase</w>
hor ses</w>
šé fe</w>
ne dá</w>
fa x
mod el
Rad ši</w>
sp al
Jo ey</w>
volun tary</w>
Comm ission
v ence</w>
pí še</w>
subsidi ary</w>
i j
Pop is</w>
me al</w>
W om
sil ent</w>
od rů
fuck in</w>
nev rá
Washing ton</w>
s otva</w>
cla use</w>
kř ič
ru ba</w>
ul i</w>
K lí
proto kol</w>
dis semin
pl nou</w>
test y</w>
meas urement</w>
ne příjem
vražd y</w>
cul ture</w>
B ý
nes rov
hla š
elect ric</w>
k ně
dotčen a</w>
přer uš
stát ního</w>
preg nancy</w>
l n
předlož ené</w>
struktur u</w>
připo j
znalo sti</w>
ur ych
trans akcí</w>
p ages</w>
6 5
spl ňovat</w>
penal ties</w>
ná le
od ár
op inions</w>
B EL
Pov in
k up</w>
f ted</w>
šé f</w>
provid er</w>
de serve</w>
zvlášt ním</w>
sett ings</w>
bath room</w>
depend ent</w>
kar ty</w>
peně ž
Lan gu
Zá klad
lo ts</w>
vý ta
stej ná</w>
an ů</w>
B ay
Ty hle</w>
sed í</w>
t ys</w>
C ir
pat ch</w>
zav ra
Pursu ant</w>
regist race</w>
divid ed</w>
ivid ně</w>
int ly</w>
z jišť
stej ným</w>
Produ cts</w>
O li
D lou
mr zí</w>
sou hr
e an</w>
car tel</w>
for gotten</w>
T est</w>
p ir
r ka</w>
br zd
S H
Ná rodní</w>
pharmac ist</w>
bí lé</w>
rid ge</w>
eč ného</w>
anal yt
probí há</w>
lo ading</w>
ce iling</w>
Ac cess</w>
Če ské</w>
ter nal</w>
bene ath</w>
Mar i
výhrad ou</w>
eng en</w>
obrá zek</w>
en cí</w>
dis appeared</w>
C lo
to hohle</w>
Jin ak</w>
propor cion
reli able</w>
anci ent</w>
Ty p</w>
pust ila</w>
Recom mend
sv al
větš inu</w>
tele phone</w>
fa il</w>
CO M</w>
vál ce</w>
zmiz el</w>
zahá j
uprav it</w>
Ježí ši</w>
ble eding</w>
pro pose</w>
14 0</w>
zak ázá
zpo ždění</w>
met oda</w>
ur ies</w>
ne měly</w>
al arm</w>
T ÉM
konzult aci</w>
5. 3</w>
li gh
B E</w>
question na
ve čí
u štění</w>
stom ach</w>
er y
lev a</w>
answ ers</w>
mob il
S our
V or
tr u</w>
bro thers</w>
Č ím</w>
an em</w>
ro lled</w>
třet ího</w>
low s</w>
ent r
zdů razn
y ard</w>
ne jsme</w>
jour ney</w>
bar vy</w>
od sou
sur vive</w>
při kývl</w>
g ang
z obrazení</w>
ran dom
zachrá nil</w>
Cla ss</w>
mar ine</w>
lá sku</w>
Sa ve</w>
kon tin
F F</w>
s ak
1 (1</w>
porad enství</w>
od raz
du ši</w>
ex cit
č ata</w>
zkuš ební</w>
3 4/
pu shed</w>
pře vyš
me č</w>
prohib ition</w>
Dok ud</w>
zn al
cre am</w>
odpo vědět</w>
konkurenceschop nost</w>
skoč il</w>
k ec
re vol
dom ov
b ance</w>
Plu s</w>
integ rov
TÉM ATA</w>
EF RR</w>
em a
lo ose</w>
á ky</w>
EM EN
účast ník</w>
whe el</w>
vy dat</w>
ač koli</w>
ed y</w>
min uty</w>
tisí ce</w>
Portu gu
Stat ist
ú hra
Z ast
Jen ny</w>
acc ur
V O
pe ro
conclud e</w>
obyv atel
pra k
il st</w>
dá my</w>
át ky</w>
P C</w>
P omo
ok a</w>
kdy bychom</w>
vztah ů</w>
vul ner
Z dro
rol ling</w>
ele n</w>
experi enced</w>
p p
k ick</w>
le tě
Kó d</w>
sek und</w>
l ala</w>
ro of</w>
Zů staň</w>
Po stup</w>
koordin ace</w>
Jed not
H om
dopad ů</w>
THEM ES</w>
ž íme</w>
je h
dokt or
becom ing</w>
letad lo</w>
ň oval</w>
no su</w>
vra h</w>
ně kteří</w>
vývo ji</w>
on er</w>
účast níky</w>
charak ter
st rop
Elizab eth</w>
klep něte</w>
Dok tor</w>
o ret
enter ing</w>
resc ue</w>
evrop ský</w>
behavi our</w>
ch ů
D S</w>
susp ended</w>
Sk oro</w>
tu red</w>
moun tain</w>
inform uje</w>
tře ch</w>
t g
Gran d
en gen
promě n
objek tiv
Brit ish</w>
r end
per mission</w>
quali fy</w>
rá nu</w>
pod é
cov er
I tem</w>
201 6</w>
manufactur ing</w>
h ří
G il
nej víc</w>
stanoven ý</w>
gu ards</w>
Poz n</w>
brá nit</w>
jaké koliv</w>
ko efici
I -
význam ně</w>
P ublic
poslouch at</w>
více let
en á
3. 3</w>
off ers</w>
zab ili</w>
en ými</w>
aw ful</w>
š am
po ro
elektř iny</w>
č tvr
cor rup
tro šku</w>
ov ému</w>
zbav it</w>
m ere</w>
písem nosti</w>
ochran ných</w>
mluv te</w>
ka š
b az
zem řít</w>
Re ady</w>
povr chu</w>
dlouhodob é</w>
zn ak</w>
od dě
Tur n</w>
Ří zení</w>
u el</w>
z věd
Dohod a</w>
priv i
ta jí</w>
P ubli
si zed</w>
obě d</w>
kdy koli</w>
fy zi
f ter</w>
na jdu</w>
mrt ví</w>
Sch engen</w>
řed itel</w>
ovliv nit</w>
S ounds</w>
nau čit</w>
cí tí</w>
pacient a</w>
uni j
Sleč no</w>
P ově
U l
sk ry
dodrž ení</w>
zad ek</w>
slov y</w>
decreas ed</w>
clea red</w>
iv y</w>
a ero
ozna čením</w>
zad ávání</w>
Con ditions</w>
č ela</w>
Při pomí
O to
po ra
invol vement</w>
decid es</w>
skon čila</w>
t une</w>
čas né</w>
week end</w>
pod ávat</w>
Ví tejte</w>
É HO</w>
F an
schů zku</w>
V inc
Nemoh l</w>
us mál</w>
af ford</w>
label ling</w>
Ot áz
po nech
U dělej</w>
10 49</w>
stor m</w>
š ilo</w>
bar u</w>
potřeb ujete</w>
dlou hou</w>
ví no</w>
scen ari
d ové</w>
S ophi
nic ally</w>
AT E</w>
jist otu</w>
dokument aci</w>
per ed</w>
licen cí</w>
tvá ři</w>
f et
Li fe</w>
r ender</w>
I 'm</w>
th ir
pod ává</w>
řek něte</w>
zajišť uje</w>
T un
spad á</w>
stron ger</w>
As k</w>
třet ími</w>
po myslel</w>
ach e</w>
Bezpeč nost</w>
re mote</w>
ard on</w>
vz ali</w>
R ome</w>
v lož
dra há</w>
Q U
é nu</w>
opra vy</w>
met od</w>
trib un
Pra c
E Z
Pozmě ňovací</w>
zpo mal
sp ending</w>
mo stly</w>
ná roku</w>
im pose</w>
10 9</w>
zne poko
do opravdy</w>
cen né</w>
aw ar
snad né</w>
Clar k</w>
m ové</w>
pow ered</w>
ově ř
E ri
Pod rob
chlá pek</w>
F uc
in su
ess entially</w>
Dou f
s sm
G N
pří stav
posled ního</w>
inv ent
sled oval</w>
K os
mo ct</w>
dise ases</w>
ad ults</w>
se ed</w>
Lé č
t all</w>
ní š</w>
V eli
per cent</w>
n ést</w>
á ni</w>
ing er</w>
í n</w>
léčiv ého</w>
T ay
ole je</w>
p et</w>
M any</w>
Th or
vrá cení</w>
statut ory</w>
n ala</w>
konstat ovat</w>
ra p</w>
UR E</w>
D em
ti p</w>
pad l</w>
zen o</w>
dve ř
as sumed</w>
di vo
s aving</w>
čer né</w>
oc curr
dal y</w>
work er</w>
restric tion</w>
speci fikace</w>
připomí ná</w>
lit e</w>
Lithu ania</w>
Swit zer
sta č
mezinárod ního</w>
D ig
krátkod ob
Vid íte</w>
přizn at</w>
nom in
dlou h
Př iv
won dered</w>
star ing</w>
w ishes</w>
sub heading</w>
famili es</w>
zapo jení</w>
po li
dele ted</w>
znalo stí</w>
gh ty</w>
pol l
Per f
in ku</w>
bol í</w>
úvě rové</w>
jedin ým</w>
clo sing</w>
Rob in</w>
jud ges</w>
an ger</w>
ps a</w>
in sufficient</w>
Part nership</w>
ří š</w>
tal ent</w>
Č ty
saz ba</w>
ř id
Chan ge</w>
Ted a</w>
M ust</w>
D re
thous ands</w>
otev řel</w>
ran k</w>
To ho</w>
fac ed</w>
po li</w>
ocel i</w>
liqu id</w>
th es
diskrimin ace</w>
Co g
klu ka</w>
R ead</w>
čí te</w>
ob alu</w>
ea m</w>
s one</w>
le ads</w>
defin itive</w>
Lim ited</w>
tur y</w>
et ly</w>
wh enever</w>
ry bolov</w>
ád u</w>
začá tek</w>
prim arily</w>
neu ro
přá tel</w>
ac et
Evropsk ém</w>
jo y</w>
TA C</w>
ne ls</w>
F rid
čí sel</w>
sen át</w>
Ma ur
A spoň</w>
consist ing</w>
wor ding</w>
pr vek</w>
n ation</w>
Tal k</w>
protec tive</w>
cent rál
Reg ionální</w>
Det ective</w>
kop ie</w>
zach ovat</w>
sle pt</w>
é ně</w>
ví z
ci a</w>
Rov něž</w>
ran ce</w>
Dělá š</w>
obec ná</w>
rozman it
n ů
transf ers</w>
not ably</w>
nesrov nalo
go al</w>
vě r
rů be
H ez
hled ání</w>
nesmě jí</w>
Switzer land</w>
nap sal</w>
b orders</w>
A lan</w>
nut é</w>
řík ali</w>
gr and</w>
ni čemu</w>
repe aled</w>
roz ši
h rů
coun ter</w>
R á
ep i
E l</w>
po und</w>
labor atory</w>
In iti
up stairs</w>
um in
obdrž í</w>
win dows</w>
pre me</w>
určit ého</w>
in hal
posled ně</w>
fortun ately</w>
fol der</w>
An al
v ers</w>
S et</w>
TA B
B ased</w>
is i</w>
in ner</w>
aly sis</w>
K ry
uved e</w>
st ři
D G
Ú čast
dů klad
Fran cii</w>
let ting</w>
consul t</w>
ú lov
rov ná</w>
zákon y</w>
dop ádně</w>
con ce
29 .
ti er</w>
při z
Kou kni</w>
ři krát</w>
důležit ý</w>
EN STVÍ</w>
zá kazu</w>
pro ved</w>
br ala</w>
s ni
g au
Č LR</w>
přest ože</w>
ek v
ec tví</w>
ov iny</w>
Si x</w>
Mar ia</w>
N az
Fis her
sm et
Ste ph
konkrét ních</w>
I l
ly mp
ur ban</w>
B U
klí če</w>
účin kem</w>
tá h
as shole</w>
restruktur alizaci</w>
mul ti</w>
mlu víte</w>
Z pravod
stu peň</w>
prote in</w>
ne líbí</w>
tero rist
emplo yer</w>
Mad am</w>
Po slyš</w>
před nost</w>
c les</w>
com it
cli ents</w>
oc id
p hosp
milli ons</w>
fuck er</w>
r nutí</w>
fra me</w>
eri ff</w>
K re
div ok
vozid lo</w>
sta rost
pochyb nosti</w>
Ob sah</w>
rá ny</w>
W ay
znamen alo</w>
harmoniz aci</w>
y i</w>
ne záleží</w>
protec ting</w>
původ ně</w>
opat rně</w>
Od kaz</w>
S b</w>
zví ře</w>
premi ses</w>
ra kov
př ání</w>
ne dávno</w>
host itel
plan et
kysel iny</w>
ard a</w>
oh eň</w>
H T
smě ru</w>
Závě ry</w>
hor ní</w>
o str
G B</w>
end or
pok rok</w>
univer se</w>
znak ů</w>
Portugu ese</w>
G ir
shod ě</w>
re akci</w>
nej bliž
ow nership</w>
off ices</w>
Z el
rych losti</w>
Char ter</w>
úč ty</w>
yt í</w>
ká žeš</w>
Ad ditional</w>
lhů tu</w>
w a</w>
š ného</w>
kapit ál</w>
ol ly</w>
S í
si gh
od kazuje</w>
consider able</w>
inform acím</w>
c up</w>
kon solid
awar eness</w>
ag er</w>
pře vážně</w>
komuni ka
é ra</w>
war ri
přesta ň</w>
compul sory</w>
Vnit rostát
s dělí</w>
ick ness</w>
s dělen
e ties</w>
udá lostí</w>
nahra dit</w>
16 .
Absolut ely</w>
ná jem
mili ardy</w>
bo x
Profess or</w>
Sup port</w>
Ka ž
Němec ku</w>
w ound</w>
inc ess</w>
M en
th o
flow ers</w>
společ ná</w>
přemýš lel</w>
nech ám</w>
nav ždy</w>
tě hotenství</w>
informa čních</w>
pro pag
povin en</w>
přím ý</w>
blá zni
ang lič
Sta r</w>
ent i</w>
souvis í</w>
For m</w>
PR C</w>
mur dered</w>
úč elu</w>
pěk ný</w>
R on</w>
achiev ing</w>
Za čí
dlou hý</w>
( 6</w>
té ma</w>
ra ising</w>
Zobraz it</w>
laugh ed</w>
ok no</w>
D ro
urg ent</w>
inter view</w>
opust it</w>
Isl and</w>
vy cházející</w>
soudrž nost</w>
přijat á</w>
ex act</w>
envis aged</w>
i j</w>
pro kaz
lam p</w>
použ il</w>
c lo</w>
mul til
cre te</w>
ad es</w>
T RA
způsobil ost</w>
ně nými</w>
H R</w>
initi ation</w>
Ne chtěl</w>
pá n</w>
ko j
pr už
B I
ú mluv
sul ph
Č ast
t ka</w>
th an
speci ální</w>
Sk up
te lem</w>
vý stav
hou ses</w>
13 .
oper ační</w>
ná sledek</w>
z jednodu
port ing</w>
ol an
sw itch</w>
připrav it</w>
gen u
the ory</w>
gener ální</w>
přítel kyně</w>
s ila</w>
ú střední</w>
elig ibility</w>
Ir sko</w>
ň ů</w>
sess ment</w>
Pro ject</w>
klin ické</w>
vlá ken</w>
Zat racen
201 3/
0 1.xml</w>
ir regul
N P
Kter é</w>
SM E</w>
R O</w>
fil mu</w>
28 .
zákon íku</w>
pl enty</w>
ne viděla</w>
Cí l</w>
zjiště no</w>
papí rů</w>
kval itu</w>
zástup ců</w>
invest ors</w>
he ight</w>
Bel gie</w>
sí ti</w>
dě tem</w>
ukaz atele</w>
represent ing</w>
stri ke</w>
pro p
dokon čení</w>
2. 5</w>
klu bu</w>
dec k</w>
g on
extrem ely</w>
dec is
B ou
záležit ostí</w>
stát ním</w>
confir m</w>
lect ual</w>
dostan eš</w>
ně ném</w>
re se</w>
in ction</w>
tis ing</w>
mechanis mus</w>
in test
Sm all</w>
ně čeho</w>
ous ness</w>
gra b</w>
M IN
n ami</w>
Tak ová</w>
alternat ivní</w>
výsky tu</w>
vol by</w>
sw it
pust í</w>
Jud g
po sed
dob ro
P lan
la b</w>
cuk r</w>
dá rek</w>
co at</w>
Jed n
ban king</w>
zná t</w>
5 5
strateg ies</w>
ji st</w>
ič ního</w>
diab et
app ell
nedo šlo</w>
P řek
spo rts</w>
dě c
dvou stran
ab o
ne za
napě tí</w>
nepří pust
Vra ť</w>
M ot
ti ed</w>
mal o
evalu ated</w>
shar p</w>
monit ored</w>
úto k</w>
líb ilo</w>
cor rectly</w>
P age</w>
us u</w>
regist rov
nes ná
fin es</w>
ne stane</w>
ot is
opatřen ím</w>
zahájen ím</w>
ther ing</w>
sh op
vi e</w>
Ří dí
vysok á</w>
se mi</w>
ad mitted</w>
fu cked</w>
akci í</w>
zk rá
požadav kům</w>
Slu ž
vo le</w>
aplik aci</w>
tě s
poplat ek</w>
Gi b
výsled ku</w>
G reg
A M</w>
krás né</w>
doub ts</w>
N ations</w>
ě ný</w>
_ 200
Ma jesty</w>
p tal</w>
G la
ob al
col our</w>
zapo jen
Výsled ky</w>
po cházejících</w>
can cel
T ím
G ent
spe ech</w>
G ary</w>
hol č
SPOLEČ ENSTVÍ</w>
Tur key</w>
Po skyt
Cro at
ne zd
obrá til</w>
198 8</w>
su ch
li p</w>
přísluš nému</w>
ho c</w>
Sa int</w>
S pr
wat er
oček ávání</w>
K as
Fran couz
kli mat
P ardon</w>
pěk né</w>
set tle</w>
big gest</w>
polit ických</w>
br ali</w>
li ation</w>
mlad ých</w>
C lu
oz val</w>
č nost</w>
ex press</w>
mot oru</w>
fou ght</w>
Nej spíš</w>
par as</w>
E asy</w>
man n</w>
or vat
ob stac
Gu ys</w>
Gre en
F am
sad a</w>
Tom u</w>
c ake</w>
S est
shi ft</w>
friend ly</w>
strá nek</w>
sledu je</w>
Car ter</w>
vý hra
pop san
sna žit</w>
infek ce</w>
r ich
zvý hod
cop ies</w>
Za jím
přid at</w>
nau čil</w>
at e
způsob ené</w>
ex posed</w>
suppli er</w>
nej lépe</w>
projednáv aném</w>
předchoz ího</w>
s lov</w>
mil ovat</w>
dotčen á</w>
zab av
fa ir
ú tě
půj deš</w>
judg ments</w>
land ing</w>
4 14</w>
z te</w>
lit az
pomá há</w>
9 6/
ry b</w>
V em</w>
dan ou</w>
C T
lon g
z lé</w>
a ří</w>
veřej ný</w>
u jednání</w>
úprav ě</w>
as pe
u čení</w>
dis charge</w>
L ze</w>
vžd yť</w>
ton gue</w>
účast níci</w>
cen á</w>
re presents</w>
mlad ší</w>
ně nou</w>
spolu pracovat</w>
house hold</w>
si um</w>
A bych</w>
tre as
nech těla</w>
s rač
sil ver</w>
chy til</w>
fle sh</w>
zran ění</w>
vot es</w>
rid iculous</w>
pok les
stanov i
děv če</w>
d eri
tvá ří</w>
m ému</w>
log y</w>
a o</w>
Vě ř</w>
IN FOR
Hy per
zákon odár
á ž</w>
nábo žen
papí ru</w>
přich ází</w>
po kus</w>
vy jednáv
obdrž ela</w>
Ev alu
čen i</w>
roz hraní</w>
innov ative</w>
4 50</w>
N u
1 14</w>
r ence</w>
ed on
8 ,
Z trat
i red</w>
zásad ami</w>
B aby</w>
zab ila</w>
služ bě</w>
Ukra ine</w>
dis missed</w>
na jdeme</w>
uni que</w>
la unch</w>
for th</w>
Z e
zas í
Vý daje</w>
tab lety</w>
glan ced</w>
- year</w>
M and
t rop
přeprav u</w>
na uč
Pol it
relat es</w>
sklad ování</w>
koneč ného</w>
před e</w>
r ity</w>
ul ice</w>
inf usion</w>
zbý vající</w>
iz ation</w>
analý za</w>
boj ov
R ic
Ju lie</w>
přím ých</w>
be j</w>
v ale</w>
Descri ption</w>
bro wn</w>
ho p</w>
e- ma
m ous</w>
V .</w>
Le o</w>
živ oty</w>
nic ích</w>
ně čem</w>
s ab
o la
Vý še</w>
patter n</w>
nic ky</w>
M un
jak ých</w>
kombin ace</w>
ekv ival
P ret
is mus</w>
B R
comple ment
kt or</w>
Fi re</w>
mom ent
Wor king</w>
s p</w>
b id</w>
L and</w>
ah ující</w>
author isations</w>
p up
zem řela</w>
jun ction</w>
vš ím</w>
the art</w>
za řízením</w>
oček ává</w>
st u</w>
přij ato</w>
k ins</w>
re placement</w>
začlen ění</w>
respon d
el les</w>
U chov
me š</w>
-- --
ex cited</w>
bur ned</w>
9 0/
obchod ním</w>
dom ov</w>
M ama</w>
re source</w>
ne h
g ins</w>
K ri
al ty</w>
přísluš níky</w>
don u
L es
těž ký</w>
tru m</w>
CY P
skr z</w>
brea thing</w>
M už</w>
bur ning</w>
stej ném</w>
s und
kaž do
Administrat ive</w>
continu ation</w>
ic ate</w>
E ric</w>
fri gh
rozto ku</w>
an c
od stra
u zná
exper tise</w>
adjust ments</w>
vlast ností</w>
G ord
difficul ty</w>
vztah ovat</w>
bag s</w>
D R
zůst ala</w>
d růbe
comp u
E E
ch ment</w>
vy pracování</w>
he av
4 3
podmín kami</w>
vti p</w>
Mar ty</w>
sugg ested</w>
com bat</w>
prez ident</w>
U .
tr ick</w>
re served</w>
conver sion</w>
ativ ních</w>
vy cházet</w>
vešker ých</w>
iz aci</w>
ná sil
po ul
ne be</w>
káz al</w>
vyžad ovat</w>
komuni kační</w>
s la</w>
s odium</w>
H ot
F IN
rid ing</w>
car b
h ung</w>
d addy</w>
ú mrt
prior it
In f
plá nů</w>
absol ute</w>
Con stitution</w>
ol ení</w>
potravin y</w>
aktu ální</w>
an ými</w>
inspec tions</w>
mod els</w>
pla in</w>
vis a</w>
buně k</w>
dotčen y</w>
d nu</w>
at en</w>
Exec utive</w>
Ch lo
slož ek</w>
ch ir
0 7
Secret ary</w>
nak ed</w>
Ú č
ad ers</w>
D eb
restaur ant</w>
stru ck</w>
aktiv ity</w>
od va
enc oun
dokt ora</w>
použ ita</w>
od í
Vnitrostát ní</w>
Rozpočt ový</w>
zis ku</w>
ch ron
administrat or</w>
zvá žit</w>
obyv atel</w>
trest ního</w>
s ne
c ities</w>
zv on
výživ ného</w>
šen ou</w>
instal l
y o</w>
corpor ate</w>
kre vní</w>
De an</w>
skvě lá</w>
dom ně
zpravod aj
hor rible</w>
on going</w>
u vá
připad á</w>
S mi
nam í
apolog ize</w>
Ted y</w>
Ad res
vyš šího</w>
k t</w>
sho ck</w>
doplň kové</w>
C lick</w>
wi re</w>
bri ef
tr en
rap id</w>
ak ční</w>
ž ily</w>
al ert</w>
m eme</w>
rela x</w>
M ech
kó du</w>
reach ing</w>
dit ion</w>
ES MA</w>
U m
me ters</w>
RO M</w>
D utch</w>
wel fare</w>
kontak t</w>
ac co</w>
th care</w>
sp al</w>
Roz sudek</w>
dí l</w>
sm el
An ton
zá sa
Ser geant</w>
pursu ed</w>
Bě žte</w>
á ci</w>
Jap an</w>
candid ates</w>
poskytnut y</w>
M .</w>
enc ing</w>
convinc ed</w>
dim ension</w>
Eur o</w>
ř u</w>
tř emi</w>
mě ří
ro ut
o ku</w>
rou gh
po měrně</w>
mlá de
in compatible</w>
dis gu
dem okrat
ád í</w>
ne l
do v</w>
id ents</w>
Ob ávám</w>
děku ju</w>
účast ní</w>
zabi ju</w>
enh ance</w>
o šk
společ nou</w>
roz vin
každ ým</w>
zam í
Dě ti</w>
uveden ému</w>
sp án
ně čím</w>
ation ’</w>
pr ý</w>
squ e
vel ko
Con gratulations</w>
but ter</w>
ší me</w>
zkouš ek</w>
O m
vypad alo</w>
vál ka</w>
vz kaz</w>
vzore k</w>
u stá
spor né</w>
občan sko
mo č
Per son
pi g</w>
úč tů</w>
nar u
přev od</w>
čen ou</w>
az uje</w>
sol ve</w>
jednot ného</w>
tek ut
aspek ty</w>
bav it</w>
I G
čaro děj
prozatím ní</w>
pot kal</w>
atel ný</w>
fo s
serv ants</w>
proporcion ality</w>
audi ov
Tak ový</w>
pří jem</w>
div ný</w>
nadě je</w>
im i</w>
agg reg
á ni
M R
H un
zalo žena</w>
wa ve</w>
vel kým</w>
mezinárod ním</w>
st am
pla z
ch at
N ové</w>
spec tive</w>
sly ším</w>
ne pat
j ou</w>
Lo s</w>
star ších</w>
S qu
ča sem</w>
o terap
iv ed</w>
trval o</w>
Br zy</w>
continu ous</w>
ic emi</w>
con vic
ou red</w>
Slyš ela</w>
s now</w>
requ iring</w>
je sky
o sud</w>
ř te</w>
B eth</w>
Jack ie</w>
fam ous</w>
Eston ia</w>
le ments</w>
ph a</w>
speci fication</w>
sp p</w>
aut y</w>
dokáz at</w>
kom er
n ických</w>
před nost
cre ature</w>
pří stavu</w>
acces sible</w>
mar itime</w>
Phar mac
D ur
recogni ze</w>
Pou žití</w>
S om
zamít nutí</w>
výlu čně</w>
cen ných</w>
vylou čit</w>
doz en</w>
br ings</w>
7 2
f ické</w>
enter prise</w>
prin ts</w>
1/ EC</w>
po n</w>
uvědom í</w>
síd lo</w>
tě sně</w>
sy nu</w>
oh lá
where by</w>
u vidí</w>
il ly</w>
ist é</w>
W ar</w>
PO R
intel ligence</w>
nut ná</w>
mě k
hlav ního</w>
po u</w>
- 1</w>
uch y</w>
Z de</w>
pří kazu</w>
od rá
Euro stat</w>
m id</w>
renew able</w>
H aw
zá da</w>
sto len</w>
pau š
zalo žené</w>
ul ární</w>
spl nit</w>
b und
ab ling</w>
navig ation</w>
postav it</w>
hezk ý</w>
e si</w>
cel kovou</w>
arbit ration</w>
C i
zá ch
prav ed
fal se</w>
p ení</w>
chick en</w>
iv ním</w>
Langu age</w>
ob taining</w>
odmít nout</w>
odpo věděla</w>
předk ládání</w>
F el
po hlaví</w>
ar ů</w>
kalend ář
stoup il</w>
volun te
označ ování</w>
ow s</w>
Fon du</w>
új mu</w>
ov í</w>
T el</w>
I K
separ ately</w>
i ry</w>
Pacient i</w>
con crete</w>
ak cion
zou fal
h ill</w>
r ny</w>
a čním</w>
vy hotov
pohledáv ek</w>
tá mhle</w>
st vu</w>
slou žit</w>
sk la</w>
Přísluš né</w>
Řec ko</w>
ě na</w>
hi bit</w>
c ation</w>
af t</w>
nabí zí</w>
ris h</w>
P y
p ure</w>
ó zy</w>
ra cení</w>
H ad</w>
C ru
ne možné</w>
ode šla</w>
Youn g</w>
record ing</w>
cen ím</w>
O '
paral lel</w>
rozu mění</w>
b list
A ye</w>
a p</w>
4 2
flow s</w>
skon čení</w>
Pracov ní</w>
Stand ard</w>
Pr ince</w>
vy cház
c tional</w>
š ce</w>
úžas ný</w>
ne pod
hel ps</w>
Ú mlu
vysí la
Nem á</w>
určit á</w>
i et</w>
k rad
L aw
U B
zmí r
con ference</w>
sect oral</w>
muse lo</w>
bo ku</w>
1 30</w>
ote l</w>
výhod u</w>
po vrch
Car l</w>
z l</w>
áv áš</w>
ár ním</w>
v on
Fran ku</w>
thi rty</w>
podrob nosti</w>
illi ant</w>
ici a</w>
mil áčku</w>
B rat
kou le</w>
t age</w>
ak ed</w>
vý zv
m koli</w>
M eg
be ze</w>
tru b
nalé zt</w>
le jí</w>
pro zkou
mlé ko</w>
Objec tive</w>
pot řeb</w>
Er ror</w>
S ab
employ ee</w>
dec lare</w>
psych iat
pos se
kapit ola</w>
zd ar</w>
serv ations</w>
rail way</w>
radi l</w>
E du
Bo y</w>
žád oucí</w>
Y o</w>
kou zel
ti ště
hajz lu</w>
běž ných</w>
ř ské</w>
přeprav y</w>
M s.</w>
G over
lov á</w>
vyj ad
proces ní</w>
ic ity</w>
Ne budu</w>
úda jně</w>
H ead</w>
k ne</w>
complic ated</w>
Všech na</w>
alleg ing</w>
pacient y</w>
nech tě
d ed
lon il</w>
ublí žit</w>
An imal</w>
Sna žím</w>
there in</w>
har m
cir cle</w>
ER S</w>
ar ise</w>
6 (1</w>
respec ted</w>
zan ech
un ion</w>
Kore a</w>
vy poč
fore seen</w>
coun ting</w>
do káž
sen z
organiz acemi</w>
zh ruba</w>
prepar ing</w>
k říd
perfek tní</w>
h ř
appar ently</w>
As sessment</w>
K lu
f itted</w>
zna čky</w>
ply n
dvac át
nerv ózní</w>
olan zap
h ob
b ill</w>
Prin ci
ex it</w>
carri ers</w>
Pře sto</w>
resist ance</w>
ff y</w>
mar king</w>
kod ex
obec ný</w>
mag net
nur se</w>
kilomet rů</w>
appell ant</w>
schop ni</w>
explan ation</w>
Sund ay</w>
P ět</w>
un lawful</w>
vyjád řit</w>
install ations</w>
exerc ised</w>
be ach</w>
I ‑
stanov en</w>
Y u
K in
pří šer
mon ster</w>
min er
jí ždě
otev ření</w>
dri ven</w>
papí r</w>
ef t</w>
výsled kem</w>
závěr ky</w>
vztah ující</w>
Od kazy</w>
stav it</w>
směr nic</w>
těhot ná</w>
H otel</w>
kol á
liv ých</w>
přij at</w>
in hib
reg im
b ách</w>
un cle</w>
Ch la
tra ined</w>
tend ers</w>
Tu rec
fif th</w>
ar ities</w>
sp are</w>
ob lé
mat a</w>
8 9/
no w
poj ďte</w>
uzav řené</w>
hlou b
léčiv ý</w>
představ ovat</w>
souhlas il</w>
ba se
vypad áš</w>
exist ovat</w>
do předu</w>
ther ap
šé f
schedu led</w>
as surance</w>
A A</w>
ov ina</w>
před pisech</w>
fig ur
lád al</w>
independ ence</w>
Zav ol
ne slyšel</w>
B C</w>
ne d
poskyt ované</w>
dél ce</w>
tic ho</w>
Roz počet</w>
soldi er</w>
proved eno</w>
hlíž et</w>
a ys</w>
problé mu</w>
po volit</w>
D é
B lue</w>
vytá hl</w>
ná stup
Podmí nky</w>
An ne</w>
zatí žení</w>
niz ozem
fu els</w>
opust il</w>
’ ve</w>
represent ation</w>
announ ced</w>
Požad avky</w>
jist oty</w>
ry ho</w>
vy prac
povol eno</w>
ph y
Ob rá
propo jení</w>
obliče je</w>
přizpůsob ení</w>
výz vy</w>
jíd la</w>
vý borem</w>
Fisher ies</w>
počíta či</w>
le y
jo intly</w>
da ří</w>
Do wn</w>
u hra
tě le</w>
n aby
D ow
jí žd
remov al</w>
9 5/
ru m
ná roky</w>
st aly</w>
mechanis mu</w>
itel nost</w>
form ing</w>
ár ního</w>
slu ne
mand ate</w>
ord s</w>
dů chodu</w>
Vel ké</w>
poř adí</w>
T op
slož it
ot ci</w>
tu šení</w>
1 15
ter ri
t ility</w>
sv ý</w>
mě te</w>
P od</w>
IC E</w>
suppli ers</w>
přemýš let</w>
th ick</w>
G rat
G M
Ne byla</w>
ac tors</w>
Dělá m</w>
vy brá
vhod ných</w>
nim ž</w>
b ask
aff airs</w>
V í</w>
dodáv ek</w>
ra m</w>
kl áv
nespráv ného</w>
Práv o</w>
čast ěji</w>
vz bud
pro d
Re ž
in ti
otáz kách</w>
gre en
7 ,
zá pis</w>
fal len</w>
roz dělen
cham ber</w>
přijí ma
přest al</w>
D .
společ nostmi</w>
harmon isation</w>
dohod ou</w>
sou stavy</w>
b rit
Is ra
bul lshit</w>
bod em</w>
názv em</w>
27 .
překáž ky</w>
et ím</w>
ře k</w>
Á L
bur ied</w>
kon fer
dá te</w>
Spojen ého</w>
zd í
pro v
cet ax
AL E</w>
ptá ků</w>
každ ému</w>
glob ální</w>
br a</w>
pro mp
lar gest</w>
podni kem</w>
1 11</w>
č est</w>
chloro thiaz
čet l</w>
vyplý vají</w>
Jack son</w>
9 ,
N ever
pre fer</w>
13 /
kon figu
ck er</w>
Vá no
ved lej
region ech</w>
prů vod
transm itted</w>
dostat ek</w>
M ou
zřej mé</w>
bu cks</w>
T á
consul tations</w>
Euro pol</w>
colle ct</w>
li ft</w>
laun ched</w>
Po lish</w>
identi fik
le se</w>
formul áře</w>
trans fer
ka fe</w>
k li</w>
eng ines</w>
O znám
haw k</w>
práv nické</w>
smo oth</w>
calcul ating</w>
trans it</w>
na jící</w>
mon etary</w>
bi ocid
stanovis kem</w>
H ay
Bu il
nů ž</w>
re formy</w>
ch ers</w>
obč any</w>
ohro ž
li ly</w>
te es</w>
proved la</w>
pro z
S R</w>
1. 5</w>
ep id
crow d</w>
cel ního</w>
aw esome</w>
b ones</w>
f ting</w>
condit ion
estim ate</w>
Evalu ation</w>
direct ed</w>
ch i</w>
ro c
cor rection</w>
t var</w>
pros inci</w>
h ách</w>
cent res</w>
Con sul
relat ively</w>
Frid ay</w>
Dod at
A si
institucion ální</w>
Morg an</w>
y ar
tr én
monit orov
t ká
řed itele</w>
techn ickou</w>
osob ami</w>
kab el
Al li
ěj ších</w>
competit ors</w>
Mat t</w>
stan tly</w>
sof t
horizon tal</w>
c rying</w>
adver tising</w>
předlož ily</w>
kr ut
main taining</w>
c ried</w>
k lat
stej ných</w>
át ka</w>
navrh ované</w>
b led
Ch uck</w>
rec over</w>
T ome</w>
kon tra
cor rid
br o</w>
b is
ot rav
dotyč ného</w>
správ ný</w>
in fu
stan eme</w>
o o</w>
fac ing</w>
cor rect
spolu financování</w>
záru k</w>
In don
vědec ké</w>
ot cem</w>
od h
it ability</w>
použitel nosti</w>
člen em</w>
ig ns</w>
Fore ign</w>
pro fil
provádě cího</w>
H ear
hvě z
com posed</w>
Dok on
B ir
om a</w>
jak ém</w>
lid ského</w>
vyz ved
písem né</w>
n ická</w>
nějak ým</w>
h as
účin ně</w>
má la</w>
Kontro lní</w>
tra p
stří ka
kr k</w>
jin ému</w>
Roz hodně</w>
provoz ních</w>
oh roz
poně kud</w>
opatřen ími</w>
t ap
st en
govern ments</w>
pří zniv
vykon ává</w>
Ak tu
2. 4</w>
zá sob</w>
u rou</w>
att or
B .
bor ro
Uchov ávejte</w>
Ž ad
nepří zniv
na jde</w>
continu es</w>
Cor por
Con clus
stre ets</w>
omez ena</w>
bel t</w>
Kare n</w>
S ud
poskyt la</w>
cir culation</w>
r ude</w>
er ever</w>
ea p</w>
bu z
M en</w>
Good bye</w>
žen ý
t ické</w>
ne přij
k něte</w>
discus sion</w>
29 6</w>
střed iska</w>
2 20
lask avost</w>
seas on</w>
IT Y</w>
znam ení</w>
Jak ou</w>
p it</w>
kval it
at in
3 35</w>
hepat ic</w>
T ob
Regist ry</w>
člově če</w>
služb ách</w>
ok ie</w>
gi ant</w>
stre ss</w>
plat ebních</w>
Ná stroj</w>
S ní
A O</w>
Š é
dře va</w>
pří ru
prů mysl</w>
Satur day</w>
V íc</w>
9 6
fal eš
rov nání</w>
dro ve</w>
ab use</w>
význam u</w>
vz adu</w>
chil d
proved ené</w>
věří š</w>
zá dy</w>
náv az
dro gy</w>
neut r
W ater</w>
mí ň</w>
připrav eni</w>
vě j
stav í</w>
wo ods</w>
mil é</w>
em bry
asse ssm
Mor ning</w>
s ny</w>
nízk é</w>
Dá my</w>
id la</w>
pomá hat</w>
S mí
Ac cession</w>
C lose</w>
us mí
de st</w>
Environ ment</w>
du ch</w>
bran ch</w>
charac ter
ut é
F ig
S G
klob ou
cle aning</w>
z vy
on em</w>
um ul
17 .
do pady</w>
Gab ri
p ni</w>
bankov ní</w>
sc ar
part nery</w>
nedostat ek</w>
adop ting</w>
ho re
záznam ů</w>
tr end</w>
re ds</w>
ov acím</w>
ú ni
it i</w>
obtí ž
chlap ce</w>
a hoj</w>
pří ště</w>
písm eno</w>
hran ici</w>
tan e
legislat ivní</w>
ea fter</w>
Fi f
coun ts</w>
off ering</w>
Po sa
V I
Al right</w>
typ ů</w>
trans ition</w>
b ell</w>
Belg ian</w>
ne ver
Sur ve
smrt el
poskytnut ých</w>
bla ck
Th er
AC T</w>
č ování</w>
13 8</w>
conf usion</w>
chy bě</w>
sy ring
pá t
ply n</w>
mer ger</w>
va rování</w>
dialo gu</w>
vymá hání</w>
publi sh</w>
person ally</w>
seek s</w>
D ub
odpoví dat</w>
zmoc ně
J ones</w>
zahrnut y</w>
jednodu še</w>
Nic ole</w>
est ly</w>
cir cu
za úto
s ma
ag a</w>
in ations</w>
má lem</w>
výrob a</w>
wi z
tab les</w>
Lad ies</w>
Moh ou</w>
ří me</w>
vyš ším</w>
podob ných</w>
struktur ální</w>
cro ssed</w>
iv á</w>
K B</w>
ec í</w>
appar atus</w>
v et
pos session</w>
situ ated</w>
kaz ů</w>
r ali</w>
win ter</w>
vi al</w>
pozn at
p d
S ally</w>
srd ci</w>
in serted</w>
zajiště no</w>
st em</w>
C B</w>
tex til
Ne ither</w>
part ly</w>
al erg
mil ý</w>
jaké hokoli</w>
Ob last</w>
form átu</w>
Univer sity</w>
D ex
hel lo</w>
Parla mentu</w>
b rad
b ling</w>
ch ý
ry by</w>
rap idly</w>
pl ná</w>
dne ss</w>
Re qui
preced ing</w>
Jmen uje</w>
tá ch</w>
dě dic
blí ží</w>
nat olik</w>
expres sly</w>
libr ary</w>
ple ased</w>
mov able</w>
čaro u</w>
co se</w>
dveř mi</w>
přijí má</w>
Div ision</w>
A 1:
konkurenceschop nosti</w>
bet a</w>
předk láda
nos ů</w>
ut sch
fot ky</w>
Mag gie</w>
po blíž</w>
ně t</w>
at er
ton u</w>
sensit ivity</w>
ch lu
regard less</w>
kvó t</w>
ist y</w>
5 3
náro ků</w>
method ology</w>
ad it</w>
žen ská</w>
th at
stá la</w>
kancel ář</w>
ent ru
ox ide</w>
ur ally</w>
oddí le</w>
ex cess</w>
ře ky</w>
alkohol u</w>
Ko ho</w>
pí t</w>
pursu e</w>
St u
řen ého</w>
kol o</w>
u čit</w>
H ra
inter val</w>
á dek</w>
účin nou</w>
zlo čin
Z kus</w>
přijí mají</w>
gener álního</w>
Fi gu
T Y</w>
vů le</w>
virt ue</w>
adap ted</w>
Po š
tu al</w>
vít r</w>
Prav děpodob
p ál
půj čky</w>
pamat uju</w>
se ats</w>
mal ým</w>
asy lum</w>
U M</w>
consist ency</w>
advant ages</w>
výro ční</w>
tr vale</w>
penal ty</w>
stan ici</w>
len á</w>
lev er</w>
jakých koli</w>
tick et</w>
pracov níci</w>
inc ident</w>
EN ER
prav ý</w>
D S
B ene</w>
An drew</w>
bu dov</w>
roz h</w>
gal lery</w>
con junction</w>
cest ovní</w>
úř ady</w>
cel ku</w>
za stupo
sna žila</w>
Ná sledu
R andy</w>
zru šuje</w>
i ler</w>
Ok am
ni us</w>
Ač koli</w>
indic ating</w>
ti k</w>
před ní</w>
H elen</w>
C lin
A B</w>
vzdálen osti</w>
přezkou mat</w>
ach es</w>
Má ma</w>
trval é</w>
pr ád
I ran</w>
EC D</w>
rů ž
Ad mi
roz lou
j uris
na jdete</w>
veřej nost</w>
posled ním</w>
Im port
be auty</w>
el ing</w>
jmen ov
st ones</w>
bí lý</w>
daň ových</w>
stup né</w>
ú střed
zen y</w>
el se
zajím avé</w>
dokáz ala</w>
dosa h</w>
len ý</w>
mal ého</w>
stup ni</w>
Ca ses</w>
hypo gly
tex tile</w>
accep tance</w>
z ří
cen ě</w>
telefon ní</w>
pokus il</w>
k aly</w>
PR ÁV
uplat ní</w>
baili ff</w>
f ate</w>
Recommend ation</w>
Ne chceš</w>
vznik lé</w>
tz v</w>
tu ne
potenci ální</w>
C D
pís ni
f t
O všem</w>
závě re
vyh nout</w>
di stra
fol ks</w>
dem okra
civ il
s ors</w>
p at</w>
zohled nění</w>
roz vod</w>
13 1</w>
Portugal sko</w>
fe st</w>
ec ké</w>
B ond</w>
suff ering</w>
sex uální</w>
In spec
ca sting</w>
sel ine</w>
smě si</w>
ne existují</w>
národ ního</w>
ca res</w>
dec entr
app ing</w>
laugh ing</w>
ov en</w>
Mol ly</w>
Ne bude</w>
m ly</w>
hod ila</w>
equip ped</w>
Pro voz
proje ktech</w>
preci ous</w>
A gain</w>
jim iž</w>
ho koliv</w>
belon gs</w>
Vě děla</w>
zvyš ování</w>
člensk ému</w>
invol ves</w>
Je ff
odstav cem</w>
Ch orvat
škod a</w>
nap lá
Jap anese</w>
C Í</w>
target ed</w>
ge les</w>
A ven
naz ý
doprav ě</w>
staro st</w>
1 17</w>
promi ň</w>
Monit oring</w>
12 3</w>
conne ct</w>
IF RS</w>
bi od
dist inction</w>
mlad á</w>
vyk ři
Skvě lé</w>
požadav ku</w>
im pul
Tím to</w>
T ent
h ed
S eb
Lis a</w>
příprav ě</w>
oček ávat</w>
f ea
bu ying</w>
přiz nání</w>
b il</w>
1. 4</w>
vi ation</w>
Tom orrow</w>
web cam</w>
fund ed</w>
Cel ková</w>
A F
A h
zeměpis né</w>
gener ated</w>
 s</w>
Reg ul
č ily</w>
ad vis
enti c</w>
man e</w>
let é</w>
účet ních</w>
sen ior</w>
201 2/
ni ghts</w>
hlu pá
7/ 2009</w>
M ess
před áv
f ed</w>
ent re
A cts</w>
12 /
získ aných</w>
připrav ený</w>
M M
Jed no
au to
Základ ní</w>
Sta čí</w>
t our
ra ční</w>
lá sky</w>
H it
an ony
O Z
al e
ř ou</w>
následu jícího</w>
K ap
Cog nos</w>
použ it</w>
potravin ář
O ECD</w>
recipi ent</w>
pla yer</w>
ov ně</w>
nabí dek</w>
con servation</w>
ž ilo</w>
star at</w>
dom ain</w>
nabí z
nor áz
discus sed</w>
nut y</w>
Judg ment</w>
du chu</w>
kol on
event ually</w>
enfor ce
Croat ia</w>
leh ce</w>
pla y
hran ic</w>
průměr né</w>
consci ous</w>
k ob
Mech an
lif ted</w>
k ing
letec tví</w>
gra ve</w>
profess ion
Pre z
zahrn ující</w>
In te
Wil liam
vo ices</w>
Po w
pou ští</w>
mé di
dep end</w>
4. 6</w>
plo chy</w>
Vě řím</w>
bur y</w>
En try</w>
z lý</w>
ang l
with drawn</w>
se iz
lid ská</w>
ak a</w>
Sw iss</w>
um s</w>
s --</w>
Pret ty</w>
t ank</w>
questionna ire</w>
hotov osti</w>
u gly</w>
intel lectual</w>
pl ném</w>
sty ku</w>
ac commod
obě hu</w>
úspěš ně</w>
nou z
ut ors</w>
z né</w>
pří rodní</w>
doprav ce</w>
citiz en</w>
moder n</w>
la c
cest ující</w>
cau ses</w>
Stran y</w>
vulner able</w>
hodnot it</w>
b lan
shad ow</w>
IN G
Spo lu
ran ean</w>
předlo žena</w>
eg o</w>
H aro
ztrá ta</w>
g ang</w>
po každé</w>
lea ther</w>
sp ap
požád ala</w>
m ol
W rit
zabý vat</w>
cou sin</w>
bar v
podpo rov
u k</w>
EVROPSK É</w>
degre es</w>
in valid</w>
Seri ously</w>
7 3
prode jní</w>
plat form</w>
vod ách</w>
cyk lu</w>
bul let</w>
ma st
Wor k</w>
l is</w>
s me
hla sy</w>
Never theless</w>
vol ném</w>
b its</w>
Se an</w>
w rap
in tra</w>
foot note</w>
Any one</w>
N ÁV
re forms</w>
S end</w>
proble mat
al ter
dodrž ovat</w>
av ed</w>
S práva</w>
reput ation</w>
jev o</w>
zd vi
z es</w>
va ším</w>
předk ládá</w>
assessm ents</w>
S cho
g or
doz oru</w>
l ds</w>
anglič t
bě r</w>
techni ques</w>
podpo rou</w>
krvá cení</w>
Z dá
V sadím</w>
pra sat</w>
poj ďme</w>
declar ations</w>
ze ň</w>
p se</w>
pra z
C M
Důležit é</w>
.ht m</w>
re ar</w>
dobr ého</w>
slož ku</w>
pa int</w>
detec ted</w>
inte grace</w>
fa ils</w>
par tially</w>
těž ko</w>
pamat uješ</w>
min us</w>
influ en
Indi an</w>
za stoupení</w>
regist ry</w>
Ú čin
C ít
střed ně
re pair</w>
po ver
kne es</w>
áh la</w>
zá pas
sym bol
Mysl í</w>
uveden ím</w>
obtí žné</w>
ir o</w>
úrov ní</w>
Chlo e</w>
K A
pre am
Jord an</w>
nut ně</w>
qui etly</w>
integ rity</w>
G or
poznám ka</w>
ch ose</w>
át ory</w>
z řet
Veg as</w>
vykon áv
e rou</w>
Gu ess</w>
u te
cap su
polit ice</w>
zkuš eb
podrob né</w>
ne při
L ic
s and</w>
ST AN
hab it
acc ess
náhra d</w>
expen sive</w>
nedostat ky</w>
S ky
chem ické</w>
ukáz alo</w>
sustain ability</w>
Bla ck
kon stru
vít á</w>
ro bot</w>
addres see</w>
ek s</w>
op i
předse dy</w>
sekret ari
pošt ou</w>
ber u</w>
hled al</w>
dlou há</w>
Cou rts</w>
přes né</w>
h ru
řad í</w>
Qu in
ovan ě</w>
po zastavení</w>
abo ard</w>
Chy ba</w>
jedin ého</w>
g ods</w>
Con tin
vlá dní</w>
mi ra
Před stav
re viewed</w>
ou ter</w>
rizi ku</w>
ra ket
pracov ním</w>
špat ného</w>
n iny</w>
milion y</w>
teplo tě</w>
Su preme</w>
an a
á že</w>
kombin ované</w>
j ab
f ér</w>
jí te</w>
subsid y</w>
úto ku</w>
Z ep
Boh u</w>
kní ž
vlád ou</w>
prů hled
pova ze</w>
pod ané</w>
ne platné</w>
J Í
Z náš</w>
safegu ard</w>
é v
who a</w>
S led
chla pí
pl nit</w>
ch ů</w>
Th ings</w>
Pri v
re vid
od pad</w>
vyváže jící</w>
argu ed</w>
b ia</w>
Under taking</w>
en em
certi fied</w>
op er</w>
IC ES</w>
0 8
2 30</w>
10 4
com ment</w>
ře či</w>
potenci ál</w>
infring ements</w>
hol dings</w>
AK T</w>
youn ger</w>
vol á</w>
su icide</w>
ins ane</w>
institu cemi</w>
minim álně</w>
ě hov
s vá
offici ally</w>
sta rej</w>
ne moci</w>
all erg
1 13</w>
sh ru
gla sses</w>
K ill</w>
sest ry</w>
D im
ric t</w>
no hu</w>
do or
byd lí</w>
tra p</w>
mil oval</w>
kamar ád</w>
tion ally</w>
man ip
roz hov
Od chyl
ni kam</w>
t kem</w>
zav ádí</w>
in spi
E d</w>
p in</w>
hou sing</w>
Na šli</w>
druh ým</w>
EVROPSK ÝCH</w>
li fe
How ard</w>
CP C</w>
sp ěl</w>
parla ment
Pol iti
udě lej</w>
ná h
e poet
ste ady</w>
jednod ušení</w>
Vz al</w>
od en
Pap er</w>
vo j</w>
spo ken</w>
úsmě v</w>
Ken ne
tý kat</w>
důležit á</w>
producent ů</w>
hn us
agent ur</w>
d ete</w>
G Ř</w>
F ou
advok áta</w>
z vo
pus u</w>
In tel
other apy</w>
An ti
zav rt
Dov ol
s ň
leg ální</w>
u tili
repe aling</w>
průmysl ové</w>
as u</w>
roz va
Inst ead</w>
men tem</w>
manžel é</w>
zem ře</w>
ak ia</w>
exist ující</w>
B S</w>
chod ní</w>
Pů jdu</w>
star ých</w>
histor ii</w>
H av
198 7</w>
ukáz ala</w>
líb il</w>
ne mohli</w>
u viděl</w>
ne říkej</w>
Poh y
jedn omu</w>
po chází</w>
op ač
znám é</w>
Aud itors</w>
rozpočt ového</w>
m mol</w>
ener ge
as sa
Zem ě
š ar
ná po
p hoto</w>
en abling</w>
sí ť
Nemoh u</w>
K er
ris ing</w>
ramen y</w>
9 00</w>
ol ing</w>
du ší</w>
pus ť</w>
kategor ii</w>
our se</w>
bá je
Pro boha</w>
Com ple
poč tem</w>
og litaz
fre ez
veteriná rní</w>
lé k</w>
V íme</w>
poč as
Z ejména</w>
ta il
met odi
agre es</w>
ig nor
B av
profes sion</w>
mě nit</w>
hov no</w>
o th
přid ané</w>
refle cted</w>
car go</w>
z ing</w>
dom ici
vě ř</w>
roz hovor</w>
střed u</w>
lamp s</w>
ist er</w>
im mun
dovoz ních</w>
J .</w>
occur s</w>
Defin ice</w>
o škol
muž em</w>
tr é
de fe
continu ing</w>
En ough</w>
ici ans</w>
rn ým</w>
r in</w>
off ence</w>
urč uje</w>
food stuffs</w>
So lid
předmě t
Pravid la</w>
základ ním</w>
Produ ct</w>
N er
B Y</w>
tv aru</w>
zne výhod
ukaz ují</w>
op tim
cla sses</w>
léka ři</w>
z ima</w>
Le w
cut s</w>
91/ 4
P V
le st</w>
vykon av
H il
svob odu</w>
sav ings</w>
inv ite</w>
Th ur
v ou
exclus ion</w>
c rop
ukon čit</w>
ar rested</w>
Coun try</w>
Inform ujte</w>
rych lé</w>
dluž ník</w>
progra mov
pre tend</w>
zlat íčko</w>
pod al</w>
t ová</w>
gu est</w>
utr pě
cen o</w>
la h</w>
po věř
sh er</w>
stabil ní</w>
tra ce</w>
occas ion</w>
kontak tu</w>
be am</w>
í cích</w>
vydáv ání</w>
pres sive</w>
op posite</w>
charak ter</w>
territ ories</w>
sou lad</w>
písem nost</w>
e able</w>
Zamě st
odpad ů</w>
Gran t</w>
uni or</w>
na instal
mi x</w>
zn u</w>
sta čilo</w>
g as
S práv
ole sc
eth y
Kon ec</w>
B rad
Med iter
Fa x</w>
pot la
bed room</w>
mod elu</w>
vyk ládat</w>
jed eš</w>
aud its</w>
1 (
ře č</w>
lin ie</w>
itel nosti</w>
ck ets</w>
rez er
náklad ní</w>
sh ore</w>
7 6
auth entic</w>
sch rá
deli ber
O lymp
znám ý</w>
sil ou</w>
sh ame</w>
ú kolem</w>
14 5</w>
rozsud ky</w>
reimbur sement</w>
přet rv
potvrz uje</w>
Vy svět
nabíd ka</w>
é r
zveřej ní</w>
tu jí</w>
Med i
mem ories</w>
An geles</w>
plavid lo</w>
drin ks</w>
Nizozem sko</w>
tend er
rop e</w>
ší ř
ca p</w>
anne x</w>
s ar
M ED
pren eur
M é</w>
tud y</w>
ag on</w>
vil le</w>
struktur a</w>
sam y</w>
podně tu</w>
M ob
Def endant</w>
k ládá</w>
do spí
škol u</w>
be rou</w>
moder ate</w>
dol lar</w>
přezkou m
cí mu</w>
re vision</w>
stá lo</w>
am oun
plat es</w>
gentle man</w>
g ender</w>
Na stavení</w>
bre ad</w>
4. 2.
place bem</w>
m zd
způsobil ých</w>
Chic ago</w>
čist ý</w>
vy dané</w>
rámcov ého</w>
po vo
dá r
Z kus
ží cí</w>
od y
’ ll</w>
UNI E</w>
u bo
j seš</w>
stoup it</w>
ved ly</w>
zavol ám</w>
quali fications</w>
zd ůvod
ed a</w>
Agricul tural</w>
ofici ální</w>
Pos ition</w>
výrob ních</w>
vyšet ření</w>
Ad visory</w>
vál ku</w>
speci al
fib res</w>
sdí lení</w>
o ils</w>
hun ting</w>
K lid</w>
oup il</w>
re tro
přírod ních</w>
Sh ar
Pla ce</w>
ch á
ver zi</w>
ne dělej</w>
and u</w>
man ipul
poru chou</w>
m ní</w>
Caro l</w>
Inde x</w>
sh ut
udržitel ného</w>
def ense</w>
kov ými</w>
7 00</w>
ic on</w>
S R
tex ts</w>
rozhod ující</w>
IM O</w>
II I
z er</w>
zavá dě
č est
n ci</w>
při zná
kter ý
moun tains</w>
ma y
Pen ny</w>
son a</w>
ad olesc
ť ák</w>
M ov
takov é
ne pře
5 6
2 3.
krá le</w>
Člově k</w>
Je ff</w>
vojen ské</w>
posád ky</w>
J seš</w>
lo hy</w>
ini b</w>
vi zi</w>
ro hu</w>
C T</w>
prev enting</w>
hou šku</w>
accur ate</w>
une x
žád at</w>
vis ual</w>
UNI TIES</w>
smo king</w>
áh ne</w>
z řiz
im position</w>
přesvěd čit</w>
ur áž
to ku</w>
suff er</w>
log ické</w>
názv u</w>
id ní</w>
Ve řej
bar vu</w>
AC P</w>
Na zdar</w>
od hod
ozbro jen
BEL GI
zastav í</w>
uplat ňují</w>
ani an</w>
Po wer</w>
t issue</w>
prezident a</w>
náhra d
gu ide</w>
nav zdory</w>
17 8
secu red</w>
initi ate</w>
te pel
wh ilst</w>
ref u
v or
mlad é</w>
vol né</w>
manufactu red</w>
pi do
are st</w>
Ph il</w>
Mex ico</w>
De utsch
lid ay</w>
ob u</w>
avi ation</w>
Bar ry</w>
w ard
mat ce</w>
S ám</w>
B ay</w>
í kových</w>
vy hra
Co ol</w>
rám cové</w>
ali en</w>
J an</w>
mov ements</w>
magaz ine</w>
te ars</w>
pis ů</w>
jec tions</w>
f it
desc ribe</w>
Polic ie</w>
under take</w>
T uto</w>
řídí cí</w>
vy raz
to též</w>
podí vejte</w>
2 1.
čist ě</w>
em ent
V il
Ot če</w>
t s
W y
H ang</w>
inter fe
12 2</w>
. g
vak cí
ko m</w>
f ever</w>
supplement ary</w>
seh nat</w>
nezávis le</w>
me ets</w>
bud ování</w>
Fre d
š u</w>
attac ked</w>
civ ilní</w>
ní me</w>
zelen iny</w>
systé mov
profes ion
In nov
e ku
wor n</w>
2 10</w>
co operating</w>
P ak
le vy</w>
ř ů</w>
St and</w>
P .</w>
E ffec
umož ňující</w>
con cep
san ctions</w>
3 -
poz adí</w>
minut u</w>
z pravidla</w>
roz li
kultur ní</w>
M s</w>
sim il
19 .
Ex am
na cházejí</w>
k ý
im pli
Ná klady</w>
T řetí</w>
no where</w>
lat ely</w>
dum b</w>
vari able</w>
po no
ion /
1 18</w>
zapo menout</w>
se j
else where</w>
ča j</w>
předmě t</w>
Minist er
Fol low</w>
wh at
letad el</w>
0 6
voc ate</w>
Mat the
lhů t</w>
eli hood</w>
ti ku</w>
prof its</w>
shromá ždění</w>
conf used</w>
cra w
so oner</w>
ic ans</w>
pá tek</w>
pro dat</w>
ky ni</w>
je ď</w>
y i
fa iling</w>
rov a</w>
ger icht</w>
postav il</w>
pido gre
poskyt l</w>
ramen o</w>
in žený
fas cin
ří dic
záv od
ent h</w>
con stant</w>
dáv kování</w>
show er</w>
pot entially</w>
ně muž</w>
iz on</w>
P H
určen ý</w>
ter a</w>
ver ified</w>
new spap
domin ant</w>
Nemůž ete</w>
sy ner
ě ním</w>
st rip
em it
soukrom ých</w>
vteř in</w>
pneum ati
kdy koliv</w>
obdrž ení</w>
he ating</w>
tur a</w>
ne dokázal</w>
přer ušení</w>
S ev
pla yers</w>
zis k</w>
nebud ete</w>
lat eral</w>
he aven</w>
hlubok o</w>
zn ala</w>
jack et</w>
R &
uté ct</w>
význam nou</w>
Mediter ranean</w>
správ a</w>
usnad nění</w>
jed noráz
attra ctive</w>
rat ing
prin ce
mí rně</w>
ne tu
Sh all</w>
li a</w>
Sh an
t itu
Dru h</w>
le x
i la
ES A</w>
h an</w>
N ast
mezinárod ními</w>
me ňte</w>
trest né</w>
B ad</w>
COMM UNITIES</w>
As sist
objec tion</w>
mal ič
Ex plo
gra ss</w>
vra cí</w>
povol en
Se š</w>
A I
perform ing</w>
odvol at</w>
environment ální</w>
diabet es</w>
podob ně</w>
Ber n
vy bral</w>
ná me</w>
de teri
f ici
w ash</w>
ne js
mir ror</w>
Ukra jin
T udy</w>
čin nostech</w>
OB SA
vo ř
ká men</w>
ay e</w>
Mluv il</w>
shoul ders</w>
kom pati
v ary</w>
rodi l</w>
kin ds</w>
deb ts</w>
Char lot
Al f
separ ated</w>
St or
L ang
k uje</w>
ček ala</w>
f ake</w>
vítěz ství</w>
spoj ování</w>
prosaz ování</w>
by tu</w>
pas sword</w>
Do c</w>
co ok</w>
ti to</w>
du plic
whis pered</w>
ri x</w>
18 .
význam ných</w>
správ ního</w>
gener ace</w>
vy čer
společ ném</w>
qu een</w>
prav y</w>
nevy žad
U vědom
kno ck</w>
lep šího</w>
at u</w>
Si xth</w>
sp í</w>
Pat rick</w>
ote ví
T ok
B O</w>
cru cial</w>
pover ty</w>
jaký koli</w>
fun gu
standard y</w>
requ esting</w>
cel kových</w>
tě te</w>
vzdálen ost</w>
Z nam
c lou
Oznám ení</w>
živ é</w>
speci alised</w>
pravid lech</w>
předlož il</w>
bř em
bě hl</w>
ov ny</w>
situ ací</w>
Ch lap
urč ování</w>
enem ies</w>
pad la</w>
he zky</w>
pro hlíž
návaz nosti</w>
námit ek</w>
expec ting</w>
desi re</w>
der ly</w>
ne musíš</w>
mur der
TA (
H and
Di ffer
plat bu</w>
f old</w>
wel comes</w>
řen ou</w>
Nem ěla</w>
Dán sko</w>
34/ 2007</w>
Icel and</w>
deleg ation</w>
L ov
Společ ná</w>
s ers</w>
Uklid ni</w>
Rol and</w>
sc ore</w>
P L</w>
p led</w>
cent ra</w>
př ál</w>
vě nov
vol umes</w>
aliz ovat</w>
Du ke</w>
pro násled
odchyl ky</w>
Č et
nabíd nout</w>
hroz né</w>
an ie</w>
estim ates</w>
e zení</w>
N or</w>
pos ud
plavid ly</w>
c enti
De ath</w>
výzkum ných</w>
Rež im</w>
hard er</w>
těles né</w>
pig s</w>
na jevo</w>
Mer ger</w>
vá ním</w>
lon ged</w>
def ici
stanov uje</w>
sl í
lu x
Dri zz
K éž</w>
l ings</w>
před ávání</w>
_ TA(
Em ma</w>
ric s</w>
h ová</w>
re turns</w>
odpověd í</w>
noh ama</w>
Sou bor</w>
Pro per
hi er
C EL
P A</w>
UNI ON</w>
připo jit</w>
saz eb</w>
grav ity</w>
sc rut
přines l</w>
it ly</w>
ó nu</w>
specif ických</w>
eu tic</w>
s rá
vol ba</w>
nech ali</w>
hospodář ském</w>
neb rání</w>
T áta</w>
in er</w>
ari at</w>
Rad ěji</w>
Mr zí</w>
z le</w>
ex pan
meas uring</w>
Nech al</w>
efek tivní</w>
Un it</w>
míst nost</w>
flex ibility</w>
P řej
9 5
equ ally</w>
změ nila</w>
zavá dění</w>
odpověd né</w>
to i
spán ku</w>
odvět v
Con sid
roz tom
měsí ční</w>
p ali
cháze jícího</w>
Back ground</w>
ukrad l</w>
ep er</w>
dlu hop
působ ení</w>
Dist rict</w>
ref orem</w>
L á
pi pe</w>
Bro wn</w>
Ap par
tab leta</w>
navrhov atel
sp ell</w>
na zv
mo cí</w>
dod ání</w>
W on
ro ot</w>
la ke</w>
vi r
fir my</w>
ci d</w>
soutěž i</w>
enc lat
b les
S ad
hlá šeny</w>
establish es</w>
Pod ob
M už
zab ývá</w>
foc used</w>
vstoup it</w>
in ám</w>
střed ně</w>
do klad</w>
Ter ry</w>
gra m</w>
cast le</w>
ukaz atelů</w>
regist rová
zohled ní</w>
belon ging</w>
Pří spě
er ly</w>
B l
podstat ně</w>
sh ov
u x</w>
col lap
3. 4</w>
12 1</w>
par king</w>
át ko</w>
TAB LE</w>
z má
par kov
di rectives</w>
H ong</w>
Pol sko</w>
vý sle
určen á</w>
s ou</w>
kop ii</w>
Pou žije</w>
MA N</w>
di rector</w>
poll ution</w>
vi ď</w>
ro t</w>
ist i</w>
rov ného</w>
par liam
vá n</w>
tra um
or t</w>
consolid ated</w>
G am
inte gra
fi led</w>
sp isu</w>
vy jas
ba seline</w>
dět mi</w>
min al</w>
polož il</w>
b ite</w>
bu ch
st ry</w>
S dělení</w>
Jer emie</w>
řad it</w>
sk á
Fuc king</w>
vit am
kr áv
con figuration</w>
P E
odmít nutí</w>
[...]
