{
    "shore": 10084,
    "Dig@@": 9121,
    "Hotel": 8178,
    "Source": 10828,
    "MENTS": 8495,
    "employees": 3385,
    "smel@@": 5368,
    "serve": 3046,
    "Johnny": 5789,
    "meat": 2128,
    "NG@@": 8076,
    "Mun@@": 8600,
    "Down@@": 11349,
    "andu": 13560,
    "O'@@": 6065,
    "decides": 5461,
    "Sometimes": 5149,
    "Leave": 4115,
    "ilar": 11860,
    "oma": 6543,
    "Member": 133,
    "lodge": 11061,
    "diseases": 5511,
    "lateral": 12020,
    "Au@@": 3911,
    "ader@@": 4937,
    "toi@@": 11463,
    "Nom@@": 9181,
    "genetic": 8127,
    "authentic": 7626,
    "even": 241,
    "ess": 2768,
    "sah": 13446,
    "Wi@@": 7029,
    "High@@": 5546,
    "program": 2906,
    "part": 453,
    "posed": 6336,
    "ský": 11808,
    "hurry": 4872,
    "Relax": 8851,
    "prove": 2879,
    "overe@@": 13277,
    "shooting": 5202,
    "ε@@": 11832,
    "calendar": 4992,
    "false": 5728,
    "Bringing": 5417,
    "settled": 4305,
    "assumed": 6220,
    "tow@@": 4357,
    "omi": 10921,
    "expiry": 6694,
    "As@@": 4413,
    "ored": 8806,
    "tender": 4317,
    "Div@@": 11600,
    "ardy": 11288,
    "procurement": 4160,
    "nes@@": 4767,
    "neys": 8982,
    "EESC": 1927,
    "shoc@@": 8627,
    "derogation": 4190,
    "■": 13429,
    "Hey": 191,
    "clim@@": 3190,
    "parallel": 7052,
    "prov@@": 10513,
    "fuels": 6459,
    "consisting": 10161,
    "COMM@@": 6607,
    "judgment": 1275,
    "Free": 4139,
    "idiot": 4389,
    "dialog": 8256,
    "Faj@@": 13312,
    "epis@@": 7994,
    "exciting": 8945,
    "three": 338,
    "kinda": 12624,
    "pulled": 3452,
    "kum": 12886,
    "utor": 6844,
    "apar@@": 12026,
    "Treat@@": 9103,
    "contract@@": 11716,
    "rus": 8002,
    "September": 1496,
    "Maj@@": 12493,
    "Sho@@": 5242,
    "easier": 5074,
    "Van@@": 8272,
    "billion": 2708,
    "hat@@": 4387,
    "simply": 4418,
    "Excuse": 1400,
    "scenari@@": 11058,
    "kas@@": 12292,
    "!": 36,
    "rising": 7849,
    "While": 3773,
    "condition": 2097,
    "vey": 11426,
    "labor@@": 9215,
    "preven@@": 9016,
    "Although": 3442,
    "oth@@": 7284,
    "effect": 945,
    "zal@@": 11905,
    "fem@@": 8648,
    "hereinafter": 4216,
    "structures": 3812,
    "empty": 2832,
    "eco@@": 8632,
    "ist@@": 1790,
    "consci@@": 5191,
    "perhaps": 3232,
    "loaded": 5180,
    "micro@@": 3981,
    "ariat": 13249,
    "corrup@@": 9495,
    "stocks": 4854,
    "ger@@": 4235,
    "cation": 11563,
    "lives": 1483,
    "truck": 5475,
    "anese": 11604,
    "Ab@@": 3514,
    "key@@": 7731,
    "Bar@@": 2170,
    "Bai@@": 10308,
    "Better": 9610,
    "Market": 4353,
    "steady": 9373,
    "plays": 5555,
    "duplic@@": 9168,
    "AU@@": 4312,
    "Whatever": 4174,
    "nate": 9407,
    "Sear@@": 12363,
    "Roz@@": 12695,
    "stern": 6882,
    "b@@": 302,
    "so@@": 1104,
    "ec": 9419,
    "vide@@": 9112,
    "proof": 2478,
    "pictures": 4959,
    "ero": 7703,
    "combin@@": 5982,
    "riger@@": 13444,
    "Chapter": 1194,
    "gericht": 9767,
    "pur@@": 2649,
    "of": 15,
    "gl@@": 3986,
    "parking": 6347,
    "oval": 11485,
    "coat": 6594,
    "female": 8798,
    "INFOR@@": 10674,
    "Gentle@@": 13453,
    "TEN@@": 11519,
    "cycles": 8456,
    "Create": 11221,
    ";": 147,
    "surgery": 5735,
    "Π@@": 13350,
    "fishery": 9305,
    "Men": 9528,
    "involves": 9228,
    "regul@@": 3750,
    "ust@@": 2089,
    "kus": 11534,
    "Hill": 10169,
    "itor": 3333,
    "bon@@": 3999,
    "intest@@": 11616,
    "Bos@@": 7072,
    "recognition": 3058,
    "stakeholders": 4561,
    "fail": 9511,
    "Very": 5487,
    "Princi@@": 8302,
    "careful": 2614,
    "posse@@": 11001,
    "viously": 7486,
    "Pur@@": 9355,
    "fif@@": 7615,
    "Additional": 8506,
    "bent": 8266,
    "invol@@": 12045,
    "Aud@@": 6852,
    "exposure": 2777,
    "tells": 5832,
    "ines@@": 11873,
    "stic": 4207,
    "clause": 6248,
    "We'il": 6807,
    "ê": 11856,
    "versus": 10394,
    "axis": 7772,
    "Re@@": 820,
    "Slu@@": 12599,
    "phas@@": 11503,
    "Off@@": 11211,
    "semi": 7742,
    "Sec@@": 3362,
    "IX": 7570,
    "mer": 2520,
    "phi@@": 10352,
    "fallen": 5092,
    "▐": 12279,
    "bec": 12767,
    "dear": 2743,
    "VO": 11254,
    "N": 1340,
    "ą@@": 12343,
    "Your": 733,
    "District": 8179,
    "lily": 13341,
    "balances": 9469,
    "Oli@@": 9433,
    "enclat@@": 13541,
    "ss": 1859,
    "Doctor": 4313,
    "Not@@": 4158,
    "stock": 3745,
    "imposing": 5497,
    "Ta@@": 4503,
    "NG": 10436,
    "emission": 5243,
    "industry": 1226,
    "reput@@": 13182,
    "securities": 4776,
    "ables": 2716,
    "Zem@@": 12788,
    "cash": 2786,
    "................@@": 11428,
    "labelling": 6170,
    "EM": 10832,
    "Time": 5215,
    "juris@@": 11192,
    "\\": 12005,
    "Remove": 10231,
    "es": 162,
    "vra@@": 12949,
    "RT@@": 10474,
    "Sled@@": 13310,
    "Un@@": 1773,
    "(s": 2556,
    "stra@@": 2599,
    "observation": 9444,
    "resid@@": 2154,
    "seda": 13572,
    "stres@@": 4195,
    "Alex@@": 8691,
    "cali@@": 7576,
    "resulted": 3889,
    "adap@@": 3665,
    "Bec@@": 6393,
    ".m.": 11784,
    "kd@@": 10966,
    "zeň": 13167,
    "dou@@": 10210,
    "nese": 12676,
    "prisoner": 8809,
    "/@@": 56,
    "HU": 11801,
    "Hmm": 11402,
    "Sv@@": 12659,
    "Sty@@": 11498,
    "reas@@": 6050,
    "screw": 10357,
    "ns": 1335,
    "ratic": 9538,
    "sy": 1987,
    "impac@@": 12469,
    "abovementioned": 10703,
    "subjects": 5613,
    "David": 3228,
    "from": 45,
    "au": 8781,
    "legally": 4167,
    "attached": 4098,
    "son": 393,
    "Fourth": 10951,
    "international": 836,
    "concerned": 389,
    "ura@@": 8417,
    "running": 2091,
    "discrimin@@": 11251,
    "detail": 5447,
    "Nice": 4069,
    "nically": 5674,
    "ani@@": 5677,
    "dil": 12442,
    "substances": 2082,
    "Sk@@": 4165,
    "offer": 2047,
    "dedu@@": 4113,
    "Pak": 13215,
    "Ch@@": 905,
    "odi@@": 5660,
    "unch": 5999,
    "references": 5356,
    "A@@": 177,
    "Under": 1465,
    "|": 900,
    "ward": 1980,
    "Christ@@": 5682,
    "Po@@": 1906,
    "According": 4558,
    "mat@@": 985,
    "Position": 9119,
    "Pretty": 9587,
    "compen@@": 13177,
    "leh@@": 12956,
    "ALE": 10264,
    "Love": 3011,
    "ology": 4430,
    "Technology": 9165,
    "Gordon": 9952,
    "NO": 8889,
    "ident@@": 6261,
    "pregnant": 3356,
    "xes": 4453,
    "ně@@": 13548,
    "ped@@": 5501,
    "Roy": 9262,
    "poses": 7005,
    "adjusted": 3951,
    "ay": 2282,
    "od": 3809,
    "butions": 12261,
    "invent@@": 6496,
    "roz@@": 11366,
    "Import": 10862,
    "asu": 12920,
    "conclude": 6973,
    "votes": 6369,
    "chant": 10294,
    "Director": 3578,
    "tere": 13460,
    "involve": 6893,
    "COMMISSION": 2526,
    "gang@@": 9872,
    "nancy": 11682,
    "events": 2311,
    "ovan@@": 11792,
    "entering": 6078,
    "Pl@@": 8939,
    "kur@@": 12344,
    "Ner@@": 12428,
    "thum@@": 9284,
    "having": 1029,
    "Progra@@": 12230,
    "UNION": 7156,
    "rut@@": 11983,
    "removal": 8638,
    "Che@@": 7734,
    "cena": 13211,
    "quant@@": 12926,
    "Bir@@": 9523,
    "appell@@": 13088,
    "AM": 9870,
    "Sam": 2585,
    "nalo@@": 12985,
    "motor@@": 6653,
    "Government": 2206,
    "lá@@": 12567,
    "ano": 3860,
    "o'@@": 13426,
    "ned": 1564,
    "y": 285,
    "warn": 8041,
    ".’": 2876,
    "Rap@@": 9232,
    "Po": 11992,
    "Nev@@": 10557,
    "habit@@": 6045,
    "iler": 7303,
    "dwar@@": 7018,
    "seg@@": 5774,
    "oh": 2669,
    "cler@@": 8698,
    "Enforcement": 10088,
    "gra@@": 964,
    "addresses": 8357,
    "eral": 5024,
    "Fir@@": 11793,
    "tri@@": 1474,
    "ises": 4506,
    "Setup": 10729,
    "vy@@": 11773,
    "atures": 10444,
    "indicated": 1627,
    "aven": 7796,
    "terrible": 1641,
    "Donna": 10743,
    "ette": 5145,
    "consideration": 4995,
    "e’": 4146,
    "ob@@": 955,
    "pressed": 2900,
    "sr@@": 12208,
    "ht@@": 11823,
    "Can@@": 3456,
    "Des@@": 3858,
    "display": 5694,
    "DP": 10546,
    "Ty": 12569,
    "astro@@": 10328,
    "sta@@": 2163,
    "appeal": 1456,
    "hal@@": 2196,
    "shipment": 9065,
    "oku": 12987,
    "hic@@": 9251,
    "mo@@": 819,
    "conf@@": 1815,
    "Barry": 9719,
    "mixture": 7709,
    "mounted": 9905,
    "Carlos": 9869,
    "Media": 9676,
    "Wor@@": 5282,
    "guards": 5276,
    "tá@@": 13479,
    "bor": 4621,
    "rka": 12812,
    "zer": 9013,
    "Parag@@": 11298,
    "zab@@": 13029,
    "exporter": 7623,
    "rok": 12276,
    "hurt": 1231,
    "AT": 6013,
    "Luxembourg": 3646,
    "Foreign": 7524,
    "tla@@": 12454,
    "Multi@@": 9717,
    "deliber@@": 7115,
    "volume": 2157,
    "Internet": 2857,
    "verify": 6407,
    "Country": 11390,
    "market@@": 8027,
    "с@@": 13409,
    "rout@@": 12741,
    "oling": 6789,
    "Paragraph": 5103,
    "sma@@": 11673,
    "ump": 5516,
    "names": 2383,
    "develop@@": 9070,
    "Identi@@": 9486,
    "sele@@": 3650,
    "inde@@": 8543,
    "FOR": 4709,
    "rush": 9936,
    "yar@@": 7201,
    "prejud@@": 11691,
    "pocket": 4968,
    "fed": 8420,
    "cast": 3202,
    "register": 3579,
    "Tat@@": 11897,
    "down@@": 2663,
    "rit@@": 3107,
    "magazine": 9222,
    "match": 6064,
    "drunk": 3984,
    "υ@@": 12643,
    "Fre@@": 3690,
    "adopting": 3611,
    "lements": 6842,
    "streng@@": 11903,
    "Jed@@": 10656,
    "aches": 9136,
    "underlying": 5983,
    "doubt": 2950,
    "Atlan@@": 11766,
    "offered": 2887,
    "ac@@": 575,
    "pipraz@@": 10602,
    "mag@@": 2123,
    "stone": 2890,
    "ced": 1480,
    "fifth": 5848,
    "iveness": 8418,
    "clearing": 9628,
    "daily": 2246,
    "lid@@": 6229,
    "Gil@@": 9361,
    "Text": 3508,
    "lery": 10528,
    "Tun@@": 8636,
    "Bureau": 8475,
    "tack@@": 10070,
    "ery@@": 8706,
    "Prob@@": 12615,
    "k": 499,
    "multilateral": 6671,
    "Nu@@": 11363,
    "units": 2422,
    "organisations": 1517,
    "alternat@@": 7394,
    "ition@@": 4545,
    "Application": 9552,
    "partment": 9902,
    "las": 4399,
    "Especially": 10889,
    "Pin@@": 11164,
    "pioglitaz@@": 10789,
    "™": 13060,
    "Cla@@": 3218,
    "Structural": 4615,
    "": 12438,
    "Aw": 12804,
    "uc@@": 2891,
    "tious": 8119,
    "difference": 2013,
    "ised": 1230,
    "precise": 6499,
    "bom@@": 6324,
    "bank": 1600,
    "tionary": 7080,
    "eliminate": 11971,
    "dal@@": 11272,
    "Fal@@": 8364,
    "clearance": 5454,
    "stra": 12359,
    "useless": 7960,
    "FS": 11016,
    "reasoning": 9890,
    "Ak@@": 9687,
    "Malta": 6382,
    "tom@@": 3862,
    "ously": 1950,
    "borders": 8879,
    "ON": 4479,
    "Phi@@": 5457,
    "Alex": 5341,
    "whereby": 9397,
    "Nel@@": 10244,
    "ies": 522,
    "tenance": 13540,
    "rid": 2766,
    "nel": 6294,
    "soldier": 5592,
    "medic@@": 8309,
    "than@@": 5857,
    "constitute": 2703,
    "concentrations": 5395,
    "judicial": 1830,
    "Ricky": 9901,
    "enting": 10916,
    "FR@@": 6599,
    "Mac": 10180,
    "mine": 1319,
    "fall": 1409,
    "sentence": 4059,
    "Having": 2808,
    "Jar@@": 11013,
    "oke": 3820,
    "ez@@": 4182,
    "pestic@@": 11815,
    "distur@@": 3743,
    "foodstuffs": 10463,
    "associations": 5697,
    "pr@@": 1268,
    "DECISION": 6063,
    "strange": 2045,
    "jeal@@": 11853,
    "Philli@@": 10721,
    "infra@@": 7062,
    "covers": 2783,
    "hu@@": 4277,
    "ugly": 5112,
    "kly": 10803,
    "õ@@": 12466,
    "exchange": 1753,
    "publication": 1728,
    "zat@@": 12655,
    "guns": 6847,
    "yards": 7976,
    "fever": 6713,
    "Employment": 4875,
    "san": 10344,
    "You'il": 8673,
    "Sheriff": 10260,
    "DR@@": 9845,
    "wife": 949,
    "glass": 2331,
    "bars": 6868,
    "transpar@@": 13016,
    "VAT": 3096,
    "ine": 318,
    "forced": 4480,
    "sec": 11388,
    "arance": 12960,
    "mol": 11663,
    "Mat@@": 3580,
    "'": 111,
    "York": 2638,
    "zone": 4064,
    "suffici@@": 11162,
    "Brian": 6823,
    "aken": 8258,
    "neighbor@@": 9352,
    "screen": 4474,
    "George": 3238,
    "divorce": 2187,
    "profession": 7011,
    "ima": 9545,
    "Micro@@": 11495,
    "Alan": 7467,
    "hard@@": 5796,
    "wan@@": 6835,
    "metal": 3438,
    "restaur@@": 11106,
    "Harmonisation": 8533,
    "Bu@@": 3549,
    "slowly": 2911,
    "ried": 7604,
    "discovered": 5476,
    "awesome": 11602,
    "especially": 1907,
    "med@@": 4311,
    "Fis@@": 9614,
    "dro@@": 3181,
    "lawyers": 5304,
    "eta": 10241,
    "man": 178,
    "Paul": 3275,
    "oz": 12488,
    "Gu@@": 1709,
    "catch": 2423,
    "legs": 3233,
    "Min@@": 4471,
    "kov@@": 11126,
    "hi@@": 2049,
    "ij@@": 11091,
    "highly": 4336,
    "bloc@@": 6350,
    "going": 197,
    "Teddy": 10662,
    "imported": 3530,
    "paused": 8916,
    "effectively": 4042,
    "enjoy": 3390,
    "infringement": 2257,
    "row": 1774,
    "Claire": 7672,
    "employ@@": 10719,
    "me": 43,
    "prima": 11383,
    "ling": 468,
    "easy": 1388,
    "fancy": 11505,
    "tone": 7022,
    "sound": 1493,
    "try": 665,
    "Spr@@": 8434,
    "retirement": 8981,
    "lights": 3494,
    "Sil@@": 3868,
    "R.": 8264,
    "Pot@@": 8975,
    "eping": 8599,
    "cloud": 8844,
    "isol@@": 5537,
    "citizen@@": 8764,
    "spouses": 4289,
    "xe": 12523,
    "game": 1267,
    "avir": 6467,
    "enzy@@": 6796,
    "ticket": 5802,
    "Zab@@": 12537,
    "urally": 6675,
    "mare": 7256,
    "Union": 220,
    "carrying": 1745,
    "pensation": 12877,
    "rop@@": 2357,
    "ations": 471,
    "eve": 6613,
    "ement@@": 7786,
    "EUROPEAN": 2270,
    "white": 1359,
    "busines@@": 11148,
    "eps": 9832,
    "Rick": 9877,
    "times": 948,
    "Ot@@": 9888,
    "enem@@": 13330,
    "brea@@": 6960,
    "ket": 7374,
    "lel": 13041,
    "esion": 12335,
    "geles": 13384,
    "anta": 12940,
    "located": 2301,
    "table": 981,
    "DH@@": 10931,
    "Northern": 9777,
    "Combin@@": 9448,
    ":00": 2805,
    "Quick": 10659,
    "storage": 2675,
    "Seven": 10768,
    "Pop@@": 10727,
    "interoper@@": 11939,
    "just": 114,
    "hr@@": 11536,
    "schemes": 3892,
    "ý": 12923,
    "q@@": 6433,
    "Somebody": 6829,
    "profit": 2993,
    "jack@@": 10999,
    "beh@@": 10302,
    "envisaged": 6213,
    "Evrop@@": 13058,
    "ET": 4588,
    "Dad": 1057,
    "good@@": 9090,
    "fleet": 5444,
    "cer@@": 2055,
    "these": 196,
    "famous": 5236,
    "IV": 2350,
    "promo@@": 6410,
    "bag@@": 11718,
    "privi@@": 10333,
    "reverse": 10006,
    "ł": 13084,
    "pole": 10550,
    "Ret@@": 4754,
    "substantive": 8048,
    "leg": 3465,
    "trend": 8492,
    "optim@@": 9963,
    "Appe@@": 11699,
    "–@@": 3041,
    "­@@": 13534,
    "Berlin": 8577,
    "thinks": 2660,
    "gar": 5250,
    "ibility": 6281,
    "ched": 1200,
    "cen@@": 6387,
    "marry": 3786,
    "ll": 4322,
    "Members": 8610,
    "ag@@": 498,
    "se@@": 444,
    "Notice": 6703,
    "Thanks": 984,
    "tain": 3894,
    "′": 11056,
    "separate": 2466,
    "compr@@": 4455,
    "Russia": 4466,
    "ties": 2901,
    "and/or": 1902,
    "moz@@": 12865,
    "Ven@@": 6821,
    "taxable": 5161,
    "differences": 3341,
    "domain": 7289,
    "aff@@": 5313,
    "step@@": 7311,
    "glob@@": 6794,
    "od@@": 968,
    "shel@@": 3972,
    "fees": 3542,
    "Czech": 2333,
    "disappear": 4817,
    "ung@@": 5535,
    "cartel": 5554,
    "impul@@": 10309,
    "prince": 6875,
    "visa": 6022,
    "TE": 9526,
    "professions": 4314,
    "Sup@@": 5293,
    "pull": 4502,
    "tox@@": 10611,
    "deta@@": 8751,
    "sooner": 6993,
    "ski@@": 9910,
    "Gar@@": 4249,
    "Overall": 10094,
    "sensitive": 4271,
    "UK": 8674,
    "http://@@": 6141,
    "wan": 9282,
    "rez@@": 12604,
    "gentleman": 8066,
    "uter": 11308,
    "jim@@": 12930,
    "somewhere": 2057,
    "eling": 9034,
    "Gib@@": 9156,
    "aking": 3102,
    "té": 11833,
    "Norway": 5188,
    "Commit@@": 10290,
    "transm@@": 3548,
    "jin@@": 12311,
    "EDF": 9127,
    "def@@": 2050,
    "sum": 5523,
    "sly@@": 13195,
    "residue": 10272,
    "listened": 8461,
    "recognize": 6026,
    "interrup@@": 4921,
    "steps": 2848,
    "compatibility": 5633,
    "coast": 7908,
    "exported": 5439,
    "elles": 11514,
    "El": 8836,
    "renewal": 10355,
    "clothes": 2941,
    "Sour@@": 12336,
    "info": 11119,
    "stages": 4567,
    "chlor@@": 9672,
    "Speci@@": 5012,
    "stars": 4720,
    "consent": 5163,
    "licence": 3073,
    "forth": 9358,
    "Pier@@": 8337,
    "Bay": 9662,
    "zing": 6830,
    "partnership": 5159,
    "police": 1205,
    "tiny": 6038,
    "nurse": 6317,
    "relevant": 466,
    "badly": 9540,
    "II@@": 2912,
    "hold": 1616,
    "valu@@": 7239,
    "costs": 465,
    "faced": 7729,
    "ľ": 13433,
    "developing": 1770,
    "htt@@": 12456,
    "eigh@@": 8454,
    "cle@@": 4411,
    "equally": 7482,
    "Ok": 11818,
    "Cal@@": 2338,
    "ratio": 4209,
    "ickly": 4577,
    "ought": 2963,
    "improved": 4524,
    "ore": 1320,
    "Chic@@": 13465,
    "CD": 6589,
    "ient": 8515,
    "dic": 8038,
    "reasoned": 8320,
    "examination": 2494,
    "TY": 10614,
    "strom": 12406,
    "tongue": 6328,
    "ji@@": 9381,
    "article": 3964,
    "von@@": 12256,
    "upon": 1672,
    "sub": 3590,
    "satel@@": 11372,
    "à@@": 13054,
    "Part@@": 4428,
    "γ": 13490,
    "types": 2228,
    "compet@@": 4248,
    "Minister@@": 13024,
    "stand": 1548,
    "Sounds": 11698,
    "slu@@": 7744,
    "rage": 11384,
    "?’": 12364,
    "worker": 5708,
    "lence": 9258,
    "Ash@@": 8292,
    "launch": 8468,
    "conform@@": 11813,
    "Hyper@@": 10954,
    "Youn@@": 12605,
    "Both": 7722,
    "sign@@": 4187,
    "responsibility": 1260,
    "Represent@@": 7113,
    "ts": 374,
    "ble@@": 4983,
    "pli@@": 3995,
    "stipulated": 9568,
    "Υ@@": 13379,
    "Č@@": 11415,
    "ites": 3627,
    "kla@@": 9021,
    "ní@@": 13082,
    "preparation": 5007,
    "expecting": 7130,
    "mem@@": 5265,
    "ome": 10742,
    "tam": 13252,
    "nud@@": 12358,
    "success": 4493,
    "Frid@@": 12774,
    "ATE": 8419,
    "hel@@": 2436,
    "pru@@": 13410,
    "terminal": 8184,
    "lese": 12631,
    "r": 752,
    "baili@@": 11035,
    "jection": 7349,
    "ken": 6421,
    "phen@@": 4198,
    "aming": 4214,
    "though": 1338,
    "anna": 9525,
    "games": 5266,
    "consultation": 3463,
    "ant@@": 1440,
    "----@@": 6650,
    "dirty": 5230,
    "vision": 4682,
    "situation": 812,
    "CI": 6761,
    "enough": 566,
    "supposed": 1007,
    "Slov@@": 13129,
    "used": 217,
    "thered": 8707,
    "zt@@": 12968,
    "goals": 11546,
    "sors": 5751,
    "Intel@@": 6059,
    "died": 1223,
    "Ma": 11923,
    "memories": 6471,
    "differ@@": 4189,
    "green": 2419,
    "Arthur": 6453,
    "tit@@": 4869,
    "com": 9109,
    "NE@@": 6927,
    "German": 2132,
    "again": 300,
    "sort": 4879,
    "Moh@@": 9912,
    "instant": 11951,
    "ni@@": 1166,
    "Tru@@": 5340,
    "operational": 1982,
    "short": 1541,
    "ge": 616,
    "Sa@@": 4539,
    "bered": 10942,
    "berg": 6885,
    "transposition": 11117,
    "goods": 1006,
    "ase": 2352,
    "sons": 4092,
    "vac@@": 3303,
    "riage": 11892,
    "dating": 4231,
    "introdu@@": 9097,
    "ons": 1360,
    "thank": 1077,
    "processing": 1649,
    "purpose": 909,
    "hungry": 4196,
    "rel": 6171,
    "operated": 4899,
    "insolvency": 4318,
    "O@@": 352,
    "door@@": 7214,
    "Robin": 8571,
    "mar": 7912,
    "Zam@@": 12314,
    "real": 727,
    "ot@@": 1059,
    "cris@@": 12566,
    "ating": 287,
    "meth@@": 4996,
    "fro@@": 4091,
    "Guess": 11904,
    "hello": 7777,
    "kou@@": 12495,
    "Kate": 5868,
    "É": 13157,
    "take": 163,
    "tions": 885,
    "when": 121,
    "celebr@@": 5539,
    "paral@@": 12570,
    "settle": 8412,
    "orem": 12303,
    "ruce": 13510,
    "0@@": 17,
    "honor": 3197,
    "strengthen": 6358,
    "vers": 10269,
    "teams": 8924,
    "Network": 3201,
    "Teva": 10527,
    "vin@@": 6103,
    "ness": 971,
    "coal": 7144,
    "PEN@@": 8824,
    "Everyone": 4319,
    "entry": 1863,
    "TAC": 9849,
    "absor@@": 4228,
    "nica": 10230,
    "roughly": 9296,
    "light@@": 8024,
    "Mil@@": 3074,
    "Na@@": 3903,
    "s.": 10147,
    "Miller": 9673,
    "Flu@@": 11187,
    "euroz@@": 12504,
    "prescribed": 5704,
    "claim@@": 7583,
    "worst": 3531,
    "ctor": 3551,
    "chap@@": 9834,
    "doubts": 4927,
    "penalties": 9153,
    "ECB": 3454,
    "net": 1995,
    "low": 931,
    "exist": 3174,
    "evid@@": 8252,
    "Jen@@": 6828,
    "il@@": 541,
    "bach@@": 10537,
    "against": 394,
    "till": 7588,
    "Hou@@": 7639,
    "shar@@": 5052,
    "isations": 10870,
    "efficacy": 5548,
    "discipl@@": 5134,
    "inspection": 2899,
    "lud@@": 11843,
    "designation": 5736,
    "carb@@": 10747,
    "base": 2431,
    "univer@@": 7791,
    "lí@@": 12870,
    "ő@@": 12220,
    "sides": 2834,
    "SS": 8134,
    "erate": 10194,
    "Red": 4712,
    "≤@@": 13427,
    "isk@@": 9359,
    "alie": 10669,
    "Maxim@@": 12529,
    "heard": 598,
    "icing": 3937,
    "flash": 9820,
    "ted@@": 10406,
    "group": 802,
    "ê@@": 11849,
    "Table": 2782,
    "Pleas": 7600,
    "alive": 1631,
    "Alexand@@": 11739,
    "FEU": 12787,
    "rty": 10753,
    "jd@@": 13121,
    "Guine@@": 10649,
    "mu": 12724,
    "dissemination": 9148,
    "marine": 5470,
    "Do@@": 2634,
    "ili@@": 2229,
    "Yu@@": 8122,
    "spectrum": 7875,
    "Parliam@@": 11077,
    "pir@@": 5362,
    "ia": 534,
    "collateral": 8288,
    "Wat@@": 5938,
    "Proto@@": 11535,
    "attempt": 6926,
    "associated": 1093,
    "trends": 9189,
    "Civ@@": 11745,
    "records": 2653,
    "pion@@": 8500,
    "territorial": 3270,
    "strateg@@": 12147,
    "sme": 12591,
    "emo@@": 3821,
    "Icel@@": 9718,
    "fool": 3682,
    "parliam@@": 5788,
    "eda": 10407,
    "COMMUNITIES": 6646,
    "figuration": 11398,
    "lectual": 12011,
    "realized": 3139,
    "deadlines": 7300,
    "ferred": 6690,
    "jum@@": 8217,
    "Invest@@": 8236,
    "huge": 3424,
    "fighting": 3028,
    "enjo@@": 6150,
    "\"": 27,
    "deliver": 9055,
    "kr@@": 12167,
    "undertake": 11403,
    "therapy": 2996,
    "observed": 2373,
    "JE@@": 13524,
    "ce": 1071,
    "Vil@@": 10781,
    "ded@@": 11947,
    "clear@@": 12976,
    "Kno@@": 8432,
    "allo@@": 8594,
    "financing": 2015,
    "deliv@@": 10305,
    "alities": 5019,
    "ser@@": 1872,
    "Lex": 5240,
    "details": 2593,
    "Modi@@": 6848,
    "oto@@": 11435,
    "duty": 1507,
    "beneath": 8749,
    "west": 2880,
    "rou": 12903,
    "Gol@@": 5845,
    "uration": 11973,
    "epid@@": 8963,
    "Le@@": 1884,
    "dice": 11869,
    "aker": 5987,
    "ente": 11754,
    "rizi@@": 13367,
    "kab@@": 12887,
    "propo@@": 12808,
    "I‑@@": 6912,
    "Brit@@": 7034,
    "oils": 7415,
    "self": 2166,
    "anci@@": 9140,
    "rectly": 11050,
    "mix": 9300,
    "behaviour": 7068,
    "Span@@": 11886,
    "BV": 10735,
    "hil@@": 9379,
    "country": 535,
    "teacher": 4727,
    "urgent": 6896,
    "Ano@@": 12991,
    "enh@@": 11741,
    "vizi": 13020,
    "abon@@": 13428,
    "spi@@": 6240,
    "focus": 2646,
    "ply@@": 12368,
    "agent": 2959,
    "pol": 11405,
    "hund@@": 12618,
    "faith": 4970,
    "bast@@": 8155,
    "animal": 1381,
    "about": 83,
    "Step": 10009,
    "belong": 5158,
    "cou@@": 1656,
    "zer@@": 11121,
    "cles": 4497,
    "perfect": 2306,
    "ere": 3550,
    "ays": 7410,
    "occurred": 2969,
    "Frankie": 10814,
    "out": 71,
    "chov@@": 12826,
    "many": 504,
    "Case": 1120,
    "ï": 12077,
    "appro@@": 5148,
    "River": 9657,
    "kmen@@": 12862,
    "pl@@": 2119,
    "mak@@": 4659,
    ".ht@@": 11466,
    "dried": 6871,
    "inclusion": 5585,
    "ya": 3666,
    "hod@@": 10664,
    "maintain": 4534,
    "mile": 7258,
    "Κ@@": 12662,
    "Argument@@": 9192,
    "dynam@@": 5914,
    "minimis": 10634,
    "method": 1694,
    "trial": 2925,
    "Duration": 9450,
    "physical": 2826,
    "Will": 1761,
    "Α@@": 12535,
    "Ran@@": 7817,
    "amount": 679,
    "'Cause": 12160,
    "Lid@@": 12175,
    "foreign": 1931,
    "Over": 8193,
    "inside": 1326,
    "dominant": 7222,
    "asing": 2623,
    "nearly": 9209,
    "determin@@": 7927,
    "corrected": 8133,
    "abandoned": 9903,
    "pound": 7075,
    "licences": 4284,
    "grow": 3835,
    "vá@@": 12969,
    "point@@": 10249,
    "sters": 3638,
    "capital": 1310,
    "icks": 3339,
    "buying": 6745,
    "diameter": 8333,
    "promoting": 2069,
    "PC@@": 7910,
    "ility": 4381,
    "King": 2791,
    "fting": 9120,
    "cky": 10571,
    "Latvia": 5745,
    "requirements": 558,
    "bridge": 3451,
    "sled@@": 12732,
    "Team": 10512,
    "power@@": 12067,
    "Saturday": 6117,
    "Nobody": 4402,
    "pending": 7967,
    "zt": 13346,
    "defici@@": 7273,
    "nou@@": 12130,
    "hypo@@": 6012,
    "SE": 4602,
    "Terry": 9994,
    "TA@@": 3377,
    "umul@@": 7590,
    "proven": 10104,
    "eu@@": 3469,
    "nor": 1988,
    "Fil@@": 8774,
    "belongs": 6710,
    "Prov@@": 3512,
    "Colle@@": 7630,
    "defense": 6629,
    "uh": 2913,
    "bite": 8422,
    "thy": 2753,
    "THEM@@": 13331,
    "process@@": 8410,
    "ATA": 11241,
    "merely": 5656,
    "bastard": 7388,
    "OS": 10232,
    "rism": 12396,
    "grade": 5520,
    "profes@@": 13476,
    "event": 1176,
    "Agreement": 874,
    "ft@@": 9536,
    "prog@@": 12698,
    "Del@@": 4049,
    "bomb": 4533,
    "economic": 549,
    "vital": 10679,
    "Bobby": 5664,
    "MA@@": 4086,
    "fat": 2641,
    "utions": 8513,
    "Hear@@": 8185,
    "Maur@@": 9295,
    "arising": 2612,
    "Shel@@": 6206,
    "len": 4641,
    "loss@@": 7968,
    "whis@@": 5609,
    "udy": 11280,
    "farm@@": 11770,
    "la": 1299,
    "poison@@": 6321,
    "flying": 3674,
    "NE": 11772,
    "mune": 7789,
    "dum": 9114,
    ".m@@": 12121,
    "chal@@": 11674,
    "justi@@": 6608,
    "Communities": 4023,
    "deposit": 7794,
    "eur": 8277,
    "generated": 9629,
    "remed@@": 8524,
    "ű": 13142,
    "SS@@": 9802,
    "hibit@@": 5926,
    "rem": 11986,
    "communications": 3191,
    "mic": 9366,
    "recommendations": 2576,
    "Heading": 10635,
    "prud@@": 7498,
    "…": 1354,
    "establishments": 9822,
    "sni@@": 8490,
    "Ku@@": 10414,
    "whatever": 1707,
    "ins": 701,
    "patch": 8117,
    "IPA": 6271,
    "fucking": 1246,
    "una": 11078,
    "else@@": 13558,
    "approve": 7724,
    "artic@@": 11572,
    "Oliver": 9208,
    "inated": 8481,
    "invitation": 8043,
    "ík": 13021,
    "ble": 1332,
    "ét@@": 12541,
    "influen@@": 9252,
    "β@@": 12222,
    "ounts": 12726,
    "cute": 7278,
    "Hur@@": 11218,
    "lodip@@": 10623,
    "measured": 3678,
    "Pa@@": 3541,
    "itude": 7507,
    "function": 1766,
    "funk@@": 13272,
    "h": 685,
    "hundreds": 9167,
    "ocen@@": 13381,
    "stroke": 9835,
    "lined": 6291,
    "transit": 7125,
    "plat@@": 3908,
    "Respon@@": 10714,
    "Sul@@": 10282,
    "width": 7406,
    "rying": 4181,
    "improving": 2088,
    "Chla@@": 13500,
    "gained": 9365,
    "els": 2343,
    "top": 1755,
    "Dá@@": 13159,
    "HIV": 8735,
    "god": 6769,
    "trials": 6857,
    "vel": 9384,
    "itors": 5891,
    "Dí@@": 13207,
    "thin'": 10831,
    "explanation": 6572,
    "Bus@@": 9264,
    "sed": 738,
    "Taking": 3790,
    "rules": 340,
    "surface": 2554,
    "ouring": 9825,
    "guilty": 5724,
    "ş": 13156,
    "bon": 9354,
    "stro@@": 7649,
    "aby": 12251,
    "ier": 6256,
    "ption": 4866,
    "during": 414,
    "kg": 1425,
    "fisher@@": 10525,
    "functions": 4693,
    "ghts": 6494,
    "sweetie": 8616,
    "refuse": 6266,
    "Ve@@": 6340,
    "calm": 2918,
    "passing": 7751,
    "grace": 10138,
    "cri@@": 4096,
    "stimul@@": 5948,
    "BELGI@@": 9589,
    "red@@": 4698,
    "detailed": 1900,
    "examine": 4679,
    "ants": 1301,
    "along": 2460,
    "feed": 3361,
    "togra@@": 8279,
    "enta": 12307,
    "8@@": 104,
    "shou@@": 8238,
    "izon": 6597,
    "enemy": 3481,
    "Nest@@": 12545,
    "crash": 9649,
    "Hello": 1109,
    "cover": 1063,
    "sert": 6094,
    "Ne@@": 1677,
    "Grant": 10062,
    "Uru@@": 13128,
    "AC": 6994,
    "collected": 4210,
    "shoulder": 4140,
    "mise": 12349,
    "relates": 11114,
    "that": 16,
    "raw": 3540,
    "crew": 2842,
    "evaluation": 2137,
    "after": 204,
    "sectors": 2495,
    "eters": 12120,
    "tar@@": 5786,
    "exist@@": 11653,
    "Pow@@": 8888,
    "benefici@@": 13489,
    "principal": 5562,
    "Americans": 7220,
    "Molly": 10004,
    "deleg@@": 6889,
    "are": 38,
    "G.": 8874,
    "obtain": 3791,
    "Mama": 7901,
    "relig@@": 8003,
    "train": 2665,
    "approximately": 2939,
    "maintained": 3808,
    "limited": 1143,
    "IC@@": 1445,
    "isk": 6417,
    "pick": 2772,
    "Gri@@": 7369,
    "ine@@": 3160,
    "n": 428,
    "ration": 4364,
    "hor@@": 1791,
    "lucky": 3054,
    "trading": 4984,
    "Euro": 8885,
    "sest@@": 13263,
    "consolidated": 7460,
    "Pursuant": 11838,
    "rare": 4219,
    "compon@@": 13393,
    "Sou@@": 7341,
    "Chang@@": 9372,
    "hormon@@": 11247,
    "ma": 1605,
    "op@@": 623,
    "Organisation": 5657,
    "appy": 12463,
    "icked": 7677,
    "reflected": 7160,
    "iska": 12874,
    "gentle@@": 13543,
    "includes": 2007,
    "lo": 1613,
    "comfor@@": 9217,
    "": 13502,
    "In": 140,
    "serious": 1046,
    "pling": 8947,
    "Consequently": 4412,
    "Max@@": 10895,
    "hen@@": 8855,
    "S@@": 170,
    "fal@@": 8863,
    "candid@@": 12401,
    "Introdu@@": 8352,
    "mor@@": 2678,
    "sage": 7045,
    "cess": 11204,
    "site": 2192,
    "brace": 12088,
    "complies": 7161,
    "Bi@@": 3603,
    "justified": 2349,
    "systemic": 8226,
    "ME@@": 9233,
    "ater": 5099,
    "prosecution": 8953,
    "drop": 4460,
    "wire": 7775,
    "creating": 2120,
    "sho@@": 2514,
    "Gab@@": 9855,
    "tariff": 4074,
    "elo@@": 9195,
    "format": 4110,
    "waters": 3875,
    "ick@@": 1606,
    "Cham@@": 8393,
    "Tribunal": 5783,
    "bi@@": 1682,
    "student": 6423,
    "Kru@@": 11725,
    "ten": 1253,
    "ull": 4370,
    "Sparhawk": 9733,
    "tenders": 6432,
    "Bon@@": 6096,
    "lets": 3203,
    "Ireland": 3166,
    "Smi@@": 11065,
    "bron@@": 10530,
    "MS": 6603,
    "Carl": 7862,
    "mi": 9285,
    "I.": 4204,
    "aside": 6334,
    "ord": 6820,
    "voluntary": 5201,
    "rubber": 6995,
    "lips": 4442,
    "rix": 9025,
    "Jacob": 9218,
    "integrated": 3510,
    "Plus": 8204,
    "ioned": 8696,
    "copies": 6762,
    "grant": 2353,
    "priorities": 3806,
    "anch@@": 8934,
    "viewed": 11946,
    "ne": 1254,
    "interrupted": 6327,
    "Child": 10584,
    "ly": 328,
    "aku@@": 12380,
    "maturity": 8529,
    "increasingly": 7399,
    "ted": 351,
    "Working": 5838,
    "bleeding": 5932,
    "assessments": 8840,
    "irt": 10548,
    "remuneration": 4328,
    "break": 1503,
    "Pre@@": 2009,
    "pot@@": 3120,
    "jail": 4745,
    "fight": 1195,
    "reputation": 5906,
    "different": 487,
    "items": 3289,
    "theory": 5887,
    "made": 224,
    "shadows": 7476,
    "Cz@@": 11764,
    "ale": 1786,
    "Authority": 1852,
    "assembly": 9709,
    "Μ@@": 13261,
    "mes": 2362,
    "tob@@": 12409,
    "Al": 5761,
    "sid@@": 3075,
    "returning": 9781,
    "ionally": 3901,
    "imped@@": 8634,
    "ion/@@": 12811,
    "iev@@": 8472,
    "allow@@": 11750,
    "Ge@@": 4598,
    "aly@@": 6218,
    "Wiz@@": 9124,
    "sanctions": 4652,
    "Den": 12889,
    "Phar@@": 10103,
    "proper@@": 12961,
    "gu": 12552,
    "lik@@": 12317,
    ",5": 7309,
    "-@@": 376,
    "exer@@": 6778,
    "exposures": 8198,
    "assess": 4806,
    "anne": 9995,
    "ght": 6172,
    "ide": 1207,
    "alu": 13038,
    "stran": 12482,
    "rak@@": 11806,
    "stating": 8779,
    "cell": 2365,
    "unfair": 8110,
    "conversation": 4464,
    "mus": 12200,
    "emphas@@": 6177,
    "values": 1522,
    "liday": 12474,
    "loud": 6741,
    "tich@@": 12710,
    "ribu@@": 13368,
    "buch@@": 13114,
    "permanent": 3086,
    "therein": 3699,
    "Hungarian": 8374,
    "Would": 2025,
    "ssing": 5855,
    "Tax@@": 11115,
    "razy": 10930,
    "somehow": 5053,
    "essence": 6460,
    "Tar@@": 4599,
    "officer": 2587,
    "Sol@@": 4338,
    "de": 732,
    "ctors": 5680,
    "flowers": 5486,
    "Know": 12252,
    "Are": 477,
    "pink": 7305,
    "/index@@": 10641,
    "think": 125,
    "": 13416,
    "gare@@": 13319,
    "trace": 10788,
    "exten@@": 10603,
    "inov@@": 13484,
    "abling": 12554,
    "seem": 2954,
    "iv@@": 1831,
    "General": 577,
    "shrugged": 7634,
    "dust@@": 11137,
    "sample": 2405,
    "vis": 1730,
    "awful": 11697,
    "Figure": 8129,
    "brow@@": 8628,
    "nut": 9609,
    "staring": 6527,
    "gun@@": 7695,
    "solution": 1716,
    "bearing": 6799,
    "competition": 1137,
    "Suc@@": 11640,
    "Energy": 4172,
    "Division": 8455,
    "'d": 219,
    "Ali@@": 7782,
    "Almost": 10657,
    "utes": 2892,
    "ide@@": 3797,
    "To@@": 2440,
    "statements": 3683,
    "help@@": 9960,
    "introduce": 4952,
    "ák": 13039,
    "Carter": 7598,
    "performance": 2068,
    "Thi@@": 10152,
    "gentlemen": 2999,
    "owner": 4501,
    "mete@@": 10329,
    "tax@@": 7048,
    "emergency": 2767,
    "Bat@@": 7712,
    "expenses": 4593,
    "or": 37,
    "ship": 547,
    "definitions": 8107,
    "cted": 1719,
    "Officer": 5503,
    "greenhouse": 7051,
    "Ther@@": 11027,
    "ety": 4890,
    "assessment": 851,
    "Ban@@": 5164,
    "one": 92,
    "mad": 2615,
    "EP": 11105,
    "bles": 6947,
    "invite": 5830,
    "cast@@": 11723,
    "Fra@@": 8390,
    "programming": 5296,
    "stam@@": 6552,
    "outta": 12058,
    "you": 10,
    "Their": 10188,
    "Background": 10521,
    "Ukra@@": 11093,
    "rates": 1871,
    "°": 2293,
    "Thor@@": 8957,
    "dismissed": 6908,
    "visual": 7423,
    "lav@@": 11584,
    "decisions": 1262,
    "icker": 9240,
    "Audit": 10760,
    "wand@@": 7859,
    "Well": 72,
    "quickly": 2313,
    "killer": 3093,
    "statutory": 6287,
    "ners": 3021,
    "recep@@": 7464,
    "house": 557,
    "proposal": 954,
    "black@@": 6909,
    "OP@@": 4671,
    "vary": 7872,
    "impairment": 4062,
    "lad@@": 3309,
    "Fen@@": 10820,
    "s/@@": 6280,
    "entirety": 7878,
    "Check": 6274,
    "citizens": 2207,
    "swit@@": 5452,
    "achieving": 3142,
    "ieve": 12577,
    "trying": 974,
    "ema@@": 9480,
    "She": 311,
    "method@@": 8283,
    "nerv@@": 7348,
    "suppliers": 6578,
    "spare": 6580,
    "Kou@@": 12264,
    "gives": 3209,
    "Polish": 5781,
    "recall": 11913,
    "compan@@": 6586,
    "fab@@": 3330,
    "update": 2527,
    "crowd": 6011,
    "mie": 11790,
    "mbo@@": 7844,
    "packed": 9833,
    "Publi@@": 11358,
    "errors": 5593,
    "cutan@@": 11649,
    "admissibility": 9906,
    "Ah": 2458,
    "resear@@": 8273,
    "sive": 1731,
    "minal": 7765,
    "evaluated": 6296,
    "wants": 979,
    "Kam": 13151,
    "lea@@": 3037,
    "Dor@@": 8019,
    "ation": 194,
    "refer": 8152,
    "finance": 4617,
    "peror": 6956,
    "spread": 5590,
    "Laura": 9476,
    "nah": 11194,
    "CO": 4904,
    "tic": 1384,
    "PR@@": 5556,
    "ind@@": 5755,
    "loss": 2070,
    "value": 633,
    "Germany": 1797,
    "wat@@": 7461,
    "fying": 1101,
    "Instance": 9972,
    "identifying": 5378,
    "About": 8001,
    "framework": 1158,
    "bag": 2896,
    "Therefore": 2032,
    "Commission@@": 10811,
    "Jam@@": 6290,
    "jim": 13520,
    "commit@@": 11287,
    "econ@@": 11420,
    "productive": 7739,
    "original": 1706,
    "cam@@": 3131,
    "incl@@": 10594,
    "gently": 9139,
    "Which": 2951,
    "Fili@@": 12275,
    "fashion": 9057,
    "gradu@@": 2532,
    "Chem@@": 7892,
    "ments": 941,
    "Keep": 3192,
    "aft": 8224,
    "wall": 1977,
    "impact": 969,
    "Gla@@": 9036,
    "amoun@@": 5228,
    "Regulations": 3134,
    "corner": 3702,
    "Mainten@@": 13101,
    "container": 8334,
    "‑@@": 4559,
    "Cro@@": 5760,
    "šk@@": 12868,
    "humanit@@": 8893,
    "wise": 6863,
    "id@@": 689,
    "amat@@": 10739,
    "improve": 3543,
    "six@@": 9052,
    "lings": 8728,
    "rail@@": 10850,
    "≤": 9362,
    "em@@": 699,
    "Sit": 5598,
    "operating": 1864,
    "company": 569,
    "Anna": 6555,
    "immun@@": 7533,
    "analysed": 8160,
    "hub@@": 12548,
    "Marcus": 10133,
    "acquired": 3712,
    "sko@@": 12744,
    "sses": 5839,
    "extrem@@": 13117,
    "ESF": 5185,
    "Foun@@": 8497,
    "six": 1034,
    "field": 914,
    "rele@@": 11213,
    "struck": 7667,
    "satellite": 7103,
    "trusted": 7627,
    "employed": 4400,
    "Cha@@": 4955,
    "inions": 12003,
    "Hod@@": 11246,
    "lete": 10095,
    "queen": 6591,
    "ournal": 11232,
    "der@@": 1710,
    "consulting": 6783,
    "comprehen@@": 11223,
    "amer@@": 12607,
    "birth@@": 11714,
    "rant": 9817,
    "Vero@@": 10568,
    "prices": 1091,
    "anian": 6342,
    "Reporting": 9454,
    "д@@": 13395,
    "committees": 8391,
    "difficul@@": 13566,
    "Bay@@": 8997,
    "crops": 8487,
    "zan@@": 11365,
    "u": 1407,
    "longer": 893,
    "over@@": 694,
    "Sud@@": 9491,
    "inal": 2021,
    "tac@@": 4170,
    "osla@@": 13408,
    "contracts": 1820,
    "dly": 3051,
    "reimbursement": 10116,
    "Mol@@": 8547,
    "det@@": 3375,
    "7": 131,
    "chil@@": 5888,
    "dom": 4377,
    "alize": 11461,
    "new": 223,
    "requesting": 7591,
    "É@@": 10868,
    "plus": 3291,
    "ktor": 11533,
    "Era@@": 9806,
    "ond": 6626,
    "robi@@": 11326,
    "fon@@": 6311,
    "rum": 11020,
    "_en@@": 10173,
    "vé@@": 13013,
    "ths": 2747,
    "defend": 6976,
    "extremely": 7629,
    "demand": 3027,
    "aw@@": 2318,
    "posures": 13294,
    "�": 13349,
    "elds": 7382,
    "one@@": 9757,
    "arity": 3884,
    "til": 11757,
    "party": 582,
    "roc@@": 8938,
    "Sig@@": 6800,
    "remembered": 4302,
    "proud": 3431,
    "ux": 9460,
    "rist": 5204,
    "d": 411,
    "Gro@@": 3236,
    "means": 424,
    "silly": 11862,
    "Courts": 9188,
    "Cmax": 10390,
    "ping": 1655,
    "states": 2497,
    "Tribun@@": 12129,
    "flesh": 9866,
    "ider": 6872,
    "stayed": 4633,
    "isation": 3063,
    "deli@@": 11705,
    "pry@@": 12641,
    "remember": 726,
    "dim@@": 5490,
    "spr@@": 10221,
    "Grand": 7836,
    "Summary": 8701,
    "rt@@": 3597,
    "eck": 10583,
    "ports": 4657,
    "aron": 6426,
    "refu@@": 11859,
    "presentation": 6999,
    "collect": 9735,
    "list": 769,
    "ital": 4105,
    "ina": 1602,
    "Requi@@": 7398,
    "DEC@@": 9722,
    "hereby": 3756,
    "nek": 13078,
    "mechanism": 3417,
    "ný": 13278,
    "Professor": 7818,
    "pup@@": 5505,
    "Full": 11275,
    "ring": 1695,
    "brings": 6627,
    "bar@@": 1597,
    "ata": 6546,
    "Indon@@": 9141,
    "grew": 5189,
    "Rob@@": 6949,
    "oty@@": 10576,
    "lodged": 2709,
    "lus@@": 10554,
    "tially": 13213,
    "Vo@@": 7181,
    "Si@@": 3122,
    "your@@": 13276,
    "α@@": 11163,
    "pat@@": 1924,
    "iry": 5419,
    "mirror": 6727,
    "procedures": 807,
    "gen@@": 1344,
    "Tw@@": 11208,
    "Maintenance": 5519,
    "IF@@": 4260,
    "ully": 9737,
    "‘@@": 12184,
    "acid": 2983,
    "confer@@": 8014,
    "engaged": 5894,
    "Amer@@": 12014,
    "property": 1150,
    "Son@@": 8102,
    "super": 9133,
    "feature": 10938,
    "nit@@": 2521,
    "dar@@": 4710,
    "yc@@": 3754,
    "Proced@@": 10680,
    "lia": 8914,
    "dod@@": 11494,
    "understanding": 3887,
    "ran@@": 1106,
    "sist": 5684,
    "blin@@": 6364,
    "sen": 2616,
    "Things": 11661,
    "Blo@@": 9975,
    "sale": 2600,
    "Huh": 11159,
    "û@@": 12971,
    "nah@@": 12769,
    "non@@": 4799,
    "ean": 11938,
    "technology": 2309,
    "card": 2307,
    "Pav@@": 11409,
    "may@@": 7463,
    "ω@@": 12955,
    "Chamber": 4575,
    "individually": 7511,
    "manufactur@@": 13288,
    "transactions": 2299,
    "rin": 9566,
    "intelligence": 7077,
    "quest": 7660,
    "nic@@": 4287,
    "(1)(a": 7852,
    "Caro@@": 11052,
    "laid": 405,
    "Western": 8195,
    "placing": 3569,
    "chal": 12756,
    "combined": 4724,
    "Instal@@": 10912,
    "ban@@": 1828,
    "AB": 9962,
    "nu@@": 2611,
    "next": 640,
    "enhan@@": 12122,
    "bli@@": 7690,
    "WTO": 7938,
    "annex": 10424,
    "compared": 1974,
    "sever@@": 6485,
    "ligent": 7236,
    "far": 509,
    "wet": 5614,
    "signific@@": 13472,
    "seed": 5430,
    "mann": 8512,
    "explod@@": 10433,
    "igh": 9307,
    "cares": 7177,
    "Kel@@": 8243,
    "sv@@": 7771,
    "Everybody": 5275,
    "movie": 2770,
    "EX@@": 3574,
    "Chi@@": 6295,
    "wards": 3350,
    "commander": 5339,
    "dissemin@@": 8431,
    "Hi": 770,
    "pro@@": 479,
    "disaster": 8614,
    "ress": 5059,
    "icity": 7123,
    "care": 482,
    "indi@@": 8740,
    "king@@": 7584,
    "establish": 2647,
    "RE@@": 1249,
    "restruct@@": 12689,
    "ill": 1551,
    "UC@@": 5937,
    "arities": 11580,
    "vou@@": 10992,
    "oret@@": 8884,
    "suspended": 4690,
    "programmes": 1074,
    "counted": 9154,
    "server@@": 12957,
    "ster": 2463,
    "clinical": 2104,
    "ision": 5741,
    "ree": 5599,
    "Jer@@": 9572,
    "other": 109,
    "properties": 4273,
    "solid": 5037,
    "ie": 1114,
    "infection": 5062,
    "Aid": 2916,
    "ions": 1185,
    "Derek": 10042,
    "reporting": 2217,
    "power": 808,
    "aded": 5473,
    "URE": 5803,
    "revenues": 9396,
    "crying": 6089,
    "doz@@": 12193,
    "paint": 6454,
    "Monday": 6720,
    "Mid@@": 6162,
    "story": 1726,
    "environment@@": 10167,
    "corresponding": 3565,
    "Evaluation": 6819,
    "scrip@@": 9278,
    "page": 2033,
    "manual": 8343,
    "thanks": 3600,
    "gging": 3163,
    "Forget": 8259,
    "ff@@": 1414,
    "Zad@@": 12883,
    "chment": 11355,
    "villa@@": 9713,
    "convince": 7676,
    "ECR": 2468,
    "titles": 10704,
    "tery": 4065,
    "dumped": 5578,
    "lite": 11544,
    "zie": 11157,
    "ass": 1309,
    "natural": 1169,
    "prod@@": 12973,
    "ulu": 11433,
    "smus": 11401,
    "nul@@": 8225,
    "NP@@": 11775,
    "what": 47,
    "taxation": 6617,
    "causing": 9974,
    "supports": 5388,
    "Organ@@": 3869,
    "You@@": 7923,
    "clo@@": 1491,
    "bru@@": 3961,
    "freez@@": 11068,
    "ct": 1724,
    "tren@@": 12034,
    "ches": 1450,
    "volunte@@": 5905,
    "men@@": 2516,
    "cher@@": 10168,
    "Enterprise": 8036,
    "Smith": 6639,
    "ys": 1232,
    "Nav@@": 4895,
    "Je@@": 2198,
    "fucked": 4873,
    "TEN": 11345,
    "ř@@": 12557,
    "Ann": 10697,
    "pretend": 6806,
    "murdered": 5817,
    "pra@@": 1935,
    "inv@@": 1960,
    "observations": 4061,
    "hou": 12170,
    "referred": 1328,
    "lem": 10837,
    "quick": 4863,
    "cle": 5387,
    "zky": 12861,
    "for@@": 886,
    "Half": 11908,
    "delivered": 3805,
    "Commission": 105,
    "zim@@": 13004,
    "Frank": 3376,
    "sleep": 1222,
    "ace": 4132,
    "hope": 939,
    "dows": 12740,
    "pleas@@": 11496,
    "develop": 4208,
    "the": 6,
    "ut": 3310,
    "servations": 9038,
    "appeals": 9571,
    "standard": 1357,
    "screwed": 9992,
    "oce@@": 11294,
    "On": 526,
    "Spo@@": 9461,
    "s@@": 199,
    "Affairs": 5460,
    "w": 835,
    "arms": 2830,
    "shock": 6330,
    "Michael": 3035,
    "repeated": 4637,
    "surance": 12376,
    "Me@@": 2737,
    "built": 3257,
    "sexu@@": 11360,
    "Bre@@": 3896,
    "unior": 9856,
    "gence": 8246,
    "ovi": 12849,
    "needed": 1385,
    "ting": 390,
    "su@@": 755,
    "Protocol": 2300,
    "Guidelines": 3945,
    "dest": 6695,
    "marks": 2908,
    "ipul@@": 13482,
    "The@@": 7425,
    "prevention": 4830,
    "under": 141,
    "stup@@": 11160,
    "CEN": 4687,
    "TAB@@": 12528,
    "West": 4102,
    "advanced": 6227,
    "ept": 12139,
    "Shall": 8714,
    "ordinary": 3352,
    "aby@@": 7012,
    "held": 933,
    "Ms": 9487,
    "defic@@": 11685,
    "Dav@@": 6798,
    "ta@@": 1612,
    "placebo": 4178,
    "variety": 9318,
    "eventually": 9875,
    "Produ@@": 7819,
    "iew": 9323,
    "ono": 12145,
    "listen": 1307,
    "smile": 3104,
    "hyper@@": 3861,
    "will": 87,
    "Basic": 10580,
    "mon@@": 865,
    "mom": 1280,
    "idly": 12646,
    "complet@@": 13279,
    "pension": 3248,
    "hunting": 7557,
    "coordination": 3572,
    "mmol": 9790,
    "implications": 10758,
    "stuffs": 9886,
    "Len@@": 6282,
    "embar@@": 10677,
    "prin@@": 6143,
    "ousness": 5446,
    "Press": 10253,
    "col@@": 965,
    "winning": 10295,
    "bott@@": 7555,
    "grants": 3739,
    "pse": 6418,
    "audi@@": 12822,
    "5@@": 84,
    "Each": 2856,
    "representation": 6331,
    "rect": 8426,
    "For@@": 1946,
    "cuse": 12928,
    "prim@@": 8085,
    "tou@@": 3298,
    "OH@@": 12082,
    "Air": 5257,
    "ű@@": 13303,
    "~@@": 8092,
    "resulting": 2184,
    "regener@@": 10398,
    "vement": 12361,
    "Ex@@": 1095,
    "Regional": 2285,
    "ER": 3461,
    "unlawful": 6523,
    "Competition": 7000,
    "title": 5130,
    "idel@@": 7733,
    "him": 78,
    "lut@@": 7843,
    "Bruce": 10080,
    "finds": 4081,
    "ended": 1784,
    "poli@@": 10045,
    "buil@@": 10628,
    "Registry": 8476,
    "alised": 3480,
    "Korea": 7896,
    "ā": 12995,
    "Air@@": 6422,
    "desk": 5186,
    "xt": 12869,
    "thre@@": 9429,
    "SV@@": 11807,
    "Sky@@": 9917,
    "ged": 966,
    "contracting": 4149,
    "corrid@@": 11051,
    "Paci@@": 9275,
    "tered": 1821,
    "important": 562,
    "bloody": 7548,
    "amaz@@": 10298,
    "gods": 6245,
    "emp@@": 3545,
    "nature": 1543,
    "Just": 360,
    "Hol@@": 2659,
    "water": 619,
    "contin@@": 8785,
    "Boy@@": 11109,
    "lap@@": 6160,
    "Calm": 6536,
    "sure": 332,
    "rob@@": 2204,
    "redit@@": 12723,
    "alth": 9096,
    "enz@@": 9694,
    "whoever": 8362,
    "dinner": 2030,
    "Associ@@": 11217,
    "biocid@@": 10304,
    "opat@@": 11142,
    "ing": 113,
    "promise": 2162,
    "ona": 6832,
    "load": 2427,
    "exercise": 3226,
    "asi": 11522,
    "voice": 1274,
    "twice": 2557,
    "tive": 1451,
    "uch@@": 8731,
    "health": 908,
    "get": 137,
    "Copy": 11632,
    "br@@": 1685,
    "excep@@": 10812,
    "antit@@": 12575,
    "inti@@": 5453,
    "gover@@": 7291,
    "lah": 8681,
    "ų": 12648,
    "head": 500,
    "kon": 12210,
    "certi@@": 8448,
    "šek": 13046,
    "authorising": 8776,
    "SA@@": 4584,
    "bia": 6902,
    "parano@@": 10532,
    "recalled": 10540,
    "||": 2591,
    "render": 7213,
    "vul@@": 7924,
    "NN": 11464,
    "þ": 13209,
    "named": 3606,
    "erial": 8344,
    "darling": 4674,
    "path": 3614,
    "uto": 12656,
    "curr@@": 11539,
    "confusion": 7637,
    "standard@@": 11755,
    "DY": 13200,
    "Ö@@": 11216,
    "ps": 1523,
    "Stro@@": 12196,
    "Josh": 9706,
    "bid@@": 5170,
    "firms": 6904,
    "Exactly": 9867,
    "gal@@": 6673,
    "much": 286,
    "н@@": 13068,
    "DVD": 11306,
    "ron": 2272,
    "bust@@": 11982,
    "establishing": 1191,
    "expressly": 5875,
    "inations": 7487,
    "itly": 12079,
    "FROM": 9580,
    "direction": 3245,
    "arrested": 6549,
    "CFSP": 4583,
    "Kre@@": 11482,
    "icht": 12124,
    "positive": 2667,
    "Global": 8265,
    "comparable": 4415,
    "Any": 2789,
    "performed": 4655,
    "attend": 10553,
    "kick": 6036,
    "ld@@": 11555,
    "liquidity": 7553,
    "Authorisation": 8653,
    "high": 651,
    "ourable": 13290,
    "reli@@": 2687,
    "d'@@": 10473,
    "pale": 6478,
    "deteri@@": 7448,
    "main@@": 9632,
    "Brussels": 1263,
    "Agency": 1588,
    "nobody": 8609,
    "ч": 13152,
    "Ä@@": 12916,
    "reserves": 8725,
    "shareholders": 7778,
    "continuous": 6735,
    "www.@@": 7129,
    "refriger@@": 8613,
    "materi@@": 10397,
    "›": 12117,
    "Opinion": 5443,
    "vice": 8887,
    "involved": 1235,
    "beautiful": 950,
    "lymp@@": 11488,
    "EMEN@@": 5752,
    "equality": 7915,
    "ED": 4731,
    "appli@@": 6954,
    "rance": 12225,
    "increase": 1009,
    "lawful": 11615,
    "intra": 7217,
    "aled": 7867,
    "clarify": 11418,
    "possible": 460,
    "endo@@": 10370,
    "Commitments": 2640,
    "Anton@@": 9636,
    "expl@@": 3477,
    "only": 144,
    "need@@": 7288,
    "Anth@@": 10859,
    "ele": 9432,
    "excited": 7260,
    "sur@@": 1286,
    "cellent": 10639,
    "sto": 11906,
    "atic": 3239,
    "administrative": 1010,
    "both": 474,
    "ental": 2643,
    "Finally": 4692,
    "lying": 2569,
    "report": 578,
    "nin": 11769,
    "ki@@": 11397,
    "Sev@@": 11195,
    "markets": 1842,
    "articles": 3486,
    "Tot@@": 12286,
    "grouping": 11788,
    "AD": 6136,
    "biggest": 6493,
    "headings": 5308,
    "blade": 8877,
    "timely": 6910,
    "Sur@@": 6105,
    "aviation": 7471,
    "vel@@": 3923,
    "region": 2534,
    "onto": 3300,
    "Jay": 9919,
    "compati@@": 12347,
    "Dis@@": 1953,
    "Goodbye": 9764,
    "Long": 8583,
    "changes": 1082,
    "her": 90,
    "facing": 8545,
    "liter@@": 4809,
    "Be@@": 1910,
    "Henry": 4063,
    "Dre@@": 8954,
    "lig@@": 5086,
    "alcohol": 4536,
    "iser": 9700,
    "wron@@": 10354,
    "Zak@@": 11646,
    "CV@@": 10848,
    "limin@@": 12231,
    "Sci@@": 8787,
    "attachment": 9219,
    "dust": 5249,
    "Queen": 5756,
    "ύ@@": 12629,
    "market": 282,
    "(3)(@@": 8650,
    "kor@@": 12069,
    "rear": 8795,
    "tier": 8967,
    "camera": 4060,
    "iona": 11506,
    "writing": 2412,
    "barely": 4544,
    "constra@@": 7319,
    "cessive": 11598,
    "arly": 4007,
    "ror": 4376,
    "Exam@@": 10053,
    "controls": 3501,
    "convic@@": 5799,
    "POR@@": 8541,
    "troub@@": 6870,
    "Tem@@": 5945,
    "itious": 8532,
    "Claud@@": 10981,
    "rish": 11765,
    "amb@@": 6579,
    "Ly@@": 4551,
    "soci@@": 3720,
    "successfully": 6109,
    "Amen": 12686,
    "Here": 992,
    "history": 2757,
    "knowledge": 1796,
    "fisheries": 4518,
    "ount": 9256,
    "tick@@": 11669,
    "derivatives": 7997,
    "li": 4463,
    "DC": 8606,
    "locate": 10518,
    "Help": 4763,
    "lod@@": 7635,
    "agenda": 7015,
    "B@@": 192,
    "Scott": 7442,
    "agency": 3988,
    "Ander@@": 10467,
    "ivo": 10893,
    "college": 5280,
    "aster": 9565,
    "po": 7602,
    "accepted": 2335,
    "interoperability": 7720,
    "ENER@@": 9035,
    "cking": 3775,
    "jour@@": 5384,
    "Fro@@": 8244,
    "tap@@": 8489,
    "offic@@": 11414,
    "shift": 8125,
    "merger": 6376,
    "cam": 11633,
    "coh@@": 10331,
    "hat": 5407,
    "keys": 3472,
    "summary": 3969,
    "however": 1234,
    "kol@@": 12667,
    "aliz@@": 4543,
    "son@@": 4744,
    "ware@@": 5525,
    "Oral": 8151,
    "peace": 2763,
    "dump@@": 12449,
    "PO": 11404,
    "do@@": 1011,
    "ups": 6680,
    "schedule": 8437,
    "restricted": 7738,
    "appreci@@": 8083,
    "ses@@": 11578,
    "ening": 2317,
    "eutic": 7893,
    "ini": 8016,
    "debt": 2188,
    "thous@@": 13218,
    "Wh@@": 771,
    "EFTA": 4125,
    "Madam": 11736,
    "questions": 1140,
    "sm@@": 2379,
    "ext@@": 4855,
    "Life": 9178,
    "van@@": 4414,
    "Family": 10040,
    "Applicable": 4974,
    "filed": 7468,
    "freezing": 8994,
    "HS": 7805,
    "Appro@@": 7813,
    "Ci@@": 10445,
    "pointed": 1941,
    "COM": 11090,
    "ative": 1154,
    "pic@@": 6746,
    "influ@@": 7869,
    "modification": 11118,
    "option": 2363,
    "Because": 1964,
    "employee": 6244,
    "decisive": 5640,
    "rol": 4579,
    "China": 3478,
    "capsu@@": 6547,
    "ient@@": 9518,
    "scare": 9593,
    "okie": 8854,
    "investigation": 1061,
    "players": 9020,
    "threatened": 8993,
    "stuck": 4566,
    "accoun@@": 4828,
    "taking": 491,
    "b": 260,
    "amin@@": 7203,
    "princi@@": 10666,
    "thering": 6108,
    "K": 1993,
    "Think": 7016,
    "idence": 11930,
    "pushed": 6662,
    "Lis@@": 11672,
    "continues": 9590,
    "ghter": 3101,
    "ment": 871,
    "emoc@@": 8858,
    "directed": 7107,
    "once": 653,
    "bus": 3662,
    "registration": 2547,
    "weird": 2351,
    "ur@@": 608,
    "ð@@": 12638,
    "character": 2864,
    "facilitate": 7081,
    "Elena": 9324,
    "tim@@": 6402,
    "credit@@": 8972,
    "crossing": 9145,
    "growing": 4262,
    "ending": 1823,
    "ghtly": 4611,
    "Op@@": 3560,
    "ACP": 7185,
    "for": 13,
    "duly": 4603,
    "compensation": 1379,
    "lie": 1637,
    "Stone": 10136,
    "Schengen": 6482,
    "hy": 7845,
    "Photo": 10973,
    "MP@@": 8384,
    "unk": 3933,
    "ZZ@@": 10683,
    "implement": 4217,
    "positions": 5347,
    "Directive": 274,
    "them@@": 4469,
    "degra@@": 9941,
    "phys@@": 4291,
    "Johnson": 9163,
    "tec@@": 12206,
    "tend": 11318,
    "o'clock": 8662,
    "ter": 678,
    "Unable": 12530,
    "organi@@": 11173,
    "preclud@@": 8017,
    "ders": 2102,
    "intermedi@@": 4010,
    "impa@@": 8652,
    "great": 448,
    "declaration": 2581,
    "initiative": 2787,
    "cro@@": 2222,
    "restructuring": 2888,
    "ita": 4254,
    "Royal": 9471,
    "formalities": 8033,
    "falls": 5381,
    "ould": 12270,
    "mately": 8130,
    "conne@@": 3504,
    "urban": 5797,
    "oba": 12531,
    "connect": 7611,
    "kill": 646,
    "devices": 2775,
    "lers": 4016,
    "xi@@": 7483,
    "≥": 7384,
    "bucks": 6702,
    "Letter": 9498,
    "Rebec@@": 10347,
    "dimension": 6500,
    "Comple@@": 6877,
    "silent": 6106,
    "plu@@": 6139,
    "Tonight": 11478,
    "final": 925,
    "would": 103,
    "Pack@@": 10061,
    "ure": 1052,
    "that@@": 11955,
    "DEM": 11617,
    "norm@@": 13073,
    "hun@@": 4410,
    "throat": 5606,
    "wind": 2671,
    "zom@@": 10672,
    "Tou@@": 10696,
    "electricity": 2862,
    "clar@@": 12731,
    "ponese": 13517,
    "four": 805,
    "del": 7497,
    "che": 5244,
    "kle@@": 12372,
    "afraid": 967,
    "emit@@": 12346,
    "e.@@": 8980,
    "’ve": 12742,
    "Go": 670,
    "Young": 8852,
    "allerg@@": 11444,
    "whether": 461,
    "Head": 9724,
    "en@@": 276,
    "Im@@": 2172,
    "OR@@": 1903,
    "haw@@": 12407,
    "second": 538,
    "hotel@@": 11082,
    "targets": 5234,
    "apter": 10292,
    "hood": 3351,
    "lan": 3082,
    "Look": 478,
    "weak@@": 3179,
    "itab@@": 10746,
    "risks": 2099,
    "Coun@@": 3926,
    "mation": 8911,
    "ovina": 9456,
    "great@@": 10349,
    "nep@@": 10271,
    "organised": 4789,
    "kro@@": 10957,
    "Franc@@": 9489,
    "ovo": 9860,
    "continue": 1932,
    "Secretary": 5762,
    "argument@@": 13583,
    "HR": 7735,
    "andid@@": 11155,
    "icans": 11977,
    "ort": 9451,
    "done": 514,
    "domin@@": 5043,
    "humans": 4358,
    "HA": 8499,
    "elihood": 13133,
    "putting": 4892,
    "ction@@": 5764,
    "ak@@": 1282,
    "bance": 11768,
    "Taliban": 8767,
    "UN@@": 2691,
    "Nob@@": 10145,
    "dings": 10284,
    "enterprises": 2651,
    "AF@@": 9738,
    "til@@": 8372,
    "libr@@": 11263,
    "wor@@": 1686,
    "problem": 777,
    "neh@@": 13153,
    "play": 970,
    "ature": 3905,
    "praz@@": 12010,
    "dot@@": 12106,
    "Ltd": 7569,
    "chief": 5203,
    "infring@@": 5375,
    "obstac@@": 9134,
    "missi@@": 5561,
    "mig@@": 12938,
    "mark@@": 4717,
    "ostat@@": 11863,
    "desp@@": 4971,
    "spla@@": 11451,
    "handed": 5916,
    "April": 1405,
    "ctional": 12289,
    "fortun@@": 7324,
    "driving": 3018,
    "itability": 11362,
    "eh": 11391,
    "since": 415,
    "released": 4292,
    "tov@@": 12075,
    "obs": 9981,
    "knowing": 6019,
    "claimant": 10101,
    "ca": 222,
    "tory": 8788,
    "Chin@@": 11902,
    "factors": 2492,
    "vise": 5626,
    "abil@@": 8786,
    "perf@@": 12059,
    "intraven@@": 7240,
    "moments": 8414,
    "etic": 8318,
    "Swiss": 6576,
    "starting": 2308,
    "refusal": 7477,
    "prison": 3172,
    "closure": 8920,
    "emia": 4355,
    "Notes": 6574,
    "ord@@": 2722,
    "Lux@@": 12746,
    "Vari@@": 11550,
    "yed": 4240,
    "version": 2324,
    "serv@@": 2673,
    "happening": 5216,
    "interfe@@": 10111,
    "brilliant": 11084,
    "nolog@@": 11680,
    "vu": 12747,
    "symbo@@": 11007,
    "е@@": 13012,
    "&": 2924,
    "cise": 7554,
    "agent@@": 12722,
    "liv@@": 6583,
    "Pe@@": 4103,
    "boyfriend": 3766,
    "neigh@@": 6854,
    "nim@@": 12878,
    "Ir@@": 7625,
    "ghty": 11210,
    "MR@@": 7211,
    "spap@@": 13206,
    "grin@@": 10485,
    "popular": 7608,
    "significantly": 3032,
    "nine": 3292,
    "cker": 5529,
    "harmonised": 4612,
    "determining": 2580,
    "talent": 6817,
    "prior": 3755,
    "control": 517,
    "Zel@@": 11917,
    "Brad@@": 10556,
    "rist@@": 6179,
    "Specific": 7073,
    "approach": 1799,
    "ception": 9315,
    "Earth": 2683,
    "blu@@": 6130,
    "¡": 13577,
    "ples": 5941,
    "inky": 11411,
    "medium": 2233,
    "rom@@": 9857,
    "disposal": 4220,
    "silver": 5858,
    "abuse": 8181,
    "dry": 3295,
    "avy": 12060,
    "Mech@@": 12946,
    "after@@": 6573,
    "indeed": 6624,
    "itim@@": 12936,
    "ře@@": 13208,
    "boys": 1870,
    "inserted": 7066,
    "presents": 11012,
    "customs": 1579,
    "color": 4070,
    "ego": 9054,
    "aran@@": 11215,
    "exceed": 2203,
    "sky": 2399,
    "Klu@@": 12909,
    "Jak@@": 11866,
    "Measures": 11025,
    "Ã@@": 13475,
    "ln": 6134,
    "technolog@@": 12246,
    "airport": 3118,
    "find": 304,
    "fea@@": 6768,
    "ake": 2710,
    "consolid@@": 11389,
    "uru": 12431,
    "admi@@": 5450,
    "clea@@": 11740,
    "„": 13300,
    "Could": 3568,
    "environment": 1460,
    "Tol@@": 10964,
    "posing": 7522,
    "object": 2548,
    "growth": 1553,
    "pos@@": 4024,
    "Rest@@": 5424,
    "Little": 7847,
    "BS": 10131,
    "loan": 3416,
    "estimate": 6144,
    "iling": 3177,
    "dl": 9944,
    "bri@@": 3173,
    "rent@@": 12753,
    "runs": 8462,
    "girls": 1747,
    "Presid@@": 7863,
    "sat": 2221,
    "Now": 624,
    "tunnel": 7138,
    "ances": 3274,
    "assessed": 2281,
    "opti@@": 7202,
    "pla@@": 2108,
    "CR@@": 7549,
    "select": 3645,
    "rett": 9759,
    "pal@@": 2529,
    "annu@@": 8159,
    "Mediterranean": 6776,
    "plot": 12024,
    "ón": 9274,
    "ayed": 8347,
    "Čer@@": 13575,
    "neu@@": 10059,
    "Af@@": 10434,
    "heal@@": 7458,
    "zen@@": 9824,
    "star@@": 3576,
    "entary": 6980,
    "0": 50,
    "5": 93,
    "blist@@": 8388,
    "prepar@@": 13407,
    "Italy": 2694,
    "aero@@": 8165,
    "manufacturing": 7221,
    "ission@@": 7642,
    "fit@@": 9289,
    "LO@@": 3116,
    "integra@@": 8693,
    "tened": 4393,
    "eutical": 5822,
    "Google": 10763,
    "noted": 2442,
    "pati@@": 7404,
    "ø": 12830,
    "reci@@": 10246,
    "flexibility": 8070,
    "deeply": 9619,
    "Without": 6550,
    "poc@@": 12355,
    "ver@@": 1162,
    "cap@@": 2200,
    "arbitration": 5919,
    "sman": 4664,
    "inter@@": 698,
    "won@@": 11112,
    "south": 4722,
    "millions": 7042,
    "gener@@": 2631,
    "excluded": 3382,
    "effective": 1000,
    "EN.01000@@": 7850,
    "normally": 3313,
    "born": 1890,
    "fur@@": 4056,
    "ans": 743,
    "egg": 7916,
    "ante": 7393,
    "denied": 9842,
    "Ever@@": 11512,
    "ulo@@": 12621,
    "Private": 9708,
    "Contact": 9549,
    "peri@@": 4429,
    "Al@@": 826,
    "Anal@@": 11341,
    "umin@@": 11274,
    "world@@": 13044,
    "ili": 11107,
    "atin@@": 9761,
    "holds": 5886,
    "gement": 10011,
    "Program@@": 7717,
    "financial": 324,
    "heat": 3604,
    "charged": 4591,
    "confirm": 5942,
    "Tony": 5485,
    "syn@@": 3922,
    "attac@@": 9844,
    "toward": 1669,
    "TED": 8591,
    "poor": 2448,
    "ple@@": 2145,
    "stad@@": 11353,
    "ava": 11442,
    "pants": 4509,
    "Dev@@": 5251,
    "impossible": 3644,
    "t": 226,
    "gold": 2837,
    "'re": 59,
    "confir@@": 5319,
    "sharp": 4924,
    "ause": 10429,
    "mouth": 1722,
    "counter": 8247,
    "letter": 1461,
    "rod": 11359,
    "dead@@": 9474,
    "*": 669,
    "assessm@@": 13062,
    "Preg@@": 10416,
    "economies": 9853,
    "pout@@": 13329,
    "imper@@": 10534,
    "Syl@@": 10713,
    "Romania": 4275,
    "http://www.@@": 4885,
    "ná": 13439,
    "temper@@": 9726,
    "Lam@@": 8087,
    "stac@@": 11373,
    "updated": 4147,
    "Contro@@": 10519,
    "ja@@": 7017,
    "obtaining": 6081,
    "bie": 6231,
    "bys": 13417,
    "asylum": 6562,
    "://@@": 12501,
    "repe@@": 5326,
    "THER": 9522,
    "ná@@": 12727,
    "new@@": 5864,
    "uni@@": 4345,
    "Croatia": 7640,
    "K@@": 306,
    "Mick@@": 10994,
    "flower": 8958,
    "keep": 666,
    "tg@@": 11189,
    "Manag@@": 10036,
    "Fol@@": 9427,
    "accessible": 5909,
    "reflect": 7264,
    "No": 80,
    "counts": 8408,
    "each": 348,
    "Proces@@": 12880,
    "incorporated": 6308,
    "Nec@@": 12023,
    "due": 1164,
    "Even": 1534,
    "walk": 2195,
    "lars": 10203,
    "quota": 3960,
    "Bran@@": 6419,
    "iat@@": 9267,
    "Sem@@": 10922,
    "max": 10524,
    "epiz@@": 12933,
    "me@@": 1586,
    "Mm": 4784,
    "Or@@": 3767,
    "kiss": 3516,
    "usu@@": 12411,
    "Implement@@": 13537,
    "Pou@@": 11855,
    "lace": 10212,
    "Dim@@": 10077,
    "Am": 7014,
    "hell": 873,
    "shing": 1595,
    "dit": 7686,
    "S.@@": 4636,
    "foreg@@": 11957,
    "involvement": 7802,
    "categor@@": 11804,
    "Call": 4835,
    "explained": 3441,
    "mé@@": 12140,
    "tys": 13473,
    "South": 3799,
    "TER@@": 10256,
    "Conf@@": 10258,
    "tek": 12794,
    "deemed": 7456,
    "Constitution": 6377,
    "Rome": 6072,
    "Dal@@": 7741,
    "itation": 3796,
    "sight": 3038,
    "spec@@": 2811,
    "tested": 4672,
    "vid@@": 7616,
    "long": 293,
    "selling": 2974,
    "her@@": 2083,
    "curious": 8237,
    "smi@@": 10933,
    "introduction": 6091,
    "tik": 12884,
    "aspects": 3432,
    "Pharmac@@": 5907,
    "coach": 10695,
    "hepatic": 6888,
    "transfer@@": 6023,
    "hab@@": 5011,
    "enterprise": 6822,
    "dogs": 4301,
    "waiting": 1181,
    "FF": 8061,
    "audits": 7419,
    "laun@@": 8921,
    "please": 513,
    "enforcement": 1538,
    "SI@@": 3343,
    "Pla@@": 4388,
    "Lim@@": 8581,
    "ü": 13382,
    "levy": 10945,
    "f": 682,
    "head@@": 2395,
    "lowing": 6024,
    "D.": 6514,
    "Jersey": 10775,
    "ask@@": 10596,
    "youth": 6399,
    "allowance": 5733,
    "NR@@": 9816,
    "corresponds": 10990,
    "istan": 8505,
    "ago": 796,
    "remained": 4130,
    "shine": 10146,
    "Pull": 9347,
    "tight": 6537,
    "ks": 947,
    "cetax@@": 12115,
    "zes@@": 13383,
    "Incre@@": 7054,
    "stit@@": 5820,
    "around": 484,
    "kum@@": 12351,
    "pad": 11668,
    "met": 887,
    "ums": 7718,
    "supplies": 5508,
    "TM@@": 10996,
    "hob@@": 8090,
    "increases": 5821,
    "pie": 8651,
    "provided": 255,
    "nab@@": 11227,
    "Sav@@": 10486,
    "ID@@": 4303,
    "fold": 8839,
    "Afghanistan": 8040,
    "Dist@@": 9797,
    "ember": 13180,
    "jected": 6664,
    "progres@@": 9683,
    "asts": 6625,
    "illegal": 4326,
    "Od@@": 10943,
    "Gover@@": 5617,
    "SI": 8427,
    "Eng@@": 6728,
    "twel@@": 12640,
    "anne@@": 10144,
    "adequately": 9465,
    "bringing": 4033,
    "lik": 13023,
    "rights": 692,
    "safety": 896,
    "reduction": 1426,
    "transport": 952,
    "dig": 9395,
    "polit@@": 3854,
    "institutions": 1196,
    "possibility": 1369,
    "trapped": 8995,
    "ca@@": 1221,
    "ority": 7472,
    "laugh@@": 12080,
    "resh": 9935,
    "lé@@": 10798,
    "indu@@": 4743,
    "intends": 12285,
    "ving": 1718,
    "div@@": 3974,
    "monitoring": 1392,
    "Paris": 3978,
    "c@@": 215,
    "L@@": 249,
    "ax@@": 3060,
    "chlorothiaz@@": 12032,
    "perman@@": 8322,
    "Isl@@": 7990,
    "categories": 3076,
    "Viet@@": 7830,
    "kut@@": 13256,
    "Ru@@": 4572,
    "annexed": 11565,
    "Take": 710,
    "licen@@": 5222,
    "vacc@@": 5221,
    "ambul@@": 8623,
    "sin": 5125,
    "Di@@": 1619,
    "recommends": 7039,
    "produk@@": 13224,
    "posed@@": 11582,
    "Jud@@": 5029,
    "ell@@": 11517,
    "spar@@": 5337,
    "sis": 2372,
    "cops": 3983,
    "Iceland": 8319,
    "ode": 3803,
    "jurisdiction": 1333,
    "face": 672,
    "cked": 3411,
    "deep": 2398,
    "dumping": 2130,
    "ē@@": 12668,
    "supplier": 5777,
    "bic@@": 6438,
    "ball": 2297,
    "Anne": 9037,
    "Safety": 3726,
    "Nate": 10761,
    "blocks": 7435,
    "interven@@": 4012,
    "Doc": 9152,
    "wil@@": 7008,
    "indic@@": 12134,
    "National": 2366,
    "available": 525,
    "Hag@@": 10741,
    "lamps": 6606,
    "han@@": 8549,
    "forget": 1471,
    "bage": 7326,
    "suspected": 5260,
    "precautions": 8429,
    "boat": 4116,
    "investigations": 6522,
    "iled": 4083,
    "surely": 11526,
    "concluded": 1209,
    "indicator": 7531,
    "Stra@@": 6300,
    "rail": 5975,
    "If": 150,
    "arise": 8289,
    "shy": 10029,
    "Last": 5044,
    "treated": 1570,
    "trou@@": 11918,
    "aband@@": 10650,
    "sign": 1435,
    "suming": 8999,
    "soul": 3237,
    "uris@@": 12393,
    "ville": 9464,
    "Consul@@": 10064,
    "internal": 1203,
    "flat": 4639,
    "Communication": 2734,
    "cur@@": 1172,
    "interests": 2059,
    "overall": 1928,
    "azole": 8332,
    "profession@@": 12291,
    "{": 4390,
    "talking": 627,
    "parties": 595,
    "orov@@": 13095,
    "antly": 3277,
    "neither": 4647,
    "November": 1464,
    "contrast": 11176,
    "Descri@@": 11822,
    "Vid@@": 12226,
    "assets": 1361,
    "EHP": 13547,
    "к@@": 13306,
    "wol@@": 9477,
    "making": 903,
    "rot@@": 6483,
    "modern": 5793,
    "vej@@": 13474,
    "tware": 11531,
    "Publications": 11729,
    "io": 1787,
    "where": 122,
    "Rak@@": 12459,
    "Annexes": 5570,
    "weapon": 4329,
    "Framework": 2480,
    "holding": 1777,
    "clothing": 8093,
    "T": 643,
    "stored": 3619,
    "restriction": 5671,
    "lay": 2551,
    "Francie": 13505,
    "ied": 5725,
    "ich": 4619,
    "initial": 2933,
    "CH@@": 4452,
    "Chy@@": 13102,
    "υ": 12912,
    "random": 8042,
    "else": 607,
    "R@@": 262,
    "administ@@": 5494,
    "solve": 5568,
    "psychiat@@": 9371,
    "Oper@@": 4138,
    "al": 233,
    "Monit@@": 12911,
    "refused": 4714,
    "wel@@": 2937,
    "HAS": 2868,
    "fier": 8919,
    "ath@@": 5530,
    "rested": 11943,
    "largest": 5800,
    "Page": 9916,
    "Ani": 13584,
    "feas@@": 8644,
    "EG@@": 5842,
    "legislat@@": 10003,
    "transpo@@": 6763,
    "uce": 9342,
    "otherwise": 1850,
    "exclus@@": 11437,
    "Objec@@": 9445,
    "·": 9039,
    "im@@": 326,
    "piece": 2273,
    "sely": 3827,
    "foreseen": 9966,
    "ordin@@": 3657,
    "sessment": 12814,
    "revol@@": 6716,
    "lists": 5526,
    "adoption": 3534,
    "pes": 3919,
    "Recommend@@": 11824,
    "civiliz@@": 9765,
    "Charter": 8687,
    "Georgia": 9023,
    "paras": 6003,
    "passenger": 3913,
    "Pad@@": 11352,
    "therine": 11032,
    "likes": 3734,
    "mr@@": 12268,
    "bear": 2816,
    "Dep@@": 5173,
    "itch@@": 8104,
    "CHAPTER": 5297,
    "aven@@": 10691,
    "μ@@": 8473,
    "stem": 11273,
    "reach": 2051,
    "usive": 8799,
    "label@@": 6343,
    "Soud@@": 13320,
    "crucial": 8199,
    "zlo": 12893,
    "Africa": 5080,
    "Brother": 10491,
    "existed": 8387,
    "seeks": 11030,
    "fore": 13357,
    "EC@@": 1183,
    "rescue": 6750,
    "enter": 1170,
    "cases": 594,
    "es’": 2345,
    "jab@@": 12935,
    "missed": 3470,
    "employment": 1608,
    "din@@": 8109,
    "common": 581,
    "it": 19,
    "ter@@": 734,
    "although": 3404,
    "jesty": 12257,
    "giving": 2598,
    "enter@@": 6056,
    "Justice": 3616,
    "entrepreneur@@": 6700,
    "beef": 9044,
    "offering": 5716,
    "working": 613,
    "secondary": 5238,
    "ERS": 9838,
    "gen": 6088,
    "dependent": 4945,
    "ický": 13006,
    "cest": 12908,
    "Profess@@": 11200,
    "idance": 9591,
    "phosp@@": 5711,
    "thought": 353,
    "plants": 3612,
    "saz@@": 12589,
    "dealt": 7925,
    "communic@@": 8081,
    "imal": 10158,
    "Laurie": 10927,
    "behind": 846,
    "Indic@@": 9512,
    "inhibitors": 7306,
    "teeth": 4014,
    "MISSION": 13293,
    "feel@@": 13512,
    "Service": 2676,
    "Braz@@": 11844,
    "”@@": 12583,
    "imagine": 3302,
    "such@@": 13155,
    "hear@@": 3837,
    "IAS": 7816,
    "Furthermore": 6008,
    "tend@@": 4630,
    "fixed": 1525,
    "fired": 3941,
    "error": 1687,
    "evening": 3111,
    "ing@@": 1202,
    "ft": 2469,
    "pis@@": 7020,
    "capacity": 1240,
    "entrance": 6609,
    "ign": 5140,
    "us@@": 907,
    "G": 1558,
    "Capital": 9105,
    "leg@@": 2752,
    "Org@@": 12332,
    "negoti@@": 3133,
    "strength": 3679,
    "eight": 2252,
    "owe": 4706,
    "trat@@": 9931,
    "ated": 273,
    "joy": 5902,
    "reduced": 2080,
    "exporting": 2714,
    "target@@": 11150,
    "court": 295,
    "harm@@": 10835,
    "beneficiary": 3365,
    "rip@@": 3145,
    "companying": 13186,
    "ranean": 13005,
    "HT@@": 11419,
    "verage": 9604,
    "M.@@": 6275,
    "military": 2560,
    "ius": 10035,
    "contractual": 4143,
    "describ@@": 6933,
    "bio@@": 4343,
    "Gent@@": 11896,
    "ACE": 8834,
    "always": 437,
    "companies": 1192,
    "takes": 1382,
    "finally": 1721,
    "where@@": 11925,
    "attor@@": 12028,
    "neut@@": 8639,
    "holdings": 10627,
    "agg@@": 6742,
    "checked": 3518,
    "But": 242,
    "bench@@": 8253,
    "covering": 3819,
    "fie": 12271,
    "exhaust": 8206,
    "various": 1469,
    "buried": 6092,
    "present@@": 6773,
    "gone": 986,
    "highest": 3700,
    "interview": 6556,
    "campa@@": 10860,
    "petition": 9435,
    "individual": 1147,
    "Parker": 9967,
    "ently": 1572,
    "volu@@": 13469,
    "scope": 1575,
    "pad@@": 9714,
    "hlou@@": 13266,
    "racen@@": 13049,
    "gly": 9938,
    "law": 221,
    "couple": 2619,
    "Initi@@": 7721,
    "set": 259,
    "nod@@": 10622,
    "protecting": 2966,
    "leng@@": 11147,
    "tations": 11226,
    "cuts": 9176,
    "Article": 88,
    "iky": 13581,
    "abs@@": 11322,
    "ref@@": 1780,
    "We": 153,
    "oring": 4555,
    "Cou@@": 10267,
    "umns": 8223,
    "ori@@": 3728,
    "whe@@": 5123,
    "obliged": 8796,
    "wer": 5935,
    "shower": 7139,
    "time@@": 11170,
    "fear": 2549,
    "wishes": 7632,
    "Enough": 7958,
    "cut": 1300,
    "adopt": 2451,
    "parent": 2727,
    "Kon@@": 9809,
    "smoke": 3902,
    "Anyway": 7974,
    "saving": 5358,
    "the@@": 1760,
    "ino": 3742,
    "air@@": 2118,
    "eng@@": 3938,
    "dimen@@": 5324,
    "incen@@": 12737,
    "series": 4104,
    "choices": 11645,
    "Maria": 9212,
    "Legislat@@": 11244,
    "missions": 5971,
    "kills": 8835,
    "habitu@@": 6982,
    "Prague": 8861,
    "kde@@": 12980,
    "decid@@": 7044,
    "frozen": 5635,
    "Kevin": 7137,
    "manip@@": 11817,
    "messages": 4651,
    "meal": 6221,
    "plenty": 8421,
    "Lac@@": 10572,
    "<@@": 12131,
    "bu": 10995,
    "®": 11436,
    "ó": 11937,
    "golden": 8306,
    "prejudice": 8537,
    "nau@@": 11029,
    "taxes": 4514,
    "pd@@": 12465,
    "incurred": 2298,
    "ulations": 7681,
    "Then": 1387,
    "Nicole": 9977,
    "Ord@@": 11422,
    "Co": 9005,
    "Ko@@": 9017,
    "warm": 3886,
    "l": 445,
    "provin@@": 10363,
    "A.": 2730,
    "j@@": 739,
    "loha": 13050,
    "Bou@@": 10165,
    "points": 1165,
    "syringe": 7227,
    "cet@@": 9521,
    "ological": 2812,
    "aries": 2760,
    "spp": 9813,
    "recommended": 1958,
    "engine": 2779,
    "itime": 8685,
    "Att@@": 8649,
    "nos@@": 13241,
    "ard": 910,
    "hygi@@": 9387,
    "range": 1805,
    "ING@@": 7517,
    "accep@@": 5218,
    "ship@@": 5270,
    "fingers": 3787,
    "insist@@": 7362,
    "Orders": 9894,
    "discharge": 8261,
    "NAL": 8580,
    "enforceable": 7283,
    "Parties": 2066,
    "mountain": 5416,
    "incredible": 8882,
    "uck": 10638,
    "infor@@": 12758,
    "aver@@": 5959,
    "fucker": 11622,
    "Tim": 10265,
    "ourse": 11054,
    "Tech@@": 11102,
    "Castle": 9350,
    "election": 9143,
    "confidential": 4266,
    "preme": 12201,
    "core": 6612,
    "cep@@": 3748,
    "objects": 4993,
    "Holly@@": 10201,
    "fell": 1971,
    "ector": 9150,
    "sever": 13515,
    "utr@@": 13094,
    "better": 380,
    "added": 1351,
    "opt@@": 12373,
    "vulner@@": 11665,
    "aid": 289,
    "beam": 6883,
    "mol@@": 10010,
    "Guarantee": 9011,
    "stero@@": 6185,
    "issa": 9337,
    "Atlantic": 8354,
    "paying": 3185,
    "restrictive": 5434,
    "figur@@": 9772,
    "Fred": 8989,
    "force": 542,
    "capac@@": 8640,
    "recovered": 6333,
    "compens@@": 5217,
    "TU": 12430,
    "caught": 2100,
    "fis@@": 11795,
    "carbons": 8433,
    "Did": 429,
    "certific@@": 12274,
    "prefer": 7495,
    "Ooh": 2110,
    "plant": 2178,
    "krup@@": 8493,
    "AB@@": 4961,
    "ot": 1867,
    "powder": 4825,
    "stated": 2444,
    "calculation": 3927,
    "World": 3952,
    "el": 505,
    "manufacturer": 2375,
    "child": 753,
    "kes": 4281,
    "full": 806,
    "Again": 11049,
    "eper": 8349,
    "sectoral": 6384,
    "Airlines": 10038,
    "Belgian": 6152,
    "Stanley": 10663,
    "p": 419,
    "inger": 7556,
    "Tran@@": 3198,
    "zed": 3793,
    "Water": 9441,
    "listed": 1257,
    "conducted": 6009,
    "Mem@@": 9093,
    "Aven@@": 12309,
    "listening": 5023,
    "istic": 4642,
    "Duncan": 9335,
    "bec@@": 8295,
    "manager": 4276,
    "o@@": 292,
    "ey@@": 1813,
    "DS": 8966,
    "lies": 3383,
    "collabor@@": 9940,
    "thu@@": 12835,
    "AI@@": 10620,
    "ln@@": 10118,
    "nowhere": 8443,
    "Sus@@": 7215,
    "Nad@@": 10039,
    "elo": 10419,
    "sibility": 6661,
    "whenever": 7366,
    "presid@@": 7385,
    "bey@@": 13217,
    "eyed": 9913,
    "ince": 6978,
    "int@@": 1733,
    "reactions": 2572,
    "Figures": 9331,
    "ně": 13141,
    "unemployment": 7170,
    "Ka@@": 3810,
    "term": 756,
    "enor@@": 5393,
    "zo@@": 5156,
    "remaining": 4018,
    "Conditions": 8859,
    "AS": 3852,
    "circulation": 6766,
    "thou@@": 5867,
    "Fur@@": 11656,
    "welcomes": 6619,
    "declar@@": 9131,
    "exports": 5357,
    "liminary": 11071,
    "sada": 13535,
    "ERDF": 4180,
    "Start": 8883,
    "allocated": 3800,
    "income": 2290,
    "repeat": 6521,
    "Hap@@": 10640,
    "Saf@@": 10178,
    "limit@@": 12563,
    "sole": 5707,
    "leaflet": 5303,
    "Mom": 1315,
    "œ@@": 13366,
    "tility": 7247,
    "il": 711,
    "ficial": 5833,
    "Albert": 9839,
    "Nathan": 9074,
    "Scar@@": 11046,
    "st@@": 384,
    "grateful": 10270,
    "bum@@": 6979,
    "ary": 563,
    "group@@": 10648,
    "reason": 934,
    "Web": 4923,
    "university": 6963,
    "ingredi@@": 10507,
    "pollution": 7455,
    "uz@@": 10790,
    "propos@@": 9329,
    "exercised": 6787,
    "anks": 6007,
    "TIT@@": 9270,
    "Auditors": 10834,
    "ars": 1573,
    "machines": 2801,
    "ovy": 12895,
    "ay@@": 3123,
    "bow@@": 6303,
    "icop@@": 6246,
    "debts": 7436,
    "tiv@@": 3502,
    "letters": 4084,
    "life@@": 9050,
    "IP@@": 4293,
    "Compet@@": 6816,
    "ist": 2139,
    "budget": 1030,
    "helps": 6104,
    "blon@@": 7914,
    "speaking": 7620,
    "committed": 2472,
    "bourg": 11253,
    "sume": 9299,
    "bil": 12150,
    "ilo": 10607,
    "eing": 4610,
    "igno@@": 9086,
    "flo@@": 1793,
    "treatment": 691,
    "appropriations": 2443,
    "uses": 2150,
    "Lithu@@": 10523,
    "here": 99,
    "supported": 2237,
    "chloride": 7653,
    "fulfil@@": 2828,
    "special": 852,
    "Bil@@": 8665,
    "anymore": 1133,
    "Class": 5882,
    "EC": 188,
    "ALDE": 10873,
    "ives": 1763,
    "Jo": 10791,
    "aster@@": 8747,
    "--@@": 11394,
    "fied": 1515,
    "vampire": 7390,
    "production": 668,
    "recently": 3957,
    "determination": 6397,
    "secu@@": 9529,
    "Where": 695,
    "Solidarity": 7972,
    "launched": 6803,
    "SV": 11733,
    "ept@@": 11732,
    "Kill": 9986,
    "ines": 1933,
    "index@@": 11099,
    "Charlotte": 10465,
    "jer@@": 3653,
    "sks": 10399,
    "breaks": 9340,
    "designate": 10127,
    "fir@@": 2454,
    "am@@": 438,
    "ann": 10205,
    "DECISI@@": 12841,
    "needle": 7246,
    "Denmark": 4635,
    "continuing": 6655,
    "ı@@": 13513,
    "odes@@": 11900,
    "bro": 7375,
    "Energ@@": 12085,
    "representatives": 3227,
    "ruin": 10668,
    "uj@@": 11354,
    "Q": 7307,
    "renal": 3524,
    "para": 7538,
    "US@@": 5390,
    "lana": 11990,
    "Rig@@": 10925,
    "sity": 3064,
    "prepa@@": 11328,
    "investig@@": 2977,
    "territory": 1845,
    "home": 451,
    "Only": 2845,
    "submissions": 10149,
    "determine": 3001,
    "mild": 7897,
    "midnight": 7801,
    "J": 5056,
    "fate": 5219,
    "thereof": 440,
    "breakfast": 5046,
    "DE@@": 10274,
    "beach": 6202,
    "Lucy": 8428,
    "test@@": 4112,
    "in": 11,
    "¨": 11979,
    "panel": 4047,
    "ention": 3771,
    "unable": 8542,
    "more": 136,
    "women": 987,
    "particip@@": 4496,
    "October": 1276,
    "upper": 6048,
    "situ@@": 12703,
    "derived": 5154,
    "RO": 10151,
    "longed": 7961,
    "Me": 2434,
    "Chicago": 7564,
    "bod@@": 9424,
    "Dro@@": 12101,
    "oxygen": 7861,
    "trade": 786,
    "universal": 9058,
    "MED@@": 8894,
    "Pro": 12525,
    "applicable": 747,
    "Vy@@": 12383,
    "denom@@": 10711,
    "reaction": 4378,
    "Haro@@": 9742,
    "tolerance": 10220,
    "love": 392,
    "FBI": 7728,
    "Sarah": 6209,
    "anyway": 2583,
    "proto@@": 8007,
    "pigs": 6686,
    "membership": 8688,
    "BO@@": 9594,
    "innovative": 6033,
    "TI": 11441,
    "char@@": 2169,
    "strav@@": 12521,
    "list@@": 3753,
    "Bí@@": 13057,
    "delivery": 4541,
    "inci": 12258,
    "To": 924,
    "stant": 11876,
    "teen": 3364,
    "official": 1422,
    "uring": 4653,
    "nez@@": 13449,
    "mra@@": 12913,
    "mm@@": 9113,
    "hazard@@": 9330,
    "ala": 7408,
    "customer": 4735,
    "survive": 4244,
    "depth": 8872,
    "ser": 2705,
    "forth@@": 10189,
    "ye": 10134,
    "EN@@": 1452,
    "transport@@": 2970,
    "OB@@": 9250,
    "A": 169,
    "ws": 1756,
    "bs": 2361,
    "galax@@": 10313,
    "fraud": 4356,
    "Aye": 11837,
    "tation": 4020,
    "school": 927,
    "recy@@": 12845,
    "posal": 13358,
    "coherent": 9507,
    "movement": 2449,
    "corridor": 10252,
    "Isra@@": 10896,
    "day@@": 9705,
    "lom@@": 9194,
    "how": 156,
    "št@@": 12951,
    "fund": 4520,
    "developed": 2185,
    "undertaken": 11351,
    "conventions": 9101,
    "ab@@": 481,
    "season": 7610,
    "Urugu@@": 10457,
    "ists": 2523,
    "rh@@": 10968,
    "tedly": 6243,
    "step": 1861,
    "incorpor@@": 8850,
    "Mich@@": 6793,
    "ades": 6158,
    "pair": 8139,
    "ulation": 3187,
    "into": 100,
    "lek": 12952,
    "Treaty": 1293,
    "year": 366,
    "assist@@": 5969,
    "subparagraph": 2367,
    "drug": 3253,
    "maintaining": 4738,
    "navigation": 6922,
    "Marketing": 9519,
    "construction": 3150,
    "shor@@": 3231,
    "auth@@": 9613,
    "PPE": 7670,
    "criminal": 1847,
    "anno@@": 7561,
    "appear": 3119,
    "Commander": 5000,
    "Mark@@": 10447,
    "Eric": 6584,
    "FB@@": 7454,
    "tm@@": 12606,
    "KA@@": 12315,
    "lun@@": 5150,
    "networks": 3455,
    "ssm@@": 11581,
    "give": 325,
    "Kenne@@": 9784,
    "posts": 9162,
    "_TA(@@": 7070,
    "twenty": 4269,
    "Tom": 3062,
    "trap": 7565,
    "Canada": 7909,
    "bob@@": 12715,
    "Wy@@": 9918,
    "universe": 4900,
    "formal": 3813,
    "Sloven@@": 10372,
    "enhanced": 10661,
    "RES@@": 5322,
    "CIA": 7114,
    "applications": 1853,
    "uting": 2894,
    "za": 2410,
    "compu@@": 11338,
    "estim@@": 9741,
    "syn": 13448,
    "zas@@": 13099,
    "Finan@@": 9230,
    "Bankruptcy": 6395,
    "ever": 560,
    "sequently": 12480,
    "Ś@@": 13137,
    "Ste@@": 2502,
    "beau@@": 10496,
    "org@@": 3588,
    "decline": 9951,
    "swa@@": 9298,
    "expec@@": 8664,
    "type": 766,
    "ć": 12683,
    "alysis": 6502,
    "stole": 4517,
    "protect": 2022,
    "Nes@@": 11631,
    "rad": 10153,
    "throu@@": 12791,
    "indicating": 6785,
    "hung@@": 13260,
    "press": 2235,
    "conversion": 7516,
    "surprise": 3467,
    "stret@@": 4263,
    "/": 195,
    "distra@@": 7730,
    "nb@@": 8056,
    "restra@@": 7647,
    "understand": 580,
    "caemia": 8465,
    "TC": 9602,
    "middle": 2886,
    "bow": 4581,
    "Defin@@": 4058,
    "qualified": 4981,
    "engines": 5638,
    "diag@@": 9927,
    "Every@@": 12511,
    "hook": 9249,
    "producing": 4347,
    "mit": 6724,
    "cin@@": 4417,
    "suring": 11515,
    "geant": 7704,
    "Christmas": 3370,
    "furniture": 7779,
    "wood@@": 7063,
    "iced": 7973,
    "rova": 12942,
    "gor@@": 10716,
    ">": 4856,
    "airports": 8458,
    "identity": 4681,
    "Paul@@": 11455,
    "victim": 2742,
    "dropped": 5953,
    "Aff@@": 12871,
    "produced": 2151,
    "divided": 3980,
    "Fla@@": 7664,
    "Peg@@": 10224,
    "x@@": 709,
    "fication": 1518,
    "mits": 11960,
    "itu@@": 5950,
    "gon@@": 10155,
    "MO@@": 8933,
    "rect@@": 8201,
    "necessary": 342,
    "maso": 13270,
    "substance": 2037,
    "ourselves": 5541,
    "ext": 13169,
    "turnover": 5794,
    "cerem@@": 7889,
    "sle@@": 3055,
    "Tel": 10202,
    "ash": 4245,
    "bour@@": 7190,
    "UN": 4478,
    "ā@@": 12162,
    "ochran@@": 13052,
    "database": 2947,
    "ect": 5142,
    "cand@@": 7437,
    "ej": 12593,
    "Meg@@": 11870,
    "clou@@": 5878,
    "reaching": 8297,
    "driver": 2884,
    "mitted": 11816,
    "Street": 4719,
    "reported": 1610,
    "ach@@": 2107,
    "asse@@": 5307,
    "zdroj": 13097,
    "clearly": 2296,
    "normal": 1035,
    "so": 77,
    "icon": 7087,
    "Tre@@": 5531,
    "bral": 12651,
    "ERF": 13563,
    "lox@@": 10497,
    "feed@@": 6706,
    "dispute": 2073,
    "candidate": 4472,
    "absence": 6969,
    "awareness": 6957,
    "accura@@": 12831,
    "Mor@@": 3213,
    "tune@@": 13557,
    "cohesion": 3898,
    "larg@@": 12284,
    "feels": 6672,
    "brit@@": 13011,
    "Also": 10817,
    "ops": 5118,
    "position": 858,
    "merous": 4236,
    "xu": 12398,
    "destination": 6250,
    "exhausted": 6400,
    "total": 828,
    "therefore": 476,
    "easily": 3357,
    "Appeal": 7094,
    "drive": 2416,
    "flat@@": 9585,
    "sten": 10845,
    "aimed": 884,
    "tom": 10092,
    "spoken": 9287,
    "achiev@@": 9369,
    "period": 322,
    "road": 1466,
    "branch": 6455,
    "Innovation": 8148,
    "fed@@": 6971,
    "tablets": 3782,
    "coming": 705,
    "Sw@@": 10560,
    "di": 4188,
    "vention": 9840,
    "reti@@": 11382,
    "ical": 630,
    "“@@": 13345,
    "consider": 1866,
    "ident": 10767,
    "wed": 4077,
    "California": 7740,
    "mom@@": 7065,
    "financ@@": 13544,
    "compar@@": 4017,
    "cats": 8114,
    "speak": 2473,
    "ician": 4432,
    "break@@": 8931,
    "Index": 10508,
    "hop@@": 5022,
    "Pat@@": 4522,
    "opportunities": 3336,
    "chose": 6429,
    "Earl": 9273,
    "respond": 10450,
    "beat": 3595,
    "hard": 780,
    "Hand@@": 10637,
    "Sor@@": 8969,
    "zin@@": 11196,
    "din": 11310,
    "byt@@": 11609,
    "shoot": 2457,
    "proceed": 11255,
    "excluding": 4623,
    "Vla@@": 12183,
    "iding": 2836,
    "ková": 12516,
    "wine": 2496,
    "productivity": 8311,
    "stabili@@": 7243,
    "TA": 8097,
    "Save": 8094,
    "breach": 9422,
    "at": 44,
    "Alternative": 6966,
    "ater@@": 11141,
    "dered": 9408,
    "emplo@@": 6474,
    "interval": 8479,
    "objec@@": 7470,
    "quietly": 10373,
    "cod@@": 10200,
    "Non": 3697,
    "fairly": 11369,
    "MF@@": 9814,
    "don": 4004,
    "Cool": 11393,
    "stitution": 10348,
    "Moz@@": 11081,
    "explic@@": 9826,
    "bathroom": 5272,
    "ST@@": 2439,
    "distribution": 2751,
    "evil": 3482,
    "kids": 1540,
    "Swit@@": 11975,
    "accredit@@": 8141,
    "bur@@": 1862,
    "know@@": 11377,
    "factory": 7296,
    "Shi@@": 4565,
    "relief": 6359,
    "Zach@@": 12233,
    "rolled": 6685,
    "gol@@": 8177,
    "currently": 2666,
    "okinetic": 7939,
    "Emma": 8275,
    "tress": 6278,
    "ge@@": 1402,
    "now@@": 7918,
    "mode": 4298,
    "yment": 10335,
    "neutropen@@": 10770,
    "background": 5398,
    "Mommy": 11814,
    "patients": 597,
    "ren": 3870,
    "des": 5849,
    "Í@@": 12146,
    "prohib@@": 11266,
    "Les@@": 10379,
    "progress": 2143,
    "gged": 3765,
    "nis": 6571,
    "Medicines": 9092,
    "effort": 3993,
    "Rever@@": 9885,
    "lue": 7970,
    "wi@@": 1670,
    "lety": 13494,
    "reasonable": 2626,
    "eme": 8307,
    "den@@": 1794,
    "identification": 3323,
    "Captain": 1701,
    "any": 152,
    "referring": 4226,
    "Exec@@": 11712,
    "autob@@": 13066,
    "expectations": 8504,
    "Public@@": 10141,
    "needs": 1102,
    "nat": 12660,
    "instruments": 1399,
    "poll@@": 11500,
    "sac@@": 2815,
    "coordin@@": 3737,
    "faster": 4419,
    "mechanisms": 4285,
    "Pod@@": 12037,
    "ah": 2940,
    "icip@@": 6360,
    "findings": 3731,
    "moving": 1524,
    "nationally": 8531,
    "Four": 7200,
    "fuck": 1157,
    "Bs": 8501,
    "week@@": 11827,
    "Tu": 13242,
    "negotiations": 3186,
    "ha": 3680,
    "tur@@": 2396,
    "Hea@@": 10839,
    "lied": 4346,
    "cket": 5917,
    "Ü@@": 12785,
    "jó@@": 13022,
    "Jason": 6869,
    "jn": 13027,
    "ν": 12948,
    "More": 2406,
    "Sue": 10453,
    "lok@@": 13397,
    "act": 938,
    "St@@": 635,
    "TR@@": 3474,
    "rud@@": 11502,
    "tance": 12334,
    "Statist@@": 8908,
    "diagno@@": 8376,
    "coordinated": 7079,
    "consum@@": 8586,
    "summons": 8996,
    "plement": 7334,
    "reds": 12423,
    "tak": 13255,
    "twelve": 10166,
    "textile": 6987,
    "lé": 12690,
    "admissible": 8754,
    "slow": 4050,
    "audit@@": 6137,
    "lived": 2985,
    "nad": 12836,
    "thern": 4306,
    "hem": 12392,
    "gins": 7109,
    "solved": 7259,
    "cho@@": 3409,
    "taste": 4384,
    "cook": 6744,
    "aim": 1702,
    "containing": 1562,
    "ickness": 6964,
    "sol@@": 2498,
    "worth@@": 8886,
    "aud@@": 3326,
    "ain": 5345,
    "cylin@@": 7266,
    "wedding": 2895,
    "dow": 9876,
    "personality": 8103,
    "tube": 9828,
    "sar@@": 10044,
    "Chinese": 2858,
    "Angeles": 9473,
    "recorded": 3459,
    "Stop": 1759,
    "propose": 6283,
    "agreed": 1547,
    "erated": 6737,
    "sday": 8300,
    "engage": 12017,
    "fe@@": 2355,
    "famili@@": 12029,
    "cru@@": 1804,
    "kidding": 5102,
    "night@@": 4658,
    "sam@@": 9158,
    "mim@@": 13074,
    "Jane": 4884,
    "apart@@": 11493,
    "competence": 4694,
    "crimin@@": 7755,
    "Ask": 8816,
    "doin'": 13250,
    "ove": 8464,
    "White": 4335,
    "no": 67,
    "Supreme": 6611,
    "Why": 510,
    "boy@@": 12421,
    "les@@": 3440,
    "lining": 9421,
    "From": 2330,
    "naps@@": 13226,
    "soud": 13398,
    "Fi@@": 3015,
    "VI@@": 8612,
    "ords": 8111,
    "atory": 1893,
    "rit": 9755,
    "Andre@@": 9516,
    "adjustments": 6028,
    "Marie": 8212,
    "Gener@@": 8899,
    "allergic": 7825,
    "contra@@": 2046,
    "speech": 4982,
    "ground": 1028,
    "flet": 12857,
    "View": 10082,
    "Jin@@": 11854,
    "bo": 6643,
    "ward@@": 9363,
    "fic@@": 2988,
    "weg@@": 13302,
    "lic@@": 4238,
    "warned": 7245,
    "atta@@": 6292,
    "specially": 8705,
    "certificates": 4847,
    "phy": 5408,
    "dar": 7854,
    "utu": 12894,
    "DN@@": 12213,
    "survey": 8214,
    "cho": 10712,
    "delay": 2762,
    "\\x@@": 11407,
    "List": 9129,
    "shoes": 4526,
    "Alli@@": 9434,
    "iva": 9703,
    "scienti@@": 4977,
    "platform": 6634,
    "By@@": 9850,
    "independence": 6468,
    "saf@@": 4889,
    "efici@@": 12467,
    "Applic@@": 5187,
    "uchy": 12324,
    "dose": 906,
    "rest": 1355,
    "AM@@": 5819,
    "attractive": 6691,
    "tall": 5571,
    "payable": 6540,
    "THE": 703,
    "partner@@": 12824,
    "mac@@": 4597,
    "C‑@@": 3106,
    "eč@@": 13503,
    "plo@@": 6632,
    "counting": 5394,
    "horse": 3125,
    "Tal@@": 7128,
    ".htm": 9321,
    "apo@@": 9072,
    "hier@@": 9415,
    "save": 1582,
    "Kingdom": 1607,
    "ck": 1576,
    "switch": 7298,
    "Environment": 7226,
    "constit@@": 5827,
    "Dave": 7422,
    "cm": 5314,
    "Real": 11802,
    "con": 10431,
    "heaven": 7621,
    "Nem@@": 11666,
    "suspect": 5815,
    "audit": 2613,
    "amongst": 12555,
    "guest": 6207,
    "sustain@@": 12919,
    "ip": 4547,
    "present": 793,
    "Amy": 6409,
    "teri@@": 12027,
    "ő": 13174,
    "att@@": 3312,
    "eable": 6732,
    "organis@@": 4459,
    "Za@@": 11313,
    "master": 3070,
    "ash@@": 3418,
    "travel": 3081,
    "checks": 2247,
    "Jeff": 8519,
    "phra@@": 8523,
    "Eastern": 7719,
    "ion": 875,
    "communicate": 7535,
    "cli@@": 4073,
    "Baby": 10888,
    "Mary": 3698,
    "constitu@@": 5612,
    "obvious": 5681,
    "refunds": 5908,
    "ING": 3090,
    "tab": 8582,
    "central": 2175,
    "time": 107,
    "Council": 235,
    "football": 6810,
    "notify": 3247,
    "attorney": 10376,
    "Fin@@": 2540,
    "ín@@": 12321,
    "amendment": 3109,
    "concern": 2829,
    "nights": 8430,
    "ories": 3017,
    "sumption": 6457,
    "bov@@": 13125,
    "Rez@@": 12990,
    "dragon": 6905,
    "undertaking": 1508,
    "matters": 2255,
    "Ø": 13064,
    "eration": 3982,
    "appropri@@": 6558,
    "fuckin": 11981,
    "fou@@": 11874,
    "OHIM": 5853,
    "sent@@": 9244,
    "dil@@": 6192,
    "scared": 2995,
    "Old": 8086,
    "lake": 7329,
    "generally": 2854,
    "extra@@": 3012,
    "bari@@": 11763,
    "pu": 12953,
    "ale@@": 12507,
    "’s": 239,
    "ribe": 11181,
    "well": 250,
    "ML": 9467,
    "Kul@@": 12263,
    "spe@@": 3049,
    "Jon@@": 6270,
    "Zlat@@": 13538,
    "exhaust@@": 6451,
    "B": 853,
    "intellectual": 6621,
    "´@@": 10093,
    "Ben@@": 3681,
    "—": 349,
    "exclusion": 8144,
    "himself": 1024,
    "alist": 5004,
    "weight": 1568,
    "bye": 2506,
    "Eh": 13348,
    "owners": 8474,
    "xed": 4686,
    "avi@@": 6886,
    "mand@@": 10057,
    "auto@@": 10952,
    "dy": 2076,
    "William": 6233,
    "Edward": 7069,
    "prevent": 2749,
    "asset": 3497,
    "Ou@@": 10110,
    "analyt@@": 8409,
    "Chief": 4631,
    "sugg@@": 10025,
    "supply": 1901,
    "require": 1700,
    "associ@@": 8720,
    "ets": 2201,
    "jit": 13332,
    "mama": 13143,
    "nes": 4638,
    "rts": 8847,
    "ad": 1528,
    "Nat@@": 4711,
    "visor": 8552,
    "scen@@": 11132,
    "Clu@@": 7736,
    "escape": 3562,
    "supplement@@": 5096,
    "pit": 10437,
    "bat@@": 3128,
    "expired": 3526,
    "turning": 5718,
    "sweet": 3853,
    "Gam@@": 8022,
    "tures": 4903,
    "Pep@@": 10932,
    "note": 3345,
    "Marty": 9308,
    "comfort": 8518,
    "OL@@": 3836,
    "oil": 2336,
    "key": 889,
    "wned": 7379,
    "GR@@": 11225,
    "sak@@": 11965,
    "vo@@": 1393,
    "Est@@": 5058,
    "Any@@": 11909,
    "Star": 8197,
    "main": 639,
    "tain@@": 2723,
    "changing": 2885,
    "minds": 10187,
    "–": 186,
    "submits": 5100,
    "E": 804,
    "enda": 7788,
    "sensit@@": 12113,
    "Body": 11168,
    "zar@@": 12427,
    "god@@": 9831,
    "He@@": 2149,
    "activity": 1505,
    "limit": 1081,
    "tune": 12066,
    "inc@@": 1291,
    "р@@": 12900,
    "Accession": 4975,
    "Act": 2326,
    "Nancy": 10430,
    "eless": 5038,
    "termin@@": 4361,
    "evol@@": 6948,
    "server": 2824,
    "Cle@@": 6349,
    "envis@@": 6341,
    "brown": 5750,
    "spac@@": 4967,
    "8": 132,
    "Kev@@": 13010,
    "crack": 10586,
    "flow": 3153,
    "Ric@@": 10317,
    "vehicle": 1510,
    "cooperation": 785,
    "viv@@": 9247,
    "PO@@": 3626,
    "ey": 1680,
    "smiled": 3707,
    "Inde@@": 12759,
    "cutaneous": 8482,
    "Jesse": 9780,
    "fire@@": 4688,
    "sou@@": 2761,
    "pig@@": 8120,
    "knife": 4134,
    "per@@": 737,
    "avoid": 4154,
    "culation": 12331,
    "put": 339,
    "eds": 5374,
    "Pu@@": 7687,
    "expenditure": 1069,
    "monetary": 6190,
    "tax": 825,
    "trees": 3955,
    "dist@@": 5079,
    "answer": 1116,
    "awarded": 6464,
    "bound": 3492,
    "preclude": 10881,
    "kod@@": 13100,
    "plan": 829,
    "carrier": 5116,
    "proces@@": 12282,
    "CIL": 13273,
    "dole": 13445,
    "largely": 8385,
    "lis@@": 8762,
    "ong": 3537,
    "wom@@": 11717,
    "bigger": 4431,
    "surveillance": 3971,
    "stly": 7780,
    "idea": 872,
    "got@@": 12107,
    "Ví@@": 13240,
    "amending": 1880,
    "rif@@": 6843,
    "Cy@@": 3940,
    "genu@@": 11304,
    "oking": 2850,
    "nap@@": 6510,
    "aks": 4773,
    "PROV@@": 8299,
    "½": 12771,
    "remove": 3944,
    "depart@@": 13204,
    "true": 932,
    "trap@@": 12898,
    "tee": 12743,
    "Flo@@": 11554,
    "smaller": 4330,
    "repayment": 8973,
    "Mo@@": 1449,
    "without": 307,
    "porteur": 8830,
    "C.@@": 9689,
    "brat@@": 7784,
    "documentation": 4100,
    "forgotten": 5747,
    "officially": 6472,
    "life": 308,
    "cele@@": 8951,
    "defence": 4823,
    "ony@@": 9933,
    "rich@@": 7702,
    "Strategic": 8015,
    "scheme": 1492,
    "protec@@": 7003,
    "authorisation": 1398,
    "Sum@@": 7025,
    "roof": 5006,
    "disappeared": 4164,
    "hmm": 4812,
    "worn": 8035,
    "looks": 1042,
    "probably": 841,
    "ering": 897,
    "notification": 2475,
    "Sweden": 4359,
    "Administrative": 7678,
    "received": 1005,
    "sch@@": 2889,
    "C@@": 176,
    "opened": 1948,
    "sul@@": 4046,
    "gre@@": 2561,
    "AT@@": 2360,
    "Mmm": 12095,
    "anticip@@": 8574,
    "ems": 4699,
    "certain@@": 8154,
    "Du@@": 4821,
    "bra": 9837,
    "excess": 10765,
    "ň@@": 12384,
    "aned": 4994,
    "Cin@@": 10037,
    "Dr.": 591,
    "ce@@": 1312,
    "Cot@@": 10563,
    "pursu@@": 6284,
    "Ha@@": 3448,
    "mother@@": 10281,
    "circum@@": 5292,
    "ella": 5828,
    "aye": 11154,
    "Sele@@": 10217,
    "jury": 7833,
    "Wendy": 10853,
    "tons": 5421,
    "pose": 5328,
    "theless": 12015,
    "ague": 3138,
    "Blood": 11120,
    "oh@@": 4877,
    "Wal@@": 2445,
    "centr@@": 10621,
    "gy": 6314,
    "Conne@@": 6054,
    "guidelines": 2840,
    "ity@@": 5512,
    "creditors": 4498,
    "ues": 4019,
    "closely": 4015,
    "a’": 7743,
    "jak": 12586,
    "choc@@": 12429,
    "kop@@": 12851,
    "chances": 10211,
    "journey": 4151,
    "photos": 10723,
    "ster@@": 4669,
    "British": 5573,
    "cry": 4910,
    "Kapit@@": 13555,
    "competition/@@": 10377,
    "Roland": 9409,
    "bab@@": 9095,
    "der": 1015,
    "armed": 4184,
    "geographical": 2746,
    "pet@@": 2704,
    "treas@@": 6123,
    "Institu@@": 9313,
    "noticed": 4129,
    "CB": 9774,
    "March": 1341,
    "wrong": 693,
    "approxim@@": 9253,
    "pov@@": 12818,
    "vize": 12425,
    "castle": 6676,
    "hosp@@": 7026,
    "ti@@": 551,
    "Star@@": 3547,
    "suspend": 10248,
    "discus@@": 9775,
    "infringed": 4395,
    "wo": 544,
    "ams": 5087,
    "dow@@": 9502,
    "AP@@": 3617,
    "changed": 1244,
    "nings": 4985,
    "simil@@": 7935,
    "chain": 4308,
    "Artic@@": 13422,
    "'am": 7783,
    "never": 299,
    "nan": 9847,
    "Vice": 8276,
    "DE": 4366,
    "lost@@": 13322,
    "regularly": 5235,
    "ak": 1342,
    "fo@@": 1079,
    "purpo@@": 12109,
    "taxi": 8312,
    "Claude": 10371,
    "sha@@": 9744,
    "ky": 2197,
    "frame": 7424,
    "bond": 8683,
    "body": 571,
    "IL@@": 5622,
    "pretty": 1173,
    "birthday": 4022,
    "talked": 2869,
    "Boy": 10432,
    "rek": 10965,
    "share@@": 7433,
    "status": 1921,
    "oro": 11797,
    "ue@@": 12542,
    "context": 1769,
    "endant": 11935,
    "Pic@@": 8926,
    "sil@@": 2566,
    "thoughts": 4883,
    "hired": 6965,
    "remedy": 10408,
    "cup": 5993,
    "now": 161,
    "spy": 8880,
    "ny@@": 10186,
    "m@@": 354,
    "presc@@": 9239,
    "healthcare": 8823,
    "monthly": 7499,
    "cried": 5031,
    "far@@": 3711,
    "One": 1273,
    "jest@@": 12057,
    "levels": 1795,
    "character@@": 5065,
    "Conference": 8922,
    "beneficiaries": 4721,
    "NA@@": 5773,
    "convention": 10589,
    "dumb": 12600,
    "vom@@": 6581,
    "hla@@": 12243,
    "trary": 13363,
    "thi@@": 4790,
    "objection": 6605,
    "students": 4793,
    "é@@": 3294,
    "Procedure": 5442,
    "sty": 6079,
    "Glen@@": 11038,
    "Afgh@@": 10842,
    "solidarity": 9328,
    "Export": 10574,
    "Thus": 6656,
    "bags": 6372,
    "harm": 5714,
    "cti@@": 11821,
    "sees": 3950,
    "AG": 7383,
    "basis": 593,
    "Level": 10481,
    "enth": 6932,
    "esome": 7758,
    "ences": 2042,
    "need": 207,
    "Wow": 3876,
    "vehic@@": 12240,
    "asked": 612,
    "Big": 5957,
    "sup@@": 2254,
    "ig@@": 854,
    "served": 1739,
    "loved": 2483,
    "interest": 850,
    "throw": 2629,
    "Ten": 10751,
    "sor@@": 2433,
    "IE": 9234,
    "ty@@": 2833,
    "Tomorrow": 8207,
    "ourt": 13236,
    "cog@@": 11381,
    "sh": 1432,
    "χ@@": 12360,
    "Be": 2979,
    "fu@@": 2286,
    "vince": 13145,
    "'s": 18,
    "mitting": 11144,
    "height": 5866,
    "newly": 9063,
    "box": 1789,
    "Dur@@": 9668,
    "oda": 9138,
    "ry@@": 2199,
    "kin@@": 4562,
    "knowled@@": 12190,
    "options": 3315,
    "shot": 1585,
    "differ": 9472,
    "implemented": 1885,
    "Mod@@": 6279,
    "tives": 4634,
    "Tam": 13275,
    "um@@": 1112,
    "chapter": 6466,
    "vote": 2679,
    "dé@@": 11696,
    "orie": 12253,
    "withdrawal": 6974,
    "makes": 1330,
    "maritime": 6146,
    "óz@@": 13425,
    "payments": 1751,
    "ran": 1348,
    "Ho": 11549,
    "chemical": 3577,
    "correct@@": 10358,
    "cial": 6392,
    "mek": 13055,
    "sustainable": 2386,
    "oct@@": 11614,
    "destroy": 2736,
    "@@": 13124,
    "Israel": 8902,
    "summon@@": 6859,
    "v@@": 772,
    "Explanatory": 9965,
    "kra@@": 12142,
    "draw": 3846,
    "what@@": 11010,
    "analysis": 1711,
    "urity": 11783,
    "lim@@": 1939,
    "May": 935,
    "ady": 11523,
    "Administ@@": 12188,
    "ę@@": 12224,
    "conscious": 6858,
    "hla": 13203,
    "per": 611,
    "ricity": 11907,
    "cancer": 4192,
    "directive": 3154,
    "iner": 8601,
    "directly": 1146,
    "La@@": 4938,
    "Leo": 8990,
    "adverse": 2470,
    "Does": 2014,
    "ned@@": 11312,
    "old": 363,
    "toxicity": 4871,
    "consulted": 7589,
    "OD@@": 7911,
    "cooperate": 5637,
    "book@@": 10350,
    "mé": 13036,
    "Green@@": 8220,
    "stu@@": 5245,
    "BI@@": 9468,
    "ite": 1129,
    "obla@@": 13056,
    "cal@@": 2111,
    "han": 9106,
    "notice": 1657,
    "make": 258,
    "assemb@@": 10934,
    "resolved": 8765,
    "pregnancy": 4980,
    "example": 944,
    "political": 1837,
    "invited": 3329,
    "economy": 2144,
    "requested": 1636,
    "input": 5462,
    "glu@@": 8460,
    "marketing": 2060,
    "Instru@@": 9537,
    "vessel": 3103,
    "Dr": 5699,
    "LOV@@": 12340,
    "NU@@": 11311,
    "extensive": 8053,
    "Contin@@": 8832,
    "behavior": 5580,
    "k@@": 278,
    "watched": 3885,
    "raid": 11577,
    "technologies": 3499,
    "traffic": 3544,
    "tile": 7659,
    "Wo@@": 7131,
    "param@@": 11601,
    "biolog@@": 10919,
    "laying": 2507,
    "Board": 2210,
    "#@@": 11630,
    "Scheme": 9171,
    "portion": 11596,
    "vial": 6097,
    "pissed": 9059,
    "Explorer": 10847,
    "texts": 6205,
    "Payments": 2579,
    "inher@@": 4203,
    "ank": 5166,
    "atel@@": 11305,
    "HO": 10987,
    "vo": 11559,
    "mass": 2984,
    "ner@@": 5141,
    "risk": 539,
    "multil@@": 11922,
    "virus": 5182,
    "atel": 12772,
    "ass@@": 5327,
    "custom@@": 10692,
    "Form": 8161,
    "bodies": 1128,
    "sist@@": 5009,
    "nels": 10510,
    "Scho@@": 11950,
    "blow": 4114,
    "oms": 4820,
    "temporarily": 7357,
    "Ha": 10048,
    "penet@@": 5645,
    "@@": 13259,
    "ico": 8864,
    "ins@@": 12086,
    "Gre@@": 3113,
    "conventional": 9559,
    "mur@@": 3833,
    "vap@@": 12680,
    "exped@@": 8770,
    "want": 130,
    "sun@@": 3412,
    "assigned": 3785,
    "Hungary": 5151,
    "eled": 10591,
    "designated": 3148,
    "recogn@@": 9663,
    "deriv@@": 9530,
    "chat@@": 9915,
    "deficit": 4487,
    "Bo": 10865,
    "dev@@": 6554,
    "mir@@": 7773,
    "ece": 10624,
    "nia": 5589,
    "sting": 2946,
    "mean@@": 3433,
    "open": 774,
    "My": 422,
    "beginning": 2447,
    "smell": 4437,
    "mut@@": 2544,
    "In@@": 803,
    "fully": 1048,
    "discuss": 6237,
    "open@@": 8739,
    "way@@": 11811,
    "edge": 3801,
    "anybody": 4911,
    "lover": 8837,
    "«": 9829,
    "includ@@": 13571,
    "stories": 5734,
    "kak@@": 12797,
    "ape": 11101,
    "Contracting": 3391,
    "EUR@@": 6396,
    "Rus@@": 8069,
    "sory": 10316,
    "thcare": 11574,
    "What": 120,
    "solely": 5409,
    "distance": 2914,
    "kre@@": 13149,
    "choose": 2432,
    "pane": 11238,
    "idents": 11412,
    "cept": 11286,
    "COM(@@": 3057,
    "{@@": 12006,
    "fig@@": 11034,
    "yal": 6443,
    "coun@@": 1697,
    "nal@@": 5016,
    "Fred@@": 10015,
    "fiel@@": 13109,
    "rely": 3158,
    "bit@@": 2499,
    "fascin@@": 10001,
    "horizontal": 6184,
    "dor@@": 6840,
    "TP": 8025,
    "reducing": 2438,
    "organ": 9642,
    "slight": 9368,
    "racy": 7350,
    "keeping": 4761,
    "price": 813,
    "PC": 9712,
    "combat": 9547,
    "whereas": 3879,
    "eafter": 9452,
    "debtor": 2096,
    "laughing": 6121,
    "shots": 9583,
    "Kos@@": 9246,
    "plates": 9080,
    "New@@": 7574,
    "alleging": 6043,
    "amend": 9048,
    "rable": 10670,
    "а@@": 12596,
    "week": 1121,
    "si": 6517,
    "Austria": 4268,
    "ero@@": 3398,
    "witch": 8361,
    "Secretariat": 8689,
    "scrat@@": 6335,
    "bask@@": 6541,
    "stations": 8848,
    "pero@@": 11621,
    "permits": 10597,
    "record": 1999,
    "good": 165,
    "ver": 4736,
    "log": 6348,
    "+": 1453,
    "headed": 3909,
    "honey": 1738,
    "picked": 2838,
    "trum": 12736,
    "some": 206,
    "led@@": 5685,
    "gro@@": 3539,
    "illa": 6856,
    "creatures": 7998,
    "Ford": 9863,
    "ability": 972,
    "promised": 3002,
    "Ga@@": 5860,
    "Lincol@@": 10489,
    "organiz@@": 6988,
    "jou": 12832,
    "indicate": 2929,
    "mainly": 4036,
    "Elek@@": 12748,
    "Read": 10233,
    "rib@@": 2409,
    "eko@@": 12896,
    "D.@@": 6849,
    "girl@@": 12328,
    "Shad@@": 9656,
    "ros": 6767,
    "yel@@": 4589,
    "Té@@": 11440,
    ">@@": 13148,
    "Buil@@": 7917,
    "Sun": 10989,
    "pel@@": 3149,
    "review": 1486,
    "tz": 10454,
    "(2": 713,
    "ential": 4609,
    "solvent": 7392,
    "erever": 12138,
    "aromat@@": 12585,
    "sub@@": 688,
    "interface": 7351,
    "Over@@": 9149,
    "pomo@@": 13210,
    "wage": 7800,
    "annual": 1188,
    "|@@": 4119,
    "usually": 2048,
    "exceeds": 8589,
    "mbH": 12839,
    "Hall": 9794,
    "Decisions": 9920,
    "charging": 8940,
    "SEC@@": 7831,
    "possession": 9778,
    "uk": 11647,
    "complaint": 3713,
    "fil@@": 1699,
    "Thom@@": 11076,
    "audiov@@": 9376,
    "Meth@@": 7372,
    "Am@@": 2215,
    "Lau@@": 7150,
    "fra@@": 2053,
    "ocean": 8060,
    "grown": 4029,
    "euro": 2245,
    "transmitted": 6203,
    "rock": 3691,
    "campaign": 7368,
    "uty": 4973,
    "orig@@": 11320,
    "Internal": 5143,
    "distributed": 8866,
    "ji": 8446,
    "Standard": 8777,
    "gin": 5179,
    "Agent": 3817,
    "eleg@@": 10073,
    "meaning": 1990,
    "efficient": 3703,
    "ching": 1556,
    "cting": 1482,
    "cop": 3831,
    "ené": 12798,
    "borro@@": 5465,
    "sulph@@": 6000,
    "Third": 7321,
    "cements": 8447,
    "heart": 1040,
    "ruling": 2348,
    "ο": 12647,
    "Wel@@": 7101,
    "death": 1036,
    "te@@": 923,
    "chole@@": 10529,
    "trained": 6329,
    "shape": 4405,
    "God": 336,
    "Estonia": 6841,
    "long@@": 6833,
    "cotton": 8444,
    "comp@@": 1873,
    "Rapporteur": 10369,
    "black": 1297,
    "responsi@@": 12691,
    "pig": 5601,
    "consider@@": 8484,
    "oun@@": 3855,
    "riton@@": 10396,
    "Education": 9425,
    "hl": 11413,
    "specifically": 5181,
    "appoint": 7723,
    "Fif@@": 8018,
    "accounts": 1892,
    "ging": 1720,
    "swim@@": 8293,
    "ry": 943,
    "monster": 5248,
    "clarity": 10016,
    "maj@@": 12734,
    "foregoing": 7988,
    "olution": 7902,
    "Argument": 5174,
    "[": 430,
    "population": 2397,
    "away": 387,
    "Kla@@": 9630,
    "toilet": 6118,
    "ceed": 7413,
    "declarations": 6037,
    "či@@": 13043,
    "stan@@": 5400,
    "ement": 2802,
    "aving": 8164,
    "father": 606,
    "educ@@": 6441,
    "litaz@@": 12470,
    "Never": 3321,
    "hated": 7949,
    "Langu@@": 12375,
    "opposite": 6771,
    "danger": 3789,
    "shing@@": 12972,
    "renew@@": 13333,
    "riding": 6670,
    "F": 958,
    "Kam@@": 11040,
    "Vir@@": 10499,
    "//@@": 13297,
    "boun@@": 4159,
    "liber@@": 5008,
    "daughter": 1462,
    "dated": 1663,
    "has": 82,
    "partly": 4928,
    "astrointest@@": 10213,
    "lon@@": 3689,
    "T-@@": 4035,
    "poultry": 7490,
    "limits": 1383,
    "advertising": 5931,
    "sav@@": 6953,
    "shop@@": 12063,
    "Morning": 5841,
    "ef": 6148,
    "Rov@@": 12954,
    "pel": 10793,
    "gh@@": 1180,
    "an@@": 266,
    "Day": 6623,
    "Califor@@": 13170,
    "put@@": 6370,
    "ropa@@": 9685,
    "front": 1092,
    "Zav@@": 12639,
    "sieur": 11186,
    "ano@@": 11062,
    "rors": 9513,
    "recomm@@": 12189,
    "Ger@@": 4039,
    "ground@@": 9374,
    "losing": 4585,
    "Europe": 1094,
    "regulations": 2976,
    "weak": 4446,
    "Sle@@": 9968,
    "Es": 12514,
    "accordance": 201,
    "portfolio": 8819,
    "rt": 7559,
    "copy": 3048,
    "z": 991,
    "Us@@": 12127,
    "ared": 6111,
    "sou": 13314,
    "sex": 1944,
    "regist@@": 4951,
    "proportionate": 4320,
    "equip@@": 12675,
    "ol@@": 1055,
    "traum@@": 10129,
    "TIVE": 5763,
    "ired": 4810,
    "Hard@@": 11178,
    "Yeah": 168,
    "Ved@@": 12540,
    "Ze@@": 8686,
    "calling": 3072,
    "rings": 9100,
    "transl@@": 5277,
    "elements": 2322,
    "hunt": 8330,
    "France": 1908,
    "indication": 4372,
    "clean@@": 7009,
    "Recommendation": 7715,
    "sey": 7459,
    "Tel@@": 10818,
    "But@@": 7086,
    "Asi@@": 9144,
    "who@@": 6252,
    "pet": 6034,
    "Sm@@": 11612,
    "totally": 8188,
    "useful": 3654,
    "appearance": 5464,
    "quest@@": 6717,
    "did": 85,
    "Really": 1904,
    "bot@@": 10438,
    "lier": 11447,
    "quantity": 3079,
    "Bry@@": 10420,
    "mountains": 5533,
    "islation": 11122,
    "withstanding": 3429,
    "trans": 9191,
    "belonging": 10682,
    "An": 2126,
    "publicly": 7162,
    "Isab@@": 10517,
    "če@@": 13327,
    "SME": 7905,
    "finger@@": 6112,
    "he": 42,
    "layer": 7747,
    "threw": 3847,
    "Mr@@": 13456,
    "bou@@": 8761,
    "ats": 1765,
    "ented": 1683,
    "Rid@@": 10423,
    "anti": 1705,
    "Par@@": 2320,
    "mal": 5558,
    "shit": 1068,
    "contested": 1565,
    "sector": 946,
    "administrator": 5791,
    "undertak@@": 10479,
    "custody": 4382,
    "dates": 5026,
    "3": 89,
    "Reference": 4808,
    "Met@@": 5951,
    "clu@@": 3874,
    "itable": 5028,
    "files": 2356,
    "June": 1033,
    "AST": 7540,
    "ension": 7560,
    "st": 609,
    "Muse@@": 11625,
    "justification": 6687,
    "any@@": 4397,
    "ided": 6984,
    "division": 6711,
    "mg": 849,
    "hands": 926,
    "admit": 3873,
    "mid@@": 4101,
    "thus": 2261,
    "Danish": 8011,
    "ols": 4202,
    "hne": 11491,
    "facil@@": 12387,
    "itive": 7787,
    "Vit@@": 10908,
    "forms": 2087,
    "NC@@": 5431,
    "sums": 10413,
    "conom@@": 12989,
    "learning": 3990,
    "anded": 4779,
    "ose": 4801,
    "experim@@": 6548,
    "conflic@@": 10841,
    "itel": 12970,
    "PM": 11532,
    "fut@@": 11976,
    "complete": 2052,
    "pou@@": 4628,
    "ár@@": 12719,
    "ila": 7001,
    "mon": 4950,
    "lit": 8274,
    "én@@": 11934,
    "omy@@": 12301,
    "People": 2510,
    "motiv@@": 8260,
    "sk": 7207,
    "á@@": 10799,
    "Amanda": 9930,
    "signed": 2040,
    "sole@@": 9161,
    "ku@@": 10301,
    "rapid": 7518,
    "Too": 8550,
    "Rand@@": 11113,
    "privileg@@": 9601,
    "SION": 11893,
    "irment": 13081,
    "seeking": 5706,
    "rog@@": 3485,
    "click": 2930,
    "C-@@": 2571,
    "Limited": 9671,
    "odh@@": 13283,
    "represent@@": 11289,
    "oral": 2219,
    "Simplified": 7943,
    "dal": 12030,
    "san@@": 2726,
    "glasses": 6157,
    "Grand@@": 3749,
    "interesting": 2564,
    "Men@@": 10207,
    "X@@": 1242,
    "len@@": 1544,
    "Give": 1470,
    "hotov@@": 12266,
    "meetings": 3161,
    "excuse": 5521,
    "Some": 2573,
    "harmful": 7981,
    "Ø@@": 11202,
    "+@@": 4006,
    "either": 960,
    "opportunity": 2843,
    "iron": 4800,
    "ahead": 1490,
    "veri@@": 4045,
    "fanta@@": 9026,
    "apparently": 8570,
    "surviv@@": 3872,
    "illy": 9660,
    "dam": 7206,
    "straigh@@": 6721,
    "hear": 748,
    "éri@@": 12322,
    "-year": 4829,
    "ribavir@@": 11129,
    "heating": 6967,
    "ket@@": 6946,
    "invest@@": 6204,
    "Direct": 10075,
    "Chris": 6788,
    "participating": 4162,
    "pre@@": 573,
    "Search": 11206,
    "Kri@@": 12123,
    "fib@@": 9060,
    "oks": 9646,
    "Switzerland": 5698,
    "Perfect": 12100,
    "establishes": 10278,
    "ides": 3251,
    "chosen": 3795,
    "human": 728,
    "oper@@": 3263,
    "yet": 663,
    "ič@@": 12825,
    "Fire": 8663,
    "bought": 3036,
    "drag": 7452,
    "issued": 1160,
    "spat@@": 13238,
    "lin@@": 1955,
    "Mr.": 404,
    "gal": 11564,
    "displayed": 6193,
    "lina": 11940,
    "proved": 7979,
    "governmental": 7172,
    "slo@@": 6708,
    "eut@@": 5784,
    "suffering": 6389,
    "eny": 13136,
    "played": 2819,
    "early": 1881,
    "fee": 4403,
    "suc@@": 1848,
    "ley": 1125,
    "ural": 8257,
    "Comm@@": 4683,
    "Mak@@": 11542,
    "CS": 8890,
    "conference": 5675,
    "investments": 4470,
    "prison@@": 4656,
    "favor@@": 11660,
    "ROP@@": 8603,
    "required": 811,
    "snow": 5991,
    "Research": 4267,
    "real@@": 3583,
    "railway": 6042,
    "val@@": 2408,
    "Christian": 8587,
    "noti@@": 3779,
    "suspec@@": 9615,
    "va": 6289,
    "H@@": 264,
    "model@@": 12250,
    "UB@@": 11882,
    "establish@@": 13251,
    "assessing": 2453,
    "pus": 10805,
    "STAN@@": 11261,
    "B6": 7898,
    "pages": 5064,
    "first": 189,
    "betra@@": 6470,
    "mail": 1879,
    "leader": 4654,
    "econom@@": 6017,
    "edly": 4876,
    "Ol@@": 8573,
    "seiz@@": 6363,
    "rot": 9229,
    "expert": 3136,
    "vest@@": 9907,
    "tion@@": 2518,
    "grass": 7380,
    "fl@@": 3244,
    "Brow@@": 11524,
    "specific": 512,
    "angle": 5104,
    "caref@@": 13065,
    "var@@": 9991,
    "agreement": 778,
    "equivalent": 2792,
    "Italian": 2810,
    "vam@@": 9081,
    "completely": 1119,
    "spir@@": 3449,
    "sod@@": 12917,
    "ar": 913,
    "E.": 8112,
    "bedroom": 6942,
    "sexual": 4239,
    "IP": 2347,
    "pren@@": 11127,
    "CZK": 10043,
    "nul": 10079,
    "landing": 5344,
    "inion": 12476,
    "assure": 8566,
    "inib": 8386,
    "Win@@": 4237,
    "en": 459,
    "coverage": 9871,
    "dress": 3188,
    "Sand@@": 7563,
    "Tra@@": 2635,
    "sp": 11932,
    "ting@@": 10980,
    "ista": 11969,
    "Lois": 10595,
    "fixing": 6030,
    "Laur@@": 11376,
    "vitro": 9803,
    "Lov@@": 10007,
    "guy": 621,
    "FR": 8341,
    "recommend": 8030,
    "kad@@": 13045,
    "glan@@": 12022,
    "capable": 3182,
    "medical": 2003,
    "nin@@": 9426,
    "ear@@": 1417,
    "carri@@": 12981,
    "symptom@@": 11344,
    "failure": 2370,
    "Majesty": 6211,
    "lum": 10654,
    "Five": 7839,
    "primary": 3296,
    "advantage": 2400,
    "spad@@": 12644,
    "replies": 9442,
    "Ira@@": 7451,
    "practices": 2500,
    "fos@@": 12645,
    "accept": 2346,
    "Same": 12590,
    "Jess@@": 13467,
    "A.@@": 4441,
    "Ph@@": 7050,
    "shad@@": 11172,
    "Executive": 6631,
    "α": 11850,
    "side": 561,
    "≠": 13542,
    "lamp": 6408,
    "Hen@@": 8723,
    "relevance": 3843,
    "SH@@": 10435,
    "com@@": 683,
    "Kas@@": 10737,
    "datab@@": 9390,
    "Hom@@": 8572,
    "ilst": 13007,
    "affects": 7904,
    "state": 1045,
    "abilities": 4730,
    "porte@@": 12432,
    "syring@@": 11780,
    "nick@@": 8162,
    "Lie@@": 13067,
    "ongoing": 6010,
    "pleased": 6553,
    "ach": 4009,
    "woods": 6516,
    "sti": 11994,
    "Her": 3695,
    "Sov@@": 8397,
    "Island": 8485,
    "got": 179,
    "numbers": 2693,
    "age": 501,
    "zero": 4660,
    "Father": 3675,
    "Institute": 8149,
    "cards": 4044,
    "condit@@": 12405,
    "Daniel": 5823,
    "written": 1638,
    "there": 86,
    "telephone": 6153,
    "PAR@@": 3199,
    "Cab@@": 10458,
    "Judgment": 10052,
    "books": 3246,
    "Adam": 6480,
    "ml": 1949,
    "Ber@@": 3320,
    "whilst": 12963,
    "recover@@": 6488,
    "neb@@": 12036,
    "pag@@": 5647,
    "Official": 869,
    "formation": 4919,
    "station": 2877,
    "Let": 296,
    "subsidy": 6563,
    "blan@@": 7095,
    "ediatric": 10851,
    "ko": 4837,
    "eb@@": 2388,
    "ican": 6497,
    "manufactu@@": 12901,
    "rová": 13373,
    "ternat@@": 13493,
    "certain": 418,
    "off": 441,
    "ber@@": 1364,
    "Kni@@": 12881,
    "secur@@": 5108,
    "cies": 5376,
    "nervous": 3948,
    "thy@@": 10085,
    "Pete": 7083,
    "a.@@": 8554,
    "accompli@@": 11037,
    "implement@@": 13051,
    "First": 1601,
    "ligh@@": 4601,
    "coher@@": 9665,
    "eras": 7154,
    "slov@@": 13340,
    "Open@@": 10988,
    "ota": 9147,
    "rooms": 5688,
    "vin": 7196,
    "Prime": 9900,
    "ges": 1957,
    "oner": 11984,
    "Smo@@": 11387,
    "A4": 9304,
    "Cit@@": 6838,
    "to@@": 664,
    "outside": 1324,
    "planes": 8590,
    "promis@@": 9180,
    "adop@@": 10086,
    "une@@": 6058,
    "interaction": 8338,
    "called": 587,
    "pev@@": 13430,
    "stop": 634,
    "PDO": 7510,
    "ku": 11510,
    "iny": 4643,
    "Minim@@": 9588,
    "cks": 2861,
    "absol@@": 12766,
    "languages": 4279,
    "ich@@": 3137,
    "pers": 4391,
    "icate": 7474,
    "le": 372,
    "web": 6465,
    "announ@@": 4576,
    "ning": 1261,
    "tissue": 6325,
    "energy": 840,
    "strip": 10632,
    "down": 151,
    "ronic": 8140,
    "accompanying": 5892,
    "judgments": 7873,
    "root": 8585,
    "ob": 12090,
    "Convergence": 8833,
    "ov@@": 1373,
    "submit": 2086,
    "smet@@": 12287,
    "sufficient": 1336,
    "Drop": 9626,
    "Hydro@@": 10810,
    "esting": 7618,
    "gress": 9066,
    "Mis@@": 5639,
    "hydrogen": 8528,
    "SP": 10031,
    "pops@@": 12873,
    "draft": 2790,
    "awar@@": 13454,
    "IBM": 6047,
    "examined": 2696,
    "thresh@@": 10008,
    "Art@@": 8483,
    "Dal": 13253,
    "believed": 4234,
    "eggs": 4997,
    "QU@@": 5566,
    "ffec@@": 13431,
    "showed": 2044,
    "Num@@": 11000,
    "ley@@": 12157,
    "logy": 7526,
    "examples": 8943,
    "sun": 2733,
    "elsewhere": 7055,
    "PL": 10551,
    "ings": 833,
    "oration": 5705,
    "exemp@@": 3877,
    "hate": 2284,
    "itals": 10456,
    "approach@@": 3397,
    "tainment": 8342,
    "►": 13394,
    "III": 1615,
    "everyone": 961,
    "ń": 13220,
    "M.": 7059,
    "entities": 2417,
    "considered": 656,
    "later": 866,
    "gether": 11606,
    "EI@@": 5329,
    "organisms": 7868,
    "sev@@": 7679,
    "zd@@": 12717,
    "ě@@": 12999,
    "invalid": 6297,
    "vised": 9617,
    "enci@@": 11469,
    "net@@": 4756,
    "negativ@@": 11924,
    "performing": 10346,
    "training": 1214,
    "meeting": 1090,
    "Ryan": 5254,
    "ack@@": 5239,
    "ate": 256,
    "'m": 54,
    "specification": 7475,
    "g.": 12214,
    "ray": 5809,
    "ET@@": 4475,
    "sn@@": 4826,
    "poul@@": 11590,
    "statistical": 4243,
    "ner": 1494,
    "measuring": 5737,
    "port": 2539,
    "practice": 1945,
    "might": 779,
    "coins": 8909,
    "Ivan": 10266,
    "spo@@": 2987,
    "zne@@": 13032,
    "Lou@@": 8026,
    "aked": 6818,
    "hoc": 9303,
    "Beth": 9413,
    "j": 4716,
    "transitional": 4423,
    "worthy": 9924,
    "sold": 2374,
    "staying": 5963,
    "charges": 2740,
    "breast": 5093,
    "environ@@": 11703,
    "Zim@@": 11243,
    "da": 2334,
    "promp@@": 8676,
    "hypot@@": 9909,
    "ò": 12550,
    "fibres": 7030,
    "má@@": 13546,
    "Dob@@": 11457,
    "calcul@@": 11829,
    "Nick": 5995,
    "ms": 1321,
    "stones": 5330,
    "Deleg@@": 9771,
    "daddy": 9884,
    "ignor@@": 8716,
    "’ll": 12330,
    "gu@@": 892,
    "repealing": 6073,
    "Explo@@": 12447,
    "Sta@@": 9880,
    "addressed": 2661,
    "Compensation": 8642,
    "independently": 10054,
    "Journal": 936,
    "Area": 4976,
    "ensure": 898,
    "..": 6449,
    "policies": 2002,
    "oslov@@": 12302,
    "older": 2724,
    "pon": 9043,
    "ligence": 5119,
    "Is": 455,
    "EF@@": 5636,
    "prosec@@": 7529,
    "liam@@": 13388,
    "soft@@": 11891,
    "decent": 7074,
    "čí@@": 13539,
    "presented": 2721,
    "Looking": 11374,
    "building": 1666,
    "reserve": 5223,
    "miz@@": 12280,
    "motherfucker": 8915,
    "cum@@": 8700,
    "producer": 2785,
    "Tom@@": 6615,
    "Centre": 4739,
    "Tim@@": 6648,
    "housing": 6996,
    "jo": 10480,
    "Sub@@": 3457,
    "kil@@": 4127,
    "<": 4375,
    "indicative": 8438,
    "rain": 3265,
    "cra@@": 2594,
    "announced": 4705,
    "ole@@": 9612,
    "rd@@": 11073,
    "offices": 7082,
    "IS": 4026,
    "hang": 4632,
    "osti": 13291,
    "chamber": 6876,
    "Jurisdiction": 4788,
    "centres": 6236,
    "servants": 6866,
    "premium": 8604,
    "Rad@@": 6113,
    "domici@@": 5719,
    "zo": 8803,
    "anda": 6722,
    "banka": 11978,
    "wake": 3824,
    "owned": 4344,
    "q": 4052,
    "une": 9723,
    "om@@": 861,
    "vez@@": 12921,
    "justice": 2487,
    "video": 3663,
    "essential": 2180,
    "pam@@": 12807,
    "rise": 4504,
    "broad": 5831,
    "­": 13514,
    "ham@@": 4902,
    "begins": 10121,
    "?@@": 9943,
    "η@@": 12352,
    "fav@@": 5862,
    "Description": 9294,
    "poin@@": 11336,
    "included": 1003,
    "pected": 7389,
    "assistant": 6759,
    "zni@@": 12944,
    "rape": 9481,
    "stay": 746,
    "pharmac@@": 2731,
    "photogra@@": 3267,
    "Bo@@": 1419,
    "damage": 2072,
    "rons": 9198,
    "phic": 6319,
    "able": 310,
    "Kal@@": 7799,
    "ă": 12400,
    "erion": 13040,
    ".e@@": 12816,
    "depos@@": 7328,
    "certainly": 3141,
    "pt": 4957,
    "genuine": 8856,
    "λ@@": 12111,
    "nationality": 5730,
    "ech": 10002,
    "/or": 12958,
    "reality": 4757,
    "tak@@": 7053,
    "Reg@@": 4422,
    "stre@@": 7515,
    "conven@@": 5451,
    "asks": 5560,
    "umb@@": 3425,
    "candidates": 5641,
    "loyd": 9515,
    "Ode@@": 12828,
    "guil@@": 7582,
    "ately": 2065,
    "complaints": 8009,
    "ste": 4605,
    "ory": 1198,
    "preneur@@": 11486,
    "forgive": 4440,
    "cia": 9770,
    "lac@@": 7577,
    "EU/@@": 12161,
    "ir@@": 792,
    "Lic@@": 10665,
    "ards": 2277,
    "dipl@@": 11481,
    "ally": 589,
    "viol@@": 3802,
    "single": 1020,
    "Down": 9923,
    "Cop@@": 7148,
    "art@@": 5077,
    "в": 13336,
    "critical": 6071,
    "’d": 12517,
    "Kim": 7439,
    "implementation": 1105,
    "guests": 6636,
    "Out@@": 6509,
    "count": 2601,
    "regulation": 2001,
    "draw@@": 5650,
    "respond@@": 10261,
    "BO": 12391,
    "bullshit": 5623,
    "use@@": 4684,
    "Fig@@": 12388,
    "deadline": 4891,
    "dem@@": 1269,
    "V": 1412,
    "POL@@": 10588,
    "period@@": 5890,
    "fax@@": 12945,
    "auto": 11931,
    "leaving": 2244,
    "button": 3975,
    "projects": 1365,
    "Cust@@": 8843,
    "etings": 8857,
    "ints": 4256,
    "reserved": 5628,
    "up@@": 1018,
    "sud@@": 12899,
    "secure": 5776,
    "/EC": 532,
    "orders": 2377,
    "competitive": 3217,
    "kne@@": 5294,
    "и@@": 12834,
    "ingu@@": 5913,
    "sense": 1571,
    "neighborhood": 9555,
    "ven@@": 2732,
    "other@@": 11448,
    "kind": 690,
    "resolution": 2098,
    "EL@@": 4616,
    "ds": 1366,
    "comply": 1501,
    "C_201@@": 7995,
    "autom@@": 9360,
    "competit@@": 9069,
    "macro@@": 8368,
    "tok": 13048,
    "Two": 2798,
    "agricultural": 1809,
    "agrees": 6286,
    "freed@@": 9402,
    "phs": 5678,
    "bun@@": 9939,
    "inspec@@": 5480,
    "SE@@": 7713,
    "Brown": 9224,
    "ony": 2424,
    "Jeff@@": 11070,
    "Dot@@": 12587,
    "neutrop@@": 12052,
    "kou": 13415,
    "nil": 12775,
    "moves": 8326,
    "guidance": 5943,
    "dova": 11023,
    "street": 2484,
    "TSI": 8845,
    "p.m.": 3126,
    "pom@@": 12135,
    "Pok@@": 12484,
    "INI": 10545,
    "lech@@": 13295,
    "bottle": 4554,
    "NUTS": 10885,
    "offers": 5961,
    "Jones": 8452,
    "Slovak": 8697,
    "si@@": 775,
    "valuable": 7132,
    "cess@@": 4296,
    "origin": 2745,
    "external": 1940,
    "submission": 5492,
    "results": 1038,
    "sess@@": 9344,
    "agricul@@": 13019,
    "tage": 6564,
    "disorders": 2973,
    "prop@@": 12377,
    "Who": 1083,
    "There@@": 13551,
    "sport": 4450,
    ".010@@": 11511,
    ";@@": 4604,
    "Jackie": 9458,
    "gs": 1895,
    "mystery": 9517,
    "ald": 5738,
    "psych@@": 5005,
    "buddy": 2788,
    ",": 5,
    "Jim@@": 11915,
    "appeared": 5122,
    "model": 2262,
    "UBLI@@": 10243,
    "Sergeant": 6867,
    "sa@@": 1136,
    "Turn": 7453,
    "ation@@": 3648,
    "volumes": 8557,
    "ech@@": 2607,
    "day": 251,
    "%@@": 3211,
    "Women": 10356,
    "struct@@": 6873,
    "sw@@": 1345,
    "elen": 12539,
    "proceed@@": 9608,
    "abroad": 5057,
    "Da@@": 4741,
    "if@@": 11317,
    "ffy": 9955,
    "Van": 7877,
    "decrease": 4489,
    "ni": 6180,
    "prac@@": 12685,
    "Rule": 1420,
    "Conclus@@": 6110,
    "KB": 9505,
    "upset": 5596,
    "u@@": 502,
    "C.": 4608,
    "IS@@": 1284,
    "tise": 12458,
    "hus@@": 10819,
    "fe": 10514,
    "schools": 8047,
    "bother": 5002,
    "bits": 8480,
    "shared": 4860,
    "EU/1/@@": 8248,
    "²": 12227,
    "lh@@": 12627,
    "ved": 5479,
    "Emer@@": 9904,
    "Devel@@": 12609,
    "forma": 13091,
    "Tyler": 9370,
    "tele@@": 2920,
    "iness": 2415,
    "help": 312,
    "Cli@@": 10821,
    "dra@@": 1596,
    ")@@": 1550,
    "Luxem@@": 13025,
    "integrity": 8457,
    "miles": 2931,
    "mechanical": 7438,
    "mp": 4037,
    "ac": 4286,
    "regards": 494,
    "Seb@@": 10673,
    "lot@@": 8622,
    "diction": 6444,
    "suddenly": 2354,
    "butter": 6505,
    "threat@@": 5131,
    "ising": 1014,
    "gest": 7219,
    "Make": 4909,
    "Fri@@": 7539,
    "Honor": 5722,
    "sought": 4859,
    "niz@@": 10849,
    "downstairs": 10320,
    "studi@@": 12612,
    "symbol@@": 9751,
    "Mrs": 6752,
    "tel@@": 7255,
    "imi": 12033,
    "inction": 12001,
    "gallery": 11047,
    "lep@@": 10403,
    "considering": 5710,
    "Put": 2738,
    "Car@@": 1380,
    "lear@@": 4751,
    "pulling": 8732,
    "ober": 13171,
    "glucose": 8143,
    "Jess": 10769,
    "expression": 3151,
    "compliance": 1233,
    "protective": 5241,
    "tail@@": 7822,
    "considerations": 5081,
    "nation@@": 9012,
    "arrive": 9312,
    "I.@@": 4926,
    "show@@": 11315,
    "Scot@@": 6235,
    "junction": 13292,
    "ida": 6640,
    "arm": 2919,
    "organic": 5551,
    "die": 1039,
    "es@@": 603,
    "2@@": 22,
    "ful": 848,
    "Some@@": 10823,
    "smoking": 6959,
    "Eri@@": 10339,
    "kon@@": 9846,
    "registered": 1817,
    "contain": 1888,
    "Sher@@": 8860,
    "ived": 5884,
    "mez@@": 12479,
    "Cho@@": 5829,
    "zel": 11684,
    "San@@": 4587,
    "pas@@": 1671,
    "fa": 10959,
    "Vel@@": 10993,
    "accelerated": 6069,
    "gran@@": 7662,
    "eties": 6362,
    "Son": 8278,
    "Ox@@": 11270,
    "result": 767,
    "Find": 7241,
    "Bad": 9957,
    "sing@@": 8733,
    "Viv@@": 10946,
    "heart@@": 10032,
    "gument": 13432,
    "returns": 8167,
    "moment": 860,
    "crow@@": 6637,
    "size": 2112,
    "Part": 1531,
    "itted": 10905,
    "lene": 6380,
    "conce@@": 7770,
    "language": 1838,
    "vast": 11083,
    "Jord@@": 12433,
    "Single": 5805,
    "cid": 11597,
    "que@@": 10452,
    "sly": 12837,
    "Mon@@": 1434,
    "product": 508,
    "prote@@": 9261,
    "aj": 12800,
    "Harvey": 10411,
    "atives": 7920,
    "arest": 6952,
    "inter": 1603,
    "tr": 13264,
    "zes": 7171,
    "Ke@@": 4342,
    "Austr@@": 7797,
    "ve@@": 2249,
    "vedly": 13401,
    "insul@@": 5412,
    "terro@@": 9411,
    "Rec@@": 2430,
    "honour": 12477,
    "monit@@": 10898,
    "CPC": 10078,
    "hom@@": 3004,
    "concomit@@": 7208,
    "þ@@": 13576,
    "veli@@": 12133,
    "tributions": 12783,
    "accord@@": 12487,
    "Rub@@": 11346,
    "Susan": 7754,
    "mean": 214,
    "ö": 12635,
    "exact": 7466,
    "send": 1229,
    "build": 4548,
    "specified": 1004,
    "iment@@": 12610,
    "sions": 1712,
    "therap@@": 6533,
    "green@@": 12245,
    "Major": 6260,
    "MIS@@": 11812,
    "vis@@": 1237,
    "Land": 7521,
    "Ç@@": 13230,
    "xth": 7674,
    "cells": 3405,
    "Show": 4137,
    "mentioned": 1054,
    "participation": 1996,
    "hur@@": 3770,
    "calculate": 9277,
    "store": 3241,
    "fin@@": 1989,
    "zap@@": 11708,
    "Soon": 10402,
    "ular": 5876,
    "conclusions": 3255,
    "parents": 1250,
    "appoint@@": 11997,
    "im": 3842,
    "gate": 4040,
    "discre@@": 8538,
    "requests": 3299,
    "portfoli@@": 12378,
    "achieve": 5415,
    "Portugu@@": 13053,
    "proposes": 7426,
    "ander": 5812,
    "adu": 13042,
    "Judge": 8521,
    "argued": 8962,
    "par@@": 973,
    ".c@@": 11449,
    "share": 1271,
    "Larry": 7790,
    "text": 1516,
    "ign@@": 4383,
    "appellant": 5287,
    "statistics": 3985,
    "quantitative": 7882,
    "craft": 9325,
    "inka": 13402,
    "baz@@": 11966,
    "trail": 8058,
    "tible": 8270,
    "acco": 12108,
    "incentive": 8742,
    "ol": 1782,
    "Ser@@": 3673,
    "gau@@": 9496,
    "ši@@": 13098,
    "vy": 9564,
    "loves": 3395,
    "suicide": 6375,
    "strip@@": 8690,
    "linie": 13361,
    "preventing": 4404,
    "var": 10953,
    "contributing": 10503,
    "approaches": 8964,
    "July": 1187,
    "temperature": 3031,
    "shame": 6301,
    "Total": 3332,
    "described": 1997,
    "lled": 12489,
    "speed": 2552,
    "created": 2302,
    "era": 4606,
    "symbol": 6923,
    "suff@@": 7776,
    "interpret@@": 11566,
    "via": 2859,
    "atom@@": 9674,
    "n@@": 496,
    "umes": 11104,
    "swe@@": 2685,
    "ject": 5132,
    "Ki@@": 8046,
    "particular": 315,
    "ma@@": 1049,
    "Anybody": 10538,
    "Remember": 4201,
    "vet@@": 12159,
    "Christop@@": 10876,
    "installed": 5435,
    "Z@@": 899,
    "It@@": 8983,
    "ė@@": 12620,
    "ä": 12738,
    "º": 13301,
    "allow": 1368,
    "balls": 5654,
    "wanna": 983,
    "pole@@": 11810,
    "effects": 998,
    "plified": 12773,
    "Consid@@": 10065,
    "Yan@@": 10935,
    "fri@@": 7767,
    "ian": 1167,
    "Inforegio": 8790,
    "comments": 2212,
    "priorit@@": 11575,
    "Besides": 7183,
    "objections": 7061,
    "oxy@@": 10068,
    "bike": 11762,
    "EFSA": 8250,
    "entrusted": 7414,
    "cooperating": 6357,
    "stvo": 12827,
    "ik@@": 10764,
    "ci@@": 937,
    "regim@@": 6704,
    "<pad>": 0,
    "reform": 4224,
    "Hit@@": 9776,
    "village": 4777,
    "lighting": 9000,
    "lov": 11899,
    "stal@@": 6575,
    "cabin": 5911,
    "iro": 9679,
    "ová": 12412,
    "gla@@": 5253,
    "ro": 2034,
    "rich": 3043,
    "REGULATION": 2279,
    "debate": 4135,
    "mun@@": 5291,
    "eth@@": 2975,
    "run": 1076,
    "ů": 13437,
    "sko": 12186,
    "Tri@@": 7699,
    "tiva": 11993,
    "general": 585,
    "rial": 8057,
    "gan": 6593,
    "Eston@@": 11334,
    "society": 2019,
    "XI": 10907,
    "Server": 8392,
    "dition": 6937,
    "ingredients": 8679,
    "begin": 5979,
    "Assem@@": 8369,
    "deal@@": 7815,
    "success@@": 10391,
    "ublic@@": 11203,
    "relat@@": 6879,
    "dy@@": 6224,
    "chir@@": 13173,
    "eth": 7761,
    "percentage": 3553,
    "Address": 10492,
    "cour@@": 6002,
    "Kong": 8817,
    "On@@": 7047,
    "intly": 12262,
    "ood": 6808,
    "AR@@": 921,
    "wast@@": 4595,
    "milk": 2074,
    "materials": 1658,
    "jevo": 12840,
    "enu": 12176,
    "insurance": 1305,
    "barri@@": 10255,
    "religious": 7876,
    "preparatory": 7798,
    "Bas@@": 8955,
    "Ray@@": 8514,
    "regional": 993,
    "scrut@@": 12805,
    "Arab@@": 10415,
    "ń@@": 11861,
    "Sp@@": 3610,
    "demonstrate": 6001,
    "ST": 9879,
    "Gw@@": 10300,
    "Ny@@": 11432,
    "Adv@@": 9462,
    "tun@@": 6352,
    "nical": 12316,
    "lou": 13075,
    "Services": 5510,
    "stability": 4283,
    "disrup@@": 10297,
    "ceny": 13550,
    "flag": 4265,
    "younger": 6390,
    "extreme": 9874,
    "apply": 628,
    "tes": 6182,
    "pain": 1849,
    "pursuant": 2093,
    "bin@@": 6084,
    "azy@@": 13163,
    "Mechan@@": 10440,
    "exemption": 3065,
    "policy": 602,
    "potential": 1224,
    "tis": 10323,
    "sheets": 7151,
    "rections": 8088,
    "pud@@": 10766,
    "import@@": 2820,
    "atmo@@": 5978,
    "ailed": 7945,
    "Ned@@": 10051,
    "Bro@@": 3594,
    "dawn": 9104,
    "pros@@": 12021,
    "tin@@": 6448,
    "steal": 5513,
    "contact": 1343,
    "Chuck": 7899,
    "connected": 2054,
    "shield": 8310,
    "Keywords": 10774,
    "culture": 5933,
    "Fel@@": 10069,
    "plate": 4000,
    "flight": 2994,
    "bly": 2456,
    "ishment": 6475,
    "digital": 5467,
    "past@@": 8932,
    "forgot": 2898,
    "Economic": 1446,
    "Coming": 12453,
    "Report": 3701,
    "áv@@": 13080,
    "learn": 2479,
    "ute@@": 12720,
    "y@@": 421,
    "aliment@@": 12778,
    "gray": 7962,
    "iv": 10033,
    "Despite": 9658,
    "submitted": 951,
    "ò@@": 13506,
    "family": 657,
    "jen@@": 12614,
    "mous": 4427,
    "ý@@": 13212,
    "nosy": 13284,
    "å@@": 11942,
    "visit": 3427,
    "orate": 10047,
    "ough": 8488,
    "fish": 1802,
    "N@@": 364,
    "£": 12370,
    "comm@@": 1134,
    "Sin@@": 11069,
    "level@@": 10694,
    "P.": 7251,
    "can@@": 1840,
    "placement": 10997,
    "partner": 2655,
    "All": 243,
    "research": 1126,
    "robot": 7866,
    "Aust@@": 11291,
    "Tent@@": 13034,
    "Hu@@": 4532,
    "ae": 6939,
    "buz@@": 12706,
    "Civil": 3030,
    "Bav@@": 11785,
    "dic@@": 2316,
    "encouraged": 11110,
    "band": 3774,
    "ener@@": 11406,
    "B.": 5032,
    "elek@@": 13286,
    "aps": 4827,
    "stein": 5723,
    "Sun@@": 10296,
    "personally": 5469,
    "teen@@": 10235,
    "ually": 4282,
    "initi@@": 2595,
    "Another": 8718,
    "ease": 7985,
    "by": 34,
    "jam@@": 9346,
    "wear": 2522,
    "partners": 2818,
    "syner@@": 8559,
    "refuge@@": 9210,
    "6": 118,
    "ci": 9747,
    "enti@@": 4048,
    "Tor@@": 6940,
    "cre@@": 1053,
    "finding": 2713,
    "enable": 7745,
    "poli": 12613,
    "printed": 5285,
    "ots": 2656,
    "Marks": 7551,
    "urement": 12353,
    "everybody": 4421,
    "B.@@": 6990,
    "produ@@": 5468,
    "Ross": 8904,
    "project": 1247,
    "a": 9,
    "by@@": 5874,
    "How@@": 10958,
    "corporate": 7175,
    "Elizabeth": 8992,
    "Sna@@": 12572,
    "metabol@@": 7965,
    "zi": 9627,
    "profits": 8055,
    "storm": 5740,
    "Instead": 9410,
    "execution": 5524,
    "Dead": 11620,
    "zle": 13222,
    "vad@@": 11875,
    "dys@@": 10636,
    "backup": 8415,
    "uk@@": 5632,
    "blame": 5331,
    "discrimination": 3899,
    "interested": 1089,
    "Argent@@": 10698,
    "omet@@": 5936,
    "territories": 8262,
    "ín": 12471,
    "puts": 5205,
    "mat": 9786,
    "Other@@": 13216,
    "Force": 8984,
    "taught": 4713,
    "mou@@": 4439,
    "almost": 761,
    "kap@@": 12803,
    "ription": 10539,
    "district": 5352,
    "De": 9061,
    "Qu@@": 1107,
    "shouted": 10060,
    "mptom@@": 12203,
    "tat@@": 8241,
    "Republi@@": 13414,
    "Lor@@": 8520,
    "Technolog@@": 10647,
    "RA@@": 2344,
    "institution": 1818,
    "os@@": 1703,
    "granting": 3071,
    "Pal@@": 3878,
    "URL": 10613,
    "Spain": 2648,
    "Poland": 3815,
    "century": 5227,
    "transparency": 4193,
    "»": 6217,
    "You": 51,
    "γ@@": 12436,
    "an": 49,
    "ffer@@": 11167,
    "η": 12543,
    "Those": 3970,
    "Nau@@": 12875,
    "chlo@@": 12512,
    "zav@@": 13243,
    "talk": 407,
    "democ@@": 11881,
    "Moreover": 4294,
    "whom": 3536,
    "particul@@": 7669,
    "constant": 6173,
    "carry": 1835,
    "motion": 6709,
    "eze": 5765,
    "balanced": 6659,
    "travel@@": 4778,
    "Ÿ": 12751,
    "addit@@": 6595,
    "walls": 3904,
    "tools": 3807,
    "vol@@": 3716,
    "Clo@@": 8793,
    "fined": 7057,
    "Intra@@": 11182,
    "idem": 12461,
    "appointed": 2493,
    "renewable": 6020,
    "offici@@": 11421,
    "ith": 3624,
    "developments": 4111,
    "cumul@@": 8812,
    "bul@@": 2545,
    "icul@@": 10653,
    "exp@@": 3092,
    "und": 7157,
    "toxic@@": 10216,
    "reading": 2863,
    "modi@@": 7496,
    "Agricul@@": 12977,
    "(@@": 702,
    "elect@@": 5771,
    "ody": 5986,
    "cor@@": 1111,
    "ZPO": 9570,
    "brou@@": 13378,
    "unav@@": 12221,
    "goal": 8013,
    "favor": 4515,
    "rad@@": 5263,
    "plan@@": 3517,
    "change": 586,
    "distribu@@": 13248,
    "ada": 8849,
    "manag@@": 6076,
    "map": 3976,
    "informed": 1839,
    "ha@@": 877,
    "inet@@": 12988,
    "sheet": 3670,
    "continued": 1984,
    "Dam@@": 6435,
    "rective": 9211,
    "terist@@": 11796,
    "Lieutenant": 5643,
    "mu@@": 1740,
    "Industrial": 10122,
    "pr": 12964,
    "domestic": 2471,
    "city": 1376,
    "chem@@": 5157,
    "tea": 4325,
    "desi@@": 6420,
    "Dutch": 6916,
    "Frank@@": 7696,
    "Prof@@": 12573,
    "equal": 2403,
    "fat@@": 4574,
    "tz@@": 11460,
    "ulti@@": 7993,
    "Appar@@": 13536,
    "lement": 9795,
    "Central": 3287,
    "hot@@": 11064,
    "obal@@": 12237,
    "These": 671,
    "source": 2256,
    "flav@@": 7534,
    "lack": 5616,
    "wrec@@": 9453,
    "chy": 6986,
    "ene": 4194,
    "AST@@": 11337,
    "traff@@": 9087,
    "strong": 1463,
    "win@@": 2574,
    "ditional": 12443,
    "Daddy": 2962,
    "planet@@": 13087,
    "cts": 2592,
    "aged": 3024,
    "people": 218,
    "Within": 10644,
    "line": 618,
    "TIC@@": 2186,
    "ho": 6618,
    "Everything": 3722,
    "alarm": 6428,
    "blue": 2465,
    "perfectly": 5067,
    "ty": 1027,
    "Shh": 11583,
    "services": 480,
    "ç@@": 9812,
    "Sli@@": 11380,
    "availability": 7286,
    "routine": 9748,
    "bright": 5321,
    "future": 989,
    "ral@@": 10629,
    "cal": 7846,
    "portun@@": 11719,
    "Um@@": 11683,
    "Register": 9527,
    "sources": 2404,
    "rec@@": 1443,
    "munici@@": 6116,
    "ch@@": 412,
    "feder@@": 12118,
    "constitutes": 4708,
    "There": 237,
    "liquid@@": 6263,
    "loc@@": 2489,
    "immediate": 4365,
    "established": 696,
    "strop@@": 12622,
    "Though": 11264,
    "PA": 10740,
    "Cos": 13501,
    "toler@@": 8794,
    "shirt": 4259,
    "classified": 2684,
    "kins": 7370,
    "ens": 1327,
    "termination": 7955,
    "kol": 13442,
    "today": 662,
    "formula": 8205,
    "Pay@@": 12197,
    "pus@@": 7317,
    "providers": 4878,
    "mil@@": 4310,
    "hiding": 3342,
    "lah@@": 11694,
    "Offic@@": 11848,
    "Zo@@": 9509,
    "access": 888,
    "American": 2156,
    "na@@": 1144,
    "OLA@@": 12897,
    "ré@@": 11348,
    "joined": 4552,
    "Pret@@": 12765,
    "bailiff": 5977,
    "un@@": 171,
    "watch": 1714,
    "Alice": 8345,
    "but@@": 2926,
    "vot@@": 10757,
    "DP@@": 10227,
    "hydro@@": 2764,
    "summer": 3915,
    "ski": 4740,
    "tang@@": 8917,
    "Sco@@": 10929,
    "madam": 12219,
    "Man@@": 2467,
    "hm": 12576,
    "cus@@": 8968,
    "shru@@": 12320,
    "ke@@": 3447,
    "centre": 5178,
    "could": 115,
    "innov@@": 11639,
    "cleared": 10139,
    "pop": 11229,
    "programme": 781,
    "grab@@": 12729,
    "arda": 12866,
    "nik": 11136,
    "Trans@@": 7930,
    "cut@@": 10605,
    "Bea@@": 10287,
    "hydr@@": 8239,
    "web@@": 11357,
    "buildings": 4299,
    "infrastructure": 2491,
    "CEL@@": 11826,
    "E.@@": 9190,
    "fair": 2141,
    "Jo@@": 2292,
    "Public": 4443,
    "benef@@": 4128,
    "fr@@": 12533,
    "circle": 5900,
    "sin@@": 5377,
    "views": 4087,
    "wal@@": 2586,
    "hill": 6544,
    "Repe@@": 9029,
    "Bour@@": 11053,
    "ici": 12462,
    "ﬁ": 12947,
    "weather": 5814,
    "retro@@": 7766,
    "balance": 2008,
    "dedicated": 11730,
    "dr@@": 3189,
    "comes": 1266,
    "gie": 10471,
    "oka": 12136,
    "within": 228,
    "Mars": 9898,
    "adjust@@": 7512,
    "extraordinary": 8346,
    "I'm": 4933,
    "sphere": 5489,
    "restore": 9922,
    "assistance": 1190,
    "absolutely": 5927,
    "Enter@@": 11295,
    "ost": 10728,
    "tera": 11846,
    "tively": 6021,
    "cil": 6941,
    "edu@@": 9595,
    "suppli@@": 12813,
    "wrap@@": 5273,
    "áz@@": 12978,
    "conformity": 3400,
    "remun@@": 11686,
    "Mam@@": 11731,
    "nat@@": 2813,
    "study": 1634,
    "sell": 2519,
    "Office": 1869,
    "ities": 1156,
    "quotas": 5165,
    "th@@": 333,
    "Jimmy": 4564,
    "Bow@@": 10515,
    "Col@@": 2327,
    "kers": 5607,
    "ora": 5386,
    "adults": 6458,
    "BE": 9288,
    "agreements": 1476,
    "ju": 12153,
    "bund@@": 9618,
    "standing": 2250,
    "ese": 5748,
    "precious": 8219,
    "jumped": 9130,
    "Wom@@": 11707,
    "drob@@": 13181,
    "Mou@@": 10381,
    "mend@@": 10998,
    "codes": 4258,
    "ņ@@": 13183,
    "treat": 3643,
    "vag@@": 9202,
    "stim@@": 11956,
    "all@@": 10242,
    "XX": 10827,
    "Shut": 4246,
    "rapidly": 8507,
    "win": 2085,
    "dek": 13147,
    "liability": 3183,
    "bottom": 4309,
    "lena": 12617,
    "vive": 11605,
    "inj@@": 3816,
    "cas@@": 2632,
    "acknowled@@": 6733,
    "has@@": 12761,
    "Of": 838,
    "Was": 5128,
    "ized": 3592,
    "mas@@": 4843,
    "Author@@": 7682,
    "sob@@": 8769,
    "comment": 8563,
    "drinking": 4197,
    "War": 7118,
    "Jest@@": 13495,
    "service": 568,
    "class": 2129,
    "smu@@": 8416,
    "foster": 11985,
    "Arth@@": 13229,
    "raised": 2239,
    "regard": 827,
    "weeks": 1296,
    "brid@@": 9734,
    "4": 102,
    "As": 365,
    "cy": 2452,
    "foun@@": 4079,
    "Regist@@": 7354,
    "jem@@": 13168,
    "corrections": 8216,
    "aware": 3373,
    "stran@@": 5025,
    "gres@@": 7262,
    "Nab@@": 12298,
    "dream": 2368,
    "FOR@@": 6614,
    "opi@@": 11920,
    "et@@": 659,
    "question": 490,
    "pressive": 7158,
    "distinc@@": 7946,
    "Barney": 9989,
    "veter@@": 9647,
    "brat": 12089,
    "dialogue": 4476,
    "D": 788,
    "Dale": 10631,
    "agon": 7395,
    "pri@@": 3108,
    "fields": 5392,
    "end@@": 1056,
    "technical": 878,
    "sor": 5990,
    "Veg@@": 11042,
    "possibly": 10183,
    "pleasant": 6095,
    "Amend@@": 9667,
    "dea@@": 7387,
    "SG@@": 7229,
    "dis@@": 238,
    "Tok@@": 9908,
    "reven@@": 6934,
    "hem@@": 10425,
    "beg": 7494,
    "sharing": 5354,
    "aga@@": 11654,
    "handled": 10690,
    "blind": 4760,
    "Federal": 6168,
    "Pan": 11459,
    "Brook@@": 11108,
    "accident": 2590,
    "Jim": 4494,
    "à": 3234,
    "lear": 9681,
    "high@@": 3355,
    "Sal@@": 3331,
    "class@@": 8712,
    "Whe@@": 11268,
    "correct": 3882,
    "..@@": 12403,
    "Test": 7136,
    "regime": 3832,
    "decided": 1303,
    "industries": 9231,
    "ga@@": 1439,
    "sama": 11972,
    "divo@@": 13374,
    "Cre@@": 3934,
    "consumers": 2934,
    "expi@@": 5744,
    "smo@@": 4089,
    "responsible": 789,
    "mortg@@": 8118,
    "advance": 4124,
    "Catherine": 10864,
    "arbit@@": 7292,
    "spend": 3423,
    "situations": 3900,
    "entered": 1530,
    "caution": 7605,
    "marketed": 9599,
    "CF@@": 7268,
    "`": 11865,
    "Z": 3468,
    "default": 3735,
    "ves": 1386,
    "horizont@@": 12293,
    "private": 1070,
    "but": 61,
    "education": 1639,
    "š@@": 10559,
    "amazing": 2174,
    ".1": 8360,
    "hazard": 9546,
    "Leg@@": 7134,
    "techniques": 8578,
    "gender": 7250,
    "frigh@@": 10786,
    "ici@@": 3252,
    "renewed": 9214,
    "alism": 8269,
    "chop@@": 9314,
    "Česká": 13405,
    "dol@@": 7768,
    "un": 4845,
    "edon@@": 10565,
    "Ok@@": 11431,
    "ire": 7159,
    "zh@@": 12371,
    "Netherlands": 2542,
    "comprehensive": 4448,
    "cu": 12597,
    "luck": 2729,
    "guarantee": 2147,
    "achievement": 9953,
    "terrorism": 8503,
    "Cole": 10366,
    "notably": 8870,
    "somebody": 4013,
    "Declar@@": 7661,
    "ested": 5998,
    "Ral@@": 11898,
    "SPO@@": 12096,
    "Dol@@": 9548,
    "orama": 12806,
    "alumin@@": 7803,
    "heading": 1800,
    "distinct": 11568,
    "fre@@": 2961,
    "Convention": 1819,
    "binding": 2525,
    "avir@@": 11571,
    "LA@@": 2839,
    "fit": 3929,
    "access@@": 3632,
    "vr@@": 12664,
    "etly": 12144,
    "CONTENTS": 9623,
    "May@@": 6447,
    "pping": 7116,
    "satisfied": 5088,
    "ss@@": 1752,
    "stream": 5348,
    "mp@@": 2662,
    "farmer": 8891,
    "back": 164,
    "filled": 2639,
    "she@@": 10041,
    "Sir": 2711,
    "Bla@@": 5912,
    "pac@@": 3278,
    "cry@@": 5338,
    "meas@@": 5169,
    "Avenue": 10542,
    "omo@@": 10577,
    "seconds": 2620,
    "cher": 3207,
    "slaugh@@": 7737,
    "certificate": 1969,
    "mod@@": 2275,
    "alert": 8950,
    "otherapy": 6698,
    "rison": 9655,
    "hn@@": 12902,
    "tees": 11738,
    "Such": 3200,
    "Dod@@": 11212,
    "recent": 3688,
    "kal@@": 10732,
    "Decision": 475,
    "exclusively": 4230,
    "Hannah": 10547,
    "Thomas": 5980,
    "Stran@@": 12236,
    "involving": 3460,
    "Ah@@": 10176,
    "believ@@": 4523,
    "living": 1557,
    "TE@@": 3916,
    "CI@@": 3288,
    "had": 96,
    "essa": 10072,
    "buy": 1868,
    "boards": 10676,
    "appointment": 5068,
    "suitable": 3963,
    "warning": 3625,
    "cé@@": 13321,
    "........@@": 10944,
    "stopping": 7940,
    "Select": 7683,
    "(5": 3931,
    "worse": 2090,
    "ow": 2171,
    "ta": 736,
    "reve@@": 5743,
    "Caroline": 10321,
    "him@@": 12650,
    "scientific": 2461,
    ".eu@@": 10541,
    "Proposal": 4915,
    "soil": 4807,
    "Shit": 2944,
    "-": 26,
    "stage": 1961,
    "igns": 6355,
    "getary": 11767,
    "rank": 5850,
    "da@@": 2682,
    "lou@@": 4726,
    "Offici@@": 10903,
    "spon@@": 5047,
    "♪": 2095,
    "Gir@@": 7376,
    "tained": 4680,
    "chron@@": 12002,
    "Bob": 4918,
    "=": 1413,
    "cancel@@": 5818,
    "corn": 9740,
    "menu": 5175,
    "Explan@@": 13096,
    "Sure": 3724,
    "7@@": 110,
    "mighty": 11039,
    "hole": 3010,
    "trop@@": 8168,
    "fill": 5316,
    "definit@@": 10289,
    "army": 3042,
    "thirty": 7019,
    "condu@@": 6570,
    "process": 994,
    "yellow": 4592,
    "package": 2340,
    "national": 280,
    "Ple@@": 9293,
    "unem@@": 10229,
    "Land@@": 8172,
    "Bob@@": 11637,
    "manner": 2295,
    "SIS": 7858,
    "appe@@": 5194,
    "baseline": 7360,
    "hra": 13458,
    "Strateg@@": 12633,
    "than": 148,
    "SR": 8358,
    "rate": 776,
    "obli@@": 12039,
    "IM": 10975,
    "MP": 8730,
    "Hank": 8946,
    "spor@@": 10686,
    "IB@@": 9721,
    "control@@": 3781,
    "uncle": 6398,
    "experts": 3214,
    "component": 3828,
    "hawk": 12041,
    "areas": 856,
    "uel": 7276,
    "iti@@": 4141,
    "(1@@": 12247,
    "producers": 1377,
    "trib@@": 6730,
    "anim@@": 7391,
    "convinc@@": 8626,
    "threat": 4729,
    "dov": 13031,
    "indirectly": 6740,
    "Statute": 11074,
    "adver@@": 4054,
    "being": 605,
    "differentiated": 7821,
    "cy@@": 3488,
    "procedural": 3360,
    "sers": 6044,
    "Post": 10809,
    "check": 1454,
    "alin": 11787,
    "Thur@@": 7248,
    "fts": 5955,
    "King@@": 11347,
    "quot@@": 7327,
    "spent": 2538,
    "frightened": 11689,
    "hardly": 7492,
    "Mu@@": 5076,
    "asking": 1975,
    "higher": 1151,
    "phical": 9851,
    "covered": 637,
    "border": 1428,
    "dit@@": 5147,
    "operations": 1968,
    "micro": 7638,
    "THEMES": 5437,
    "Can": 821,
    "GM@@": 10667,
    "behavi@@": 10826,
    "REGULA@@": 12325,
    "king": 815,
    "recognized": 8156,
    "bovine": 8328,
    "pride": 8756,
    "guaranteed": 4862,
    "managing": 3826,
    "LB": 10748,
    "lor": 11048,
    "Point": 7750,
    "formul@@": 10108,
    "Get": 565,
    "ell": 2758,
    "benefit": 1764,
    "EZ@@": 13561,
    "minimum": 1592,
    "freeze": 9929,
    "Unfortunately": 10555,
    "corruption": 8308,
    "LU@@": 10198,
    "clus@@": 9692,
    "express": 7076,
    "rence": 8789,
    "eating": 4516,
    "né": 13481,
    "cont@@": 1681,
    "terminated": 7824,
    "iting": 1423,
    "goodbye": 9126,
    "back@@": 3928,
    "Our": 3014,
    "investors": 5749,
    "CH": 9807,
    "flex@@": 12154,
    "happ@@": 3667,
    "tam@@": 8569,
    "figure": 1633,
    "bit": 1500,
    "È@@": 13093,
    "ční": 12580,
    "steel": 3338,
    "mov@@": 11800,
    "’": 261,
    "ophi@@": 10393,
    "U.@@": 12046,
    "wider": 9980,
    "uli": 11948,
    "address": 1228,
    "between": 187,
    "Pol@@": 5825,
    "direct": 1396,
    "bor@@": 3848,
    "Exist@@": 11687,
    "mly": 5121,
    "crime": 1846,
    "commit": 9319,
    "Manufac@@": 9760,
    "nation": 5673,
    "al@@": 271,
    "allocation": 4369,
    "blad@@": 9787,
    "lob@@": 6425,
    "challenge": 5629,
    "ité": 12418,
    "uts": 5883,
    "seh@@": 13245,
    "Tu@@": 4685,
    "ok": 3694,
    "Jerry": 8136,
    "diplom@@": 10738,
    "withdrawn": 5984,
    "−": 12185,
    "labour": 2781,
    "Cru@@": 9412,
    "motor": 5625,
    "ang@@": 1594,
    "s’": 1278,
    "áš": 13015,
    "TH@@": 2821,
    "Holy": 6490,
    "thir@@": 5536,
    "pa@@": 895,
    "Master": 5509,
    "occup@@": 3996,
    "Jennifer": 10967,
    "ρ@@": 11561,
    "reliable": 4703,
    "Document": 9666,
    "initiatives": 4057,
    "machine": 2482,
    "actors": 5101,
    "uta": 11589,
    "ink": 3147,
    "dok@@": 12658,
    "dness": 7345,
    "republi@@": 13328,
    "syst@@": 9575,
    "bles@@": 11327,
    "social": 790,
    "analy@@": 2844,
    "girlfriend": 4607,
    "immedi@@": 13496,
    "Cam@@": 3208,
    "provid@@": 12943,
    "ff": 1874,
    "prav@@": 12492,
    "ult": 5958,
    "vari@@": 3098,
    "bu@@": 1349,
    "painting": 8135,
    "Name": 4221,
    "Vegas": 9762,
    "p.": 521,
    "action": 599,
    "unknown": 5095,
    "ilure": 12273,
    "Ni@@": 4082,
    "Por@@": 5049,
    "Hurry": 8675,
    "introducing": 6616,
    "exceptions": 8290,
    "structure": 2153,
    "script": 9650,
    "folder": 5474,
    "lesson": 7942,
    "Anything": 9001,
    "happened": 553,
    "rych@@": 13103,
    "Sund@@": 12148,
    "ACT": 10495,
    "stitu@@": 9142,
    "look": 267,
    "PRA@@": 11825,
    "uli@@": 7992,
    "gli@@": 11158,
    "CT@@": 7680,
    "appar@@": 12534,
    "holder": 2553,
    "ail@@": 9704,
    "Annual": 4947,
    "ah@@": 4913,
    "plant@@": 9638,
    "avai@@": 13466,
    "Stav@@": 11834,
    "know": 65,
    "matic": 5041,
    "mandate": 6381,
    "inning": 5840,
    "reinfor@@": 5045,
    "chro@@": 4989,
    "uniform": 3392,
    "ements": 5701,
    "ize": 4759,
    "AL@@": 2628,
    "clin@@": 5879,
    "lady": 2230,
    "T.": 9861,
    "stairs": 4447,
    "bone": 4315,
    "distant": 8101,
    "towards": 1065,
    "ua": 9715,
    "Mr": 1270,
    "mixed": 5225,
    "Š@@": 11219,
    "BE@@": 11996,
    "Poor": 11193,
    "opinion": 1043,
    "strategies": 5538,
    "happens": 2205,
    "Bru@@": 9654,
    "dangerous": 2208,
    "Neu@@": 11742,
    "Fer@@": 4540,
    "roll": 5683,
    "murder": 2328,
    "Marsh@@": 10755,
    "vla@@": 13083,
    "Dude": 7067,
    "ã@@": 10875,
    "miner@@": 11153,
    "MAN@@": 9378,
    "Fine": 3918,
    ".europa.eu": 8540,
    "book": 1375,
    "Ac@@": 1598,
    "COUNCIL": 3953,
    "sour@@": 7469,
    "bai@@": 11758,
    "CT": 10345,
    "erve": 9398,
    "Colonel": 4929,
    "Anne@@": 12218,
    "chi": 11033,
    "ced@@": 9283,
    "nn": 9852,
    "powerful": 4894,
    "Red@@": 9836,
    "¿": 13486,
    "Francis@@": 10100,
    "Mic@@": 10162,
    "pep@@": 8818,
    "illi@@": 9089,
    "generate": 11551,
    "salary": 8189,
    "ε": 13214,
    "Mot@@": 10098,
    "referen@@": 11872,
    "Á@@": 12164,
    "Information": 2927,
    "ries": 1922,
    "minist@@": 4416,
    "Ali": 10385,
    "EA@@": 2264,
    "started": 919,
    "hu": 11504,
    "mer@@": 1178,
    "Mur@@": 5399,
    ".cz": 10502,
    "lab": 5385,
    "tough": 7593,
    "ze@@": 10012,
    "por@@": 2278,
    "ensures": 4944,
    "looking": 570,
    "dov@@": 11643,
    "okol@@": 13468,
    "affect": 1913,
    "wings": 7282,
    "ô@@": 10796,
    "online": 5094,
    "entru@@": 11252,
    "Peter": 2872,
    "CN": 3946,
    "claim": 1239,
    "premi@@": 8182,
    "firm": 4934,
    "offence": 7654,
    "Sever@@": 12283,
    "dam@@": 6936,
    "UE": 6223,
    "Greek": 4332,
    "accidents": 8709,
    "password": 5703,
    "ev": 9076,
    "Honey": 5034,
    "concentrate": 9979,
    "ional": 2018,
    "CHMP": 8321,
    "CM@@": 8952,
    "affected": 2092,
    "manifest@@": 7060,
    "nific@@": 8771,
    "mes@@": 5445,
    "ld": 7525,
    "nity": 4152,
    "imbur@@": 12172,
    "guarantees": 3671,
    "lo@@": 584,
    "operator": 2428,
    "Except": 6501,
    "brain": 2584,
    "NAME": 10017,
    "as": 41,
    "cul@@": 1917,
    "luv@@": 13233,
    "previous": 1410,
    "holders": 7294,
    "bold": 9484,
    "given": 520,
    "models": 5834,
    "discussions": 9695,
    "Special": 3304,
    "ference": 6411,
    "rogen": 8535,
    "papers": 5720,
    "electronic": 2024,
    "we'il": 12044,
    "effected": 10192,
    "manufactured": 8800,
    "resources": 1135,
    "SMEs": 4783,
    "account": 343,
    "mix@@": 6950,
    "diabet@@": 13485,
    "mane": 12497,
    "MEN@@": 10250,
    "Saint": 8282,
    "aggreg@@": 6159,
    "eti": 12345,
    "Hal@@": 1978,
    "Plan": 5335,
    "Valent@@": 10749,
    "difficulties": 4624,
    "humor": 10866,
    "specializ@@": 12169,
    "Y@@": 725,
    "DNS": 10707,
    "Functioning": 11970,
    "inst": 8624,
    "went": 579,
    "rous": 6736,
    "increased": 1236,
    "itty": 9969,
    "cipl@@": 12174,
    "receive": 3034,
    "kin": 5146,
    "fulfilled": 4425,
    "Out": 8929,
    "zda": 13355,
    "lays": 3386,
    "EGTC": 9535,
    "ED@@": 5069,
    "tab@@": 5665,
    "s--": 11375,
    "docetax@@": 10785,
    "ush": 11224,
    "iture": 12416,
    "wich": 8944,
    "Fou@@": 12500,
    "website": 2589,
    "utili@@": 8296,
    "P.@@": 9099,
    "ces@@": 8078,
    "guide": 8867,
    "'em": 12299,
    "J.": 7308,
    "M": 1122,
    "importers": 5255,
    "Annex": 334,
    "amended": 720,
    "lending": 8618,
    "career": 4831,
    "lesale": 8671,
    "eft": 13391,
    "tor@@": 1406,
    "progre@@": 11228,
    "Once": 4123,
    "Hang": 6983,
    "onel": 10226,
    "Kore@@": 9932,
    "lift": 10097,
    "Hra@@": 13162,
    "Probably": 10504,
    "Chlo@@": 13198,
    "valid@@": 4337,
    "studies": 1447,
    "upstairs": 5605,
    "post": 2164,
    "straight": 2822,
    "sy@@": 3306,
    "ANNE@@": 13237,
    "Grat@@": 12508,
    "Products": 6660,
    "histor@@": 5619,
    "penalty": 6725,
    "tex@@": 8365,
    "tly": 1985,
    "transfer": 1810,
    "Acts": 9811,
    "board": 1308,
    "grabbed": 8741,
    "xi": 12395,
    "}": 4969,
    "emat@@": 6845,
    "begun": 6751,
    "wh@@": 1098,
    "equipment": 1220,
    "KO@@": 10843,
    "clever": 11282,
    "garden": 6154,
    "ast@@": 1002,
    "home@@": 8597,
    "profil@@": 12997,
    "exec@@": 3204,
    "Doh@@": 11864,
    "Euratom": 2964,
    "aly": 11045,
    "previously": 4549,
    "accuracy": 9449,
    "chemicals": 9272,
    "United": 999,
    "Guaran@@": 12764,
    "↑": 12390,
    "bus@@": 7230,
    "across": 1353,
    "au@@": 1110,
    "rope": 6164,
    "Just@@": 8743,
    "slav@@": 13035,
    "before": 172,
    "commod@@": 9286,
    "Sophi@@": 12143,
    "governing": 3080,
    "Slovakia": 7304,
    "receiving": 2717,
    "lil": 13342,
    "Se": 12855,
    "%": 173,
    "revision": 10311,
    "instance": 4255,
    "HTML": 11057,
    "trip": 4513,
    "pe@@": 977,
    "gir@@": 12838,
    "Rou@@": 5231,
    "chat": 10745,
    "repealed": 5155,
    "legitimate": 4769,
    "starts": 3007,
    "strategy": 1898,
    "sugar": 2116,
    "otic": 8820,
    "presumption": 8592,
    "eligibility": 5954,
    "Bill": 4600,
    "Kom@@": 10754,
    "hust@@": 13553,
    "transparent": 4886,
    "refund": 3932,
    "faces": 4398,
    "ESA": 10593,
    "bac@@": 3100,
    "Steven@@": 11166,
    "ices": 3495,
    "degrees": 6226,
    "Indi@@": 7096,
    "TS": 3967,
    "blew": 8792,
    "yers": 4166,
    "consequences": 2754,
    "bank@@": 9789,
    "Management": 3437,
    "TIES": 7108,
    "nasty": 11701,
    "app@@": 1973,
    "lic": 2870,
    "frequently": 9699,
    "epi@@": 11961,
    "sé@@": 12564,
    "requires": 2274,
    "…@@": 13325,
    "phy@@": 6811,
    "Panorama": 13324,
    "http://ec.europa.eu/@@": 6913,
    "remains": 3513,
    "decla@@": 11044,
    "bitch": 1630,
    "tural": 10056,
    "incentives": 8012,
    "Kra@@": 7975,
    "Jessica": 9160,
    "mole@@": 8608,
    "landed": 7666,
    "Mag@@": 3630,
    "igation": 5547,
    "estate": 5542,
    "centi@@": 10731,
    "BU@@": 9260,
    "Jake": 4818,
    "ali": 8363,
    "enty": 11367,
    "vola@@": 13072,
    "God@@": 7484,
    "enc@@": 2017,
    "sku@@": 13130,
    "pered": 11636,
    "rible": 12255,
    "DA@@": 8436,
    "Ł@@": 13047,
    "bez@@": 12104,
    "Corpor@@": 12043,
    "itch": 6191,
    "ote@@": 11560,
    "penditure": 9758,
    "occas@@": 5663,
    "laugh": 4700,
    "bility": 5355,
    "spring": 5220,
    "PH@@": 5299,
    "okinet@@": 9082,
    "Vor@@": 8695,
    "Joe": 3127,
    "dost@@": 12327,
    "distingu@@": 4563,
    "effor@@": 13110,
    "Must": 11470,
    "Taylor": 9698,
    "simpli@@": 5090,
    "won": 3458,
    "sob": 13135,
    "disputes": 3140,
    "implic@@": 11128,
    "Bor@@": 5627,
    "professional": 1972,
    "frag@@": 4704,
    "ele@@": 1424,
    "fle@@": 2992,
    "prescription": 7814,
    "beast": 9942,
    "neck": 3006,
    "Pas@@": 7359,
    "communicated": 7673,
    "void": 9322,
    "±": 6809,
    "liation": 11623,
    "Ter@@": 3159,
    "show": 677,
    "Max": 4407,
    "Gra@@": 2755,
    "Dri@@": 7795,
    "sible": 3193,
    "Brussel": 10904,
    "dře@@": 13160,
    "calculating": 4458,
    "bis@@": 8395,
    "wn": 1914,
    "Directives": 5769,
    "ká@@": 13369,
    "Tur@@": 3462,
    "applied": 957,
    "client": 3602,
    "hospital": 2325,
    "bers": 5826,
    "refer@@": 6853,
    "Stand": 6962,
    "ä@@": 4626,
    "territ@@": 12419,
    "bilities": 11933,
    "ler": 1037,
    "Py@@": 9720,
    "outer": 7402,
    "availa@@": 13436,
    "expan@@": 8631,
    "exclude": 8722,
    "director": 6861,
    "formed": 4960,
    "inf@@": 1552,
    "ethy@@": 9993,
    "puzz@@": 8234,
    "strike": 8400,
    "community": 4901,
    "publish": 7002,
    "Quin@@": 9643,
    "ro@@": 297,
    "LE": 2312,
    "recommendation": 5653,
    "sustainability": 7322,
    "ISTR@@": 12192,
    "calculations": 8736,
    "derog@@": 5456,
    "jar@@": 12491,
    "Dé@@": 12502,
    "style": 5323,
    "illness": 10543,
    "investment": 1032,
    "red": 439,
    "Sad@@": 10461,
    "lonely": 7693,
    "zak@@": 12669,
    "cest@@": 8759,
    "do": 39,
    "perfec@@": 11235,
    "egor@@": 12049,
    "quantities": 3651,
    "ul": 4590,
    "abli@@": 7431,
    "bir@@": 11543,
    "º@@": 13289,
    "ghout": 11700,
    "Gee": 11513,
    "ška": 12739,
    "wide": 2488,
    "Ron": 7903,
    "co@@": 341,
    "said": 149,
    "allowances": 5135,
    "chec@@": 10364,
    ".g@@": 10191,
    "wish": 1243,
    "Cher@@": 10115,
    "pt@@": 8314,
    "just@@": 8605,
    "preceding": 6865,
    "Whit@@": 8536,
    "under@@": 814,
    "Ed": 8294,
    "ip@@": 1841,
    "track": 4122,
    "tual": 11307,
    "cement": 5534,
    "Set@@": 6151,
    "Others": 5553,
    "vor@@": 10882,
    "Control": 5482,
    "yo": 9404,
    "ne@@": 744,
    "interpretation": 3196,
    "Protec@@": 7572,
    "plane": 2392,
    "chy@@": 11445,
    "your": 63,
    "play@@": 9309,
    "bid": 9245,
    "asleep": 4109,
    "usual": 3949,
    "A1:@@": 6133,
    "metab@@": 13296,
    "represent": 4880,
    "are@@": 3641,
    "les": 450,
    "gas": 1479,
    "rever@@": 7315,
    "Vira@@": 10693,
    "‐@@": 12829,
    "duration": 3340,
    "ployment": 8280,
    "fact": 446,
    "_": 2435,
    "aspect": 9889,
    "Okay": 283,
    "beside": 4691,
    "discussion": 7302,
    "young": 956,
    "Articles": 1051,
    "burning": 5063,
    "satisfactory": 7407,
    "eous": 2990,
    "document": 976,
    "Naz@@": 9279,
    "seat": 2276,
    "Bond": 8831,
    "Liber@@": 9815,
    "AC@@": 1788,
    "Joh@@": 10314,
    "ocid@@": 12435,
    "esi": 13132,
    ".": 4,
    "Top@@": 8080,
    "kan@@": 11842,
    "Unit": 9640,
    "Remarks": 3669,
    "don@@": 3705,
    "Ri@@": 4573,
    "Mau@@": 10918,
    "ishing": 3741,
    "Va@@": 11521,
    "handsome": 7948,
    "programs": 8350,
    "pres@@": 3965,
    "av": 12212,
    "seriously": 3921,
    "men": 604,
    "å": 12888,
    "ropy": 12927,
    "ured": 5269,
    "recipi@@": 9544,
    "tower": 7445,
    "ast": 3176,
    "separation": 3596,
    "sci@@": 11501,
    "Eur@@": 12440,
    "Mother": 5441,
    "fuck@@": 10806,
    "groups": 1776,
    "computers": 7543,
    "visory": 4990,
    "hero": 4936,
    "getting": 940,
    "taining": 6102,
    "instead": 3206,
    "nership": 13232,
    "drugs": 3609,
    "favourable": 5563,
    "CY@@": 12503,
    "Å@@": 12439,
    "kl": 13579,
    "Minister": 4034,
    "satis@@": 8449,
    "wid@@": 3466,
    "aria": 9399,
    "Norwegian": 8108,
    "Tell": 1487,
    "staff": 1397,
    "proposals": 2511,
    "fast": 1650,
    "Miami": 10464,
    "So": 225,
    "collap@@": 5506,
    "hib@@": 4780,
    "Right": 1876,
    "Liz": 11111,
    "Refer@@": 9403,
    "str@@": 2825,
    "ph": 3714,
    "tobacco": 7035,
    "jointly": 6825,
    "yourself": 868,
    "hibit": 8084,
    "assium": 8435,
    "sty@@": 9002,
    "floor": 2039,
    "Ma@@": 1272,
    "Pa": 11558,
    "Sch@@": 2860,
    "zel@@": 12128,
    "tar": 6175,
    "e@@": 272,
    "Polic@@": 10961,
    "separated": 6040,
    "kidn@@": 5267,
    "ap": 8611,
    "chicken": 6707,
    "machinery": 6114,
    "lif@@": 5302,
    "Mitch@@": 10787,
    "length": 4363,
    "ther@@": 2748,
    "produc@@": 12568,
    "’re": 10652,
    "ows": 11465,
    "gain": 8147,
    "cat": 4145,
    "ál@@": 12701,
    "absur@@": 11479,
    "SW@@": 10801,
    "endy": 13461,
    "Ky@@": 7279,
    "bre@@": 1651,
    "testing": 3564,
    "ivy": 12780,
    "indirect": 4822,
    "Ba@@": 5111,
    "newspap@@": 6156,
    "cyc@@": 10312,
    "CV": 6565,
    "val": 8647,
    "rese": 13360,
    "except": 1127,
    "piv@@": 11677,
    "entries": 9883,
    "Forg@@": 7267,
    "alfa": 9259,
    "oxide": 6315,
    "avoided": 8020,
    "seal": 9697,
    "William@@": 10306,
    "audience": 8169,
    "lat@@": 3157,
    "Come": 347,
    "patri@@": 10067,
    "coff@@": 10421,
    "Boh@@": 10533,
    "unusual": 6726,
    "quite": 2605,
    "name": 321,
    "cel": 4211,
    "Ralph": 8810,
    "Done": 8200,
    "emi@@": 10342,
    "abo@@": 12967,
    "fulfil": 8719,
    "": 13562,
    "Kap@@": 12112,
    "targeted": 5946,
    "marking": 7447,
    "seeds": 10140,
    "Other": 768,
    "requirement": 2385,
    "t@@": 291,
    "we": 46,
    "Sau@@": 10658,
    "subsidies": 7429,
    "never@@": 13421,
    "x": 576,
    "reductions": 10928,
    "minus": 9204,
    "ES@@": 1689,
    "is@@": 511,
    "incor@@": 10894,
    "portu@@": 13457,
    "geogra@@": 8726,
    "preferential": 7668,
    "genius": 7812,
    "supplementary": 8814,
    "outs": 3212,
    "Cases": 8301,
    "grounds": 1992,
    "regret": 7566,
    "human@@": 7578,
    "obligations": 1204,
    "ská": 12016,
    "illing": 8971,
    "GDP": 4401,
    "sal": 5089,
    "mood": 6210,
    "--": 817,
    "addy": 12354,
    "aqu@@": 4750,
    "logical": 3987,
    "int": 2455,
    "KY": 12718,
    "clock": 9338,
    "CZ@@": 12191,
    "terms": 1865,
    "computer": 1624,
    "release": 2474,
    "Matt": 8222,
    "slipped": 8325,
    "Spar@@": 10254,
    "ret": 8373,
    "dau@@": 10288,
    "no@@": 883,
    "currency": 3696,
    "Talk": 6930,
    "naked": 5689,
    "ut@@": 996,
    "Swed@@": 12524,
    "apartment": 2874,
    "UNITIES": 13545,
    "Broad@@": 10804,
    "detective": 8715,
    "casting": 6765,
    "dru@@": 7195,
    "ounded": 6924,
    "und@@": 1395,
    "Afghan@@": 13533,
    "index": 6222,
    "psy": 12151,
    "timate": 8773,
    "have": 40,
    "whole": 681,
    "liquid": 6086,
    "rend@@": 7274,
    "assass@@": 8682,
    "require@@": 12498,
    "pen@@": 1533,
    "Pra@@": 5846,
    "shole": 12408,
    "TAR@@": 8678,
    "ise": 1617,
    "<unk>": 1,
    "parameters": 4737,
    "dest@@": 4546,
    "zu": 11919,
    "š": 12379,
    "Advisory": 6814,
    "Hum@@": 6784,
    "mad@@": 4066,
    "če": 13307,
    "GN@@": 7650,
    "chick@@": 9009,
    "Steve": 5956,
    "magic": 3709,
    "concrete": 6795,
    "rab@@": 4896,
    "variable": 6917,
    "jump": 4792,
    "dog": 1963,
    "Dan@@": 4853,
    "Nas@@": 11735,
    "(1)(@@": 4948,
    "U@@": 658,
    "abili@@": 8382,
    "Sek@@": 13086,
    "wave": 5780,
    "seas@@": 8979,
    "Way": 11259,
    "pa": 5361,
    "af@@": 1591,
    "Many": 10259,
    "noon": 8245,
    "live": 799,
    "purch@@": 3130,
    "Ted@@": 13299,
    "kv@@": 13511,
    "sky@@": 11786,
    "surround@@": 4394,
    "∞": 13127,
    "iko": 12048,
    "je@@": 2117,
    "TIV@@": 11803,
    "arrangement": 7117,
    "yle": 6815,
    "s": 155,
    "Ap@@": 2744,
    "obe@@": 12558,
    "respect": 1023,
    "African": 7127,
    "Ros@@": 6498,
    "conclus@@": 11791,
    "cla@@": 2464,
    "ill@@": 2064,
    "PRO": 12892,
    "Gi@@": 4261,
    "CD@@": 9799,
    "ERV@@": 10490,
    "sym@@": 6513,
    "mistakes": 7614,
    "Won@@": 3567,
    "reference": 930,
    "opinions": 4492,
    "Sing@@": 10223,
    "Believe": 5966,
    "isy": 9970,
    "xy@@": 6779,
    "suppose": 4351,
    "funny": 2604,
    "Mex@@": 8930,
    "ective": 11655,
    "Uni@@": 10750,
    "CP@@": 7613,
    "base@@": 9238,
    "occur": 4003,
    "byl": 12694,
    "eva": 9316,
    "mira@@": 5137,
    "pest@@": 11190,
    "langu@@": 12296,
    "mit@@": 2922,
    "cat@@": 1679,
    "tings": 6462,
    "excessive": 5406,
    "OS@@": 8941,
    "thes@@": 6346,
    "tioned": 10412,
    "another": 362,
    "kat": 13487,
    "OK": 2056,
    "pav@@": 11782,
    "existence": 4697,
    "exclud@@": 10771,
    "´": 13418,
    "CP": 7921,
    "teach@@": 6739,
    "this": 48,
    "hod": 12932,
    "Σ@@": 13287,
    "ude": 5620,
    "Jan@@": 4477,
    "arde": 13471,
    "stopped": 1537,
    "thereto": 1536,
    "Belgium": 3825,
    "tro@@": 3301,
    "Enfor@@": 11098,
    "promi@@": 10509,
    "Add": 9182,
    "consist@@": 8010,
    "ction": 1060,
    "Ang@@": 5003,
    "aning": 6313,
    "affec@@": 11205,
    "remain": 2280,
    "acet@@": 8750,
    "Unless": 7007,
    "visions": 7465,
    "RR": 10802,
    "′@@": 12595,
    "compli@@": 8240,
    "administration": 1481,
    "slightly": 5569,
    "sted": 7462,
    "wash": 7989,
    "encing": 6107,
    "Pi@@": 4521,
    "boring": 7179,
    "appropriate": 457,
    "sf@@": 12072,
    "ille": 6090,
    "ato": 5312,
    "Victor": 8744,
    "brand": 7342,
    "akia": 12611,
    "host@@": 4176,
    "belon@@": 7500,
    "foot@@": 3823,
    "authority": 601,
    "EN.0100@@": 5320,
    "allowed": 1812,
    "prohibited": 4718,
    "inner": 6332,
    "Mas@@": 6542,
    "cars": 3686,
    "ane": 1878,
    "Nothing": 2835,
    "VO@@": 11692,
    "oo": 9562,
    "Mel@@": 4770,
    "wording": 6309,
    "MENT": 2909,
    "relation": 3324,
    "nus": 11475,
    "import": 1513,
    "Morg@@": 10829,
    "Nether@@": 13201,
    "post@@": 2134,
    "Stre@@": 11299,
    "Happy": 8191,
    "anc@@": 7841,
    "Cas@@": 5686,
    "ITY": 8378,
    "verified": 5898,
    "vit@@": 10699,
    "actor": 7957,
    "together": 554,
    "intention": 5543,
    "Bol@@": 10466,
    "borne": 3205,
    "Lee": 6753,
    "lease": 6748,
    "Sea": 5759,
    "Pho@@": 7652,
    "discussed": 6049,
    "resist@@": 6569,
    "movements": 8208,
    "pact": 9430,
    "Fucking": 11116,
    "ral": 2031,
    "fortunately": 5804,
    "relationships": 8128,
    "indent": 8050,
    "Fun@@": 9541,
    "salt": 6641,
    "H": 1930,
    "band@@": 7446,
    "Belgi@@": 11627,
    "Ar@@": 1163,
    "bling": 6834,
    "Mit@@": 11005,
    "With@@": 12244,
    "compre@@": 11936,
    "TO@@": 4304,
    "Rom@@": 2921,
    "Če@@": 12481,
    "Agre@@": 5540,
    "vá": 13014,
    "Eddie": 6241,
    "ture": 2624,
    "aging": 7571,
    "drinks": 7853,
    "Fax": 10322,
    "CONTEN@@": 13392,
    "How": 371,
    "ees": 11761,
    "ved@@": 11704,
    "dia": 8399,
    "ica": 3591,
    "as@@": 350,
    "itting": 3725,
    "footnote": 6895,
    "methyl@@": 10000,
    "r@@": 506,
    "imposition": 11657,
    "SK@@": 10901,
    "strictly": 8724,
    "Association": 3672,
    "ity": 592,
    "author@@": 3290,
    "expected": 1735,
    "commer@@": 8502,
    "reason@@": 12223,
    "Ur@@": 7146,
    "ordered": 2814,
    "medicine": 2177,
    "victims": 3132,
    "IT": 4456,
    "supervisory": 4032,
    "semin@@": 8170,
    "mers": 9818,
    "Dou@@": 5075,
    "Washington": 6365,
    "exposed": 8737,
    "detection": 9128,
    "ron@@": 3256,
    "Hud@@": 11386,
    "Feb@@": 13280,
    "measures": 231,
    "ham": 3881,
    "Home": 8407,
    "explain": 2194,
    "federal": 7808,
    "condition@@": 6518,
    "¶": 13522,
    "desirable": 6997,
    "lid": 11453,
    "helping": 4030,
    "priv@@": 5208,
    "yright": 9125,
    "installations": 7793,
    "Ari@@": 8797,
    "Martin": 5256,
    "of@@": 361,
    "fruit": 3271,
    "Pip@@": 11041,
    "adjustment": 3293,
    "enced": 4629,
    "yer": 3414,
    "OP": 11330,
    "significance": 11242,
    "vious": 12141,
    "tuna": 9040,
    "virt@@": 7919,
    "asters": 9079,
    "reply": 4668,
    "Cel@@": 8659,
    "lyn": 9597,
    "stav@@": 12581,
    "repair": 8617,
    "governments": 6677,
    "valuation": 7954,
    "Harmon@@": 10948,
    "ru": 11416,
    "holiday": 9416,
    "push": 7046,
    "stron@@": 10395,
    "Ben": 3262,
    "deep@@": 6176,
    "ώ@@": 12993,
    "ant": 614,
    "cing": 1715,
    "emerg@@": 8621,
    "bones": 6316,
    "gest@@": 5105,
    "½@@": 13492,
    "Seri@@": 11774,
    "arrangements": 2681,
    "mechanis@@": 13477,
    "ency": 1675,
    "departments": 9022,
    "Development": 2036,
    "kissed": 8032,
    "!@@": 4695,
    "may": 139,
    "Costs": 10985,
    "stake@@": 11165,
    "safe": 1511,
    "Ig@@": 8441,
    "lor@@": 7874,
    "suspension": 4978,
    "distor@@": 3407,
    "Dani@@": 9946,
    "Looks": 2855,
    "reasonably": 7840,
    "ur": 3668,
    "current": 975,
    "considers": 1647,
    "follow": 1676,
    "convinced": 4582,
    "EA": 7088,
    "namely": 3019,
    "medicinal": 1801,
    "sometimes": 1554,
    "spirit": 5190,
    "opportun@@": 12551,
    "spl@@": 9868,
    "jek@@": 13386,
    "Beau@@": 10251,
    "PT": 10917,
    "Budget": 6452,
    "severe": 3557,
    "ček": 12733,
    "fore@@": 1238,
    "realiz@@": 11031,
    "degree": 5013,
    "pol@@": 2923,
    "wonder": 4076,
    "Clar@@": 7121,
    "addres@@": 11454,
    "optional": 9377,
    "restric@@": 6041,
    "person@@": 7609,
    "boots": 8913,
    "qu@@": 716,
    "ez": 4327,
    "ven": 5881,
    "provis@@": 7478,
    "CS@@": 6212,
    "device": 2000,
    "mm": 2159,
    "án@@": 12249,
    "fuel": 2688,
    "ors": 762,
    "lab@@": 11249,
    "bá@@": 13092,
    "cycle": 3652,
    "At": 982,
    "Moun@@": 8065,
    "LEG@@": 10318,
    "define": 7835,
    "lshit": 11396,
    "cere@@": 9945,
    "circu@@": 6249,
    "ligible": 8782,
    "freight": 8575,
    "certified": 7344,
    "because": 208,
    "ė": 12485,
    "wondering": 5851,
    "ex@@": 493,
    "pay@@": 5693,
    "quit": 6900,
    "average": 1618,
    "è@@": 8062,
    "ozem@@": 13564,
    "defendant": 2739,
    "aci@@": 10303,
    "Neg@@": 11819,
    "resolve": 11003,
    "subsidiarity": 8717,
    "concep@@": 6305,
    "Implementation": 10833,
    "itself": 1732,
    "possi@@": 12962,
    "M@@": 246,
    "lec@@": 13530,
    "things": 523,
    "birds": 4797,
    "scar@@": 7936,
    "initiated": 3169,
    "(2@@": 11364,
    "executive": 9437,
    "constituted": 9071,
    "biop@@": 12008,
    "icia": 7234,
    "Lev@@": 9018,
    "Swedish": 7031,
    "Welcome": 6846,
    "kicked": 7212,
    "tising": 12714,
    "Get@@": 10706,
    "Mari@@": 9805,
    "crazy": 1115,
    "words": 1277,
    "Law@@": 8896,
    "commercial": 1580,
    "saved": 2719,
    "ids": 2131,
    "giant": 6638,
    "commitment": 3585,
    "shown": 2915,
    "Zoe": 10655,
    "houses": 5483,
    "until": 381,
    "And": 213,
    "zad@@": 13000,
    "meters": 5604,
    "President": 1527,
    "encies": 4444,
    "oglitaz@@": 12445,
    "aty": 8291,
    "bou": 13111,
    "extending": 8401,
    "Jean": 6528,
    "center": 4374,
    "bro@@": 2182,
    "shap@@": 4553,
    "administered": 3328,
    "Christ": 4354,
    "INTER@@": 7804,
    "sit@@": 5232,
    "automatic": 4586,
    "tired": 2437,
    "protein": 6254,
    "victi@@": 12562,
    "arrived": 3685,
    "Person@@": 8775,
    "gun": 1555,
    "Ow": 12012,
    "rov@@": 5167,
    "Os@@": 8539,
    "ours": 3056,
    "Sy@@": 3538,
    "actually": 1339,
    "toxic": 7310,
    "doors": 7646,
    "laws": 2608,
    "ques": 10386,
    "radi@@": 4846,
    "jed@@": 12934,
    "LE@@": 5171,
    "Der@@": 10651,
    "chu@@": 12031,
    "itative": 8746,
    "Y": 1589,
    "pleasure": 3962,
    "Li@@": 1642,
    "indicators": 3822,
    "actions": 1459,
    "subject": 1288,
    "cet": 12232,
    "Company": 6385,
    "relating": 2394,
    "Product": 8315,
    "Trade": 3363,
    "UL@@": 4804,
    "replied": 3040,
    "pu@@": 3335,
    "English": 2536,
    "realize": 3587,
    "ically": 867,
    "Last@@": 11011,
    "Republic": 1138,
    "disk": 6715,
    "Innov@@": 12094,
    "request": 783,
    "pp@@": 8249,
    "Co@@": 1145,
    "follow@@": 11258,
    "bert": 8371,
    "stry": 7656,
    "sett@@": 7043,
    "Ms.": 6693,
    "ode@@": 11271,
    "Mer@@": 2831,
    "Mach@@": 9004,
    "gravit@@": 11805,
    "hurts": 6125,
    "TO": 3804,
    "disgu@@": 3314,
    "aglipt@@": 10762,
    "som@@": 4954,
    "nost": 13549,
    "rth": 12457,
    "decreas@@": 10135,
    "bi": 7006,
    "crap": 10730,
    "representative": 2078,
    "Kle@@": 11285,
    "solv@@": 11828,
    "bil@@": 4436,
    "law@@": 3959,
    "normal@@": 10074,
    "been": 95,
    "BT": 11036,
    "happy": 1130,
    "civil": 1298,
    "approved": 1241,
    "Equ@@": 5048,
    "explicitly": 8780,
    "Cont@@": 6749,
    "Fisher@@": 12876,
    "Chap@@": 9577,
    "drove": 6598,
    "Commer@@": 8089,
    "infected": 7111,
    "bird": 5021,
    "proportion@@": 10840,
    "Ε@@": 12455,
    "competitiveness": 4483,
    "dop@@": 6477,
    "migration": 4864,
    "Er@@": 5288,
    "De@@": 1661,
    "foli@@": 11492,
    "kid": 2168,
    "form@@": 1713,
    "ck@@": 1614,
    "cigaret@@": 4931,
    "propy@@": 10846,
    "acquis@@": 11728,
    "soldiers": 3337,
    "D@@": 245,
    "Regions": 10239,
    "gent@@": 6018,
    "ly@@": 2481,
    "urg@@": 6061,
    "thro@@": 2563,
    "sudden": 4468,
    "MA": 10285,
    "Ju@@": 5281,
    "psycholog@@": 11487,
    "bran@@": 5423,
    "consistency": 7167,
    "woke": 6306,
    "'cause": 1644,
    "apolog@@": 4434,
    "grat@@": 3811,
    "incess": 5559,
    "EP@@": 3856,
    "ë@@": 12051,
    "issue": 1208,
    "(": 29,
    "San": 6145,
    "stand@@": 5731,
    "m": 370,
    "entitlement": 11316,
    "minor": 4963,
    "batt@@": 8221,
    "Stand@@": 8096,
    "nich@@": 13529,
    "dude": 11507,
    "webcam": 9024,
    "skej": 13389,
    "nout": 12821,
    "suits": 8051,
    "weighted": 7714,
    "Listen": 2459,
    "partici@@": 13385,
    "ingly": 4841,
    "writ@@": 5363,
    "Nap@@": 11547,
    "nodded": 3491,
    "sir": 516,
    "ec.europa.eu/@@": 12594,
    "bo@@": 673,
    "Mark": 4640,
    "award": 5380,
    "iti": 11541,
    "strongly": 9169,
    "psycho@@": 6530,
    "Aut@@": 9227,
    "Nast@@": 12802,
    "willing": 7237,
    "pin@@": 7658,
    "Objective": 8029,
    "evaluate": 9290,
    "udě@@": 13158,
    "REP@@": 10441,
    "governance": 6234,
    "consumption": 2242,
    "irrespective": 12004,
    "ope": 3444,
    "ES": 1444,
    "emed": 12195,
    "freedom": 3384,
    "number": 473,
    "authorities": 379,
    "wild": 4360,
    "decision": 294,
    "uted": 2258,
    "oli": 11945,
    "Given": 5050,
    "part@@": 5126,
    "exporters": 8496,
    "Had": 11710,
    "aim@@": 6658,
    "necessarily": 5615,
    "gers": 4025,
    "leave": 537,
    "youn@@": 10633,
    "links": 5168,
    "ko@@": 4108,
    "Sorry": 1860,
    "Lep@@": 12768,
    "partic@@": 7485,
    "spoke": 2267,
    "limitations": 11028,
    "conditions": 367,
    "necess@@": 7929,
    "email": 11562,
    "rol@@": 7085,
    "ledge": 10130,
    "afil": 10027,
    "paragraph": 382,
    "liz@@": 11371,
    "region@@": 11342,
    "ë": 12369,
    "atus": 12207,
    "Anyone": 10174,
    "stipul@@": 10599,
    "eag@@": 10132,
    "Fron@@": 10813,
    "pidogrel": 10208,
    "and": 7,
    "ird": 10337,
    "ang": 3240,
    "Local": 10327,
    "kov": 10947,
    "pipe": 8255,
    "citizen": 7277,
    "brad@@": 12278,
    "decide": 1891,
    "Nor": 11746,
    "ance": 680,
    "enforce@@": 12102,
    "business": 742,
    "angiot@@": 10245,
    "resource": 4882,
    "sovere@@": 8477,
    "surve@@": 9891,
    "Key": 10286,
    "major": 2531,
    "EU": 209,
    "island": 4075,
    "looked": 622,
    "anything": 288,
    "Good": 717,
    "cared": 9276,
    "oura@@": 11941,
    "work@@": 2980,
    "bing": 3523,
    "nur@@": 7607,
    "compul@@": 11999,
    "eri@@": 1911,
    "selves": 13556,
    "sk@@": 870,
    "Stan@@": 11209,
    "ures": 2414,
    "huh": 1587,
    "walked": 2179,
    "cir@@": 2793,
    "Rober@@": 9659,
    "EH@@": 11650,
    "Mar@@": 784,
    "suggested": 8873,
    "Wa@@": 4857,
    "organization": 8254,
    "IDS": 11022,
    "crisis": 2505,
    "text@@": 10087,
    "Ale": 13317,
    "phil@@": 8157,
    "special@@": 10984,
    "hit": 1704,
    "est@@": 1216,
    "north": 3954,
    "accur@@": 9854,
    "chem": 12699,
    "existing": 1287,
    "An@@": 1088,
    "Marshall": 9085,
    "sum@@": 6262,
    "eko": 12858,
    "inhib@@": 10262,
    "Papa": 11634,
    "issues": 1659,
    "brothers": 5349,
    "buff@@": 7879,
    "redi@@": 13239,
    "farm": 5317,
    "claims": 1378,
    "fun@@": 5206,
    "rey": 5608,
    "Uh": 1152,
    "consist": 11063,
    "provisions": 536,
    "Jen": 11928,
    "ates": 674,
    "exit": 6506,
    "Gabri@@": 9576,
    "gy@@": 5597,
    "common@@": 13326,
    "turns": 5359,
    "†": 12763,
    "eti@@": 10720,
    "confused": 6652,
    "tor": 2407,
    "continuation": 8037,
    "sna@@": 11175,
    "kry@@": 13519,
    "ie@@": 4852,
    "Bab@@": 11123,
    "privacy": 7339,
    "Pak@@": 8548,
    "among": 1559,
    "ani": 5160,
    "horrible": 8588,
    "_200@@": 4747,
    "nen@@": 12437,
    "BP": 11890,
    "democratic": 8555,
    "naz@@": 13131,
    "rost@@": 12339,
    "ding@@": 11722,
    "hed@@": 11043,
    "THIS": 3050,
    "sa": 3914,
    "protection": 660,
    "klep@@": 13343,
    "eman": 7143,
    "fficient": 12070,
    "exempt": 9003,
    "trust": 1457,
    "aro@@": 3221,
    "additional": 1117,
    "fourth": 3453,
    "work": 275,
    "funeral": 6812,
    "known": 942,
    "aff": 12319,
    "consequ@@": 12464,
    "ivu": 13009,
    "bled@@": 13116,
    "fun": 1372,
    "Tay@@": 12496,
    "sement": 5212,
    "nac@@": 11183,
    "consul@@": 7257,
    "e": 230,
    "Europe@@": 8942,
    "embarra@@": 4368,
    "few": 463,
    "reports": 1545,
    "forever": 3563,
    "innovation": 2588,
    "I": 8,
    "dosing": 8641,
    "pha@@": 9306,
    "Maximum": 6738,
    "fake": 7706,
    "stri@@": 7163,
    "Territ@@": 11883,
    "║": 13037,
    "based": 358,
    "bla@@": 4868,
    "slip": 11198,
    "ely": 1219,
    "specific@@": 10109,
    "sat@@": 8263,
    "locked": 3121,
    "entic": 13311,
    "paragraphs": 1662,
    "destruction": 7373,
    "such": 174,
    "spective": 12013,
    "who": 116,
    "lon": 7710,
    "Appropriations": 1708,
    "encoun@@": 6247,
    "everywhere": 4250,
    "darkness": 4986,
    "regardless": 11130,
    "pain@@": 4200,
    "Phil": 8607,
    "moon": 4222,
    "kis@@": 7700,
    "Joint": 1807,
    "eah": 12084,
    "archit@@": 8131,
    "E@@": 279,
    "col": 12177,
    "Vol@@": 5115,
    "passed": 3044,
    "inform@@": 3864,
    "does": 157,
    "irregul@@": 10970,
    "epilep@@": 10488,
    "lose": 1754,
    "monitor": 5070,
    "rough@@": 12350,
    "rene@@": 10428,
    "stí": 12966,
    "Ruth": 10877,
    "Lisbon": 5036,
    "Dow@@": 11726,
    "rice": 6216,
    "Cooperation": 4733,
    "su": 10986,
    "drawn": 2784,
    "string": 9068,
    "keeps": 7644,
    "definitive": 6827,
    "dne@@": 10353,
    "eli@@": 4622,
    "Bene": 12137,
    "Arm@@": 11279,
    "intensity": 5061,
    "log@@": 1542,
    "secon@@": 6055,
    "Ul@@": 9557,
    "pled": 12126,
    "jac@@": 9976,
    "test": 712,
    "ses": 378,
    "wished": 7684,
    "Park": 6755,
    "powered": 11399,
    "channels": 8808,
    "prior@@": 12337,
    "immediately": 1475,
    "Whether": 11146,
    "ison@@": 12415,
    "passage": 11593,
    "icular": 10405,
    "Eu@@": 8669,
    "pro": 7532,
    "Recom@@": 12042,
    "follows": 1013,
    "Man": 3706,
    "identi@@": 10726,
    "oru": 13225,
    "authent@@": 7336,
    "negative": 2425,
    "fine": 684,
    "ş@@": 12674,
    "Value": 11017,
    "lost": 843,
    "py@@": 5702,
    "gap": 9401,
    "carriers": 6197,
    "lawyer": 2010,
    "species": 2232,
    "Vincent": 10018,
    "tem@@": 2537,
    "v": 1103,
    "EUROPA": 10598,
    "Jesus": 3095,
    "assu@@": 6998,
    "proced@@": 11830,
    "nu": 12907,
    "read@@": 4495,
    "medicines": 3584,
    "powers": 2071,
    "maintenance": 1179,
    "Type": 5630,
    "East": 5586,
    "ither": 13580,
    "te": 1026,
    "i.e.": 1920,
    "reach@@": 8463,
    "Develop@@": 10736,
    "complex": 3660,
    "St.": 7187,
    "poverty": 6931,
    "Latin": 8453,
    "arded": 4218,
    "bas@@": 3464,
    "letting": 7504,
    "pho@@": 7232,
    "instal@@": 6373,
    "sufficiently": 2958,
    "conservation": 8708,
    "challen@@": 5865,
    "Pri@@": 4409,
    "apped": 3346,
    "Mob@@": 10179,
    "voc@@": 4408,
    "craw@@": 7727,
    "AK@@": 11427,
    "erly": 8625,
    "afternoon": 3942,
    "ssed": 3729,
    "ame": 4183,
    "Lad@@": 10979,
    "fitted": 7865,
    "Question": 10566,
    "decom@@": 7980,
    "elev@@": 4072,
    "i": 305,
    "When": 452,
    "energe@@": 12636,
    "partnerships": 8828,
    "vessels": 2243,
    "kam@@": 12288,
    "anti@@": 1824,
    "residence": 2796,
    "conjunction": 7488,
    "voting": 8210,
    "combination": 2907,
    "warm@@": 7231,
    "III@@": 9686,
    "contrib@@": 4803,
    "dv@@": 12777,
    "start": 740,
    "PL@@": 3744,
    "ler@@": 9459,
    "profile": 4288,
    "Ó": 13396,
    "van": 4367,
    "swi@@": 3883,
    "England": 5899,
    "gos": 11134,
    "then": 183,
    "same": 240,
    "Insurance": 9356,
    "pression": 4457,
    "estimated": 2904,
    "nost@@": 11587,
    "GO@@": 8745,
    "kept": 2193,
    "ví@@": 13508,
    "ile": 2622,
    "Hon@@": 5897,
    "sitting": 2329,
    "C(@@": 7252,
    "Ron@@": 8658,
    "resident": 3693,
    "improvements": 7520,
    "kav@@": 13008,
    "race": 3719,
    "Bun@@": 7249,
    "began": 2236,
    "oted": 7871,
    "mostly": 6356,
    "ud": 5960,
    "planet": 3005,
    "L": 335,
    "Title": 2873,
    "engen": 13228,
    "mediation": 7297,
    "endor@@": 8562,
    "[@@": 1851,
    "prise": 7180,
    "Back": 8734,
    "enever": 11450,
    "fas@@": 11443,
    "Appropri@@": 12532,
    "dub@@": 13202,
    "Pursu@@": 13497,
    "prev@@": 2670,
    "DF": 12103,
    "em": 3378,
    "TER": 9727,
    "very": 244,
    "August": 2543,
    "sounded": 8180,
    "revealed": 9406,
    "House": 4673,
    "soft": 4755,
    "exclusive": 4725,
    "enfor@@": 8379,
    "December": 845,
    "replaced": 1652,
    "infar@@": 11624,
    "Cu@@": 11002,
    "DO": 12338,
    "diver@@": 3746,
    "ardon": 12859,
    "odium": 11207,
    "Δ@@": 12074,
    "influence": 3850,
    "seven": 2259,
    "complic@@": 8359,
    "kt@@": 11567,
    "Lar@@": 7386,
    "closed": 1497,
    "my": 62,
    "adopted": 625,
    "silence": 4142,
    "$@@": 11681,
    "angry": 2978,
    "P@@": 212,
    "ola@@": 11180,
    "massive": 9728,
    "low@@": 2038,
    "ICT": 9254,
    "principles": 1535,
    "fellow": 10675,
    "Ear@@": 10206,
    "Quest@@": 9882,
    "gger": 10643,
    "kidney": 8068,
    "interim": 4011,
    "LY": 11088,
    "adv@@": 4646,
    "traditional": 4270,
    "applicant": 650,
    "lower": 1391,
    "T@@": 234,
    "Benjam@@": 10884,
    "addressee": 6666,
    "Syst@@": 8667,
    "directives": 6855,
    "questionna@@": 11214,
    "effec@@": 12047,
    "AN@@": 1495,
    "trouble": 1844,
    "Tr@@": 5813,
    "Ray": 5382,
    "mobili@@": 7421,
    "rup@@": 6186,
    "doctors": 6074,
    "itary": 4849,
    "Box": 10645,
    "something": 182,
    "ake@@": 12035,
    "initiate": 10218,
    "Hope": 10340,
    "nom@@": 4171,
    "electric": 5422,
    "essentially": 6165,
    "isko": 12697,
    "ude@@": 13438,
    "grav@@": 10949,
    "IG@@": 9220,
    "FE": 10341,
    "mo": 8005,
    "oro@@": 7099,
    "expla@@": 5054,
    "testi@@": 8186,
    "klo@@": 12749,
    "ł@@": 10983,
    "soun@@": 11679,
    "male": 7335,
    "Serv@@": 5668,
    "completion": 9091,
    "ocel@@": 12959,
    "Sar@@": 6772,
    "GB": 8910,
    "kom@@": 12202,
    ".europa.eu@@": 13077,
    "gi@@": 3708,
    "waste": 1578,
    "EDPS": 8099,
    "deal": 1211,
    "pneum@@": 10343,
    "association": 3629,
    "ensu@@": 13150,
    "institutional": 4912,
    "initially": 10181,
    "wore": 6681,
    "consolidation": 8998,
    "syndro@@": 8304,
    "difficult": 2725,
    "encoura@@": 7193,
    "patterns": 10900,
    "manufacture": 9221,
    "lamp@@": 12426,
    "report@@": 9711,
    "ec@@": 816,
    "Egypt": 9893,
    "adult": 4920,
    "bilateral": 5139,
    "tero@@": 9266,
    "Ten@@": 10451,
    "ram": 8822,
    "romantic": 8023,
    "analo@@": 6566,
    "indicates": 7612,
    "Go@@": 3052,
    "planned": 2680,
    "muse@@": 9763,
    "command": 3117,
    "block": 4816,
    "f@@": 329,
    "scre@@": 2559,
    "minute": 1264,
    "orrow": 13115,
    "decis@@": 11301,
    "Wood@@": 10800,
    "instru@@": 5020,
    "Guys": 7416,
    "warded": 7412,
    "fash@@": 8666,
    "ký": 13165,
    "twist@@": 6992,
    "Tali@@": 12784,
    "est": 1744,
    "recovery": 2658,
    "aten": 4798,
    "Kir@@": 8284,
    "ks@@": 9243,
    "PS": 7864,
    "forward": 1356,
    "č@@": 11721,
    "med": 1499,
    "judge": 2160,
    "stress": 7541,
    "SO": 7769,
    "intend": 10544,
    "V.": 6285,
    "penal@@": 12448,
    "Implementing": 3818,
    "loy@@": 6029,
    "ej@@": 7346,
    "failed": 3155,
    "broken": 2817,
    "Su@@": 2776,
    "sealed": 9677,
    "composed": 9971,
    "icacy": 12097,
    "Next": 5976,
    "responsibilities": 8173,
    "ami": 10280,
    "oli@@": 2146,
    "TRO@@": 11171,
    "Consum@@": 7969,
    "OV@@": 10113,
    "ma'am": 3841,
    "stom@@": 11871,
    "Mov@@": 6764,
    "here@@": 11888,
    "cop@@": 2942,
    "man@@": 1139,
    "IA": 5298,
    "dying": 4232,
    "Lan@@": 5429,
    "exchanges": 9199,
    "way": 175,
    "shopping": 8738,
    "serving": 4964,
    "his": 76,
    "cu@@": 1488,
    "functioning": 4085,
    "extend": 9084,
    "tos": 10976,
    "idity": 9047,
    "deserve": 5305,
    "shut": 2191,
    "intel@@": 6588,
    "tank": 7235,
    "lifted": 11245,
    "ils": 2183,
    "Bal@@": 2968,
    "marriage": 1934,
    "Labor@@": 11021,
    "Resour@@": 9263,
    "tin": 9041,
    "joke": 4461,
    "mot@@": 7153,
    "ends": 1877,
    "bonds": 8661,
    "Until": 9006,
    "dead": 648,
    "ap@@": 644,
    "Gord@@": 12852,
    "n’t": 4772,
    "Vi@@": 3496,
    "DNA": 5854,
    "undertakings": 1521,
    "plans": 2213,
    "ills": 6669,
    "wolf": 7481,
    "tran@@": 2642,
    "contained": 2689,
    "ined": 1593,
    "forest": 3925,
    "replace": 5517,
    "haem@@": 6777,
    "CAR@@": 11188,
    "receiv@@": 3661,
    "burden": 3558,
    "iring": 5306,
    "sex@@": 10142,
    "tre@@": 1526,
    "cid@@": 4499,
    "lines": 2391,
    "catches": 8510,
    "NL": 11149,
    "fó@@": 12386,
    "exceeded": 6507,
    "ingent": 7261,
    "Ca": 3968,
    "colour": 5929,
    "fic": 6701,
    "document@@": 7361,
    "distrib@@": 5120,
    "que": 2596,
    "news": 2020,
    "sie": 6326,
    "'@@": 1403,
    "AO": 9864,
    "collection": 3276,
    "strict": 7828,
    "lion": 5564,
    "banks": 2948,
    "place": 290,
    "Fed@@": 12204,
    "cord@@": 11573,
    "ender": 3581,
    "Vin@@": 11269,
    "Jes@@": 10963,
    "Finland": 5271,
    "bes@@": 13488,
    "ring@@": 6082,
    "becoming": 6272,
    "py": 6394,
    "States": 167,
    "Billy": 5856,
    "diam@@": 6557,
    "sc@@": 548,
    "hypogly@@": 10066,
    "Hi@@": 10779,
    "rule": 1472,
    "peac@@": 7353,
    "ruba": 12850,
    "→": 13507,
    "yt@@": 4645,
    "ela": 6633,
    "raph": 12707,
    "kinds": 11100,
    "TV@@": 10459,
    "Pac@@": 11944,
    "Run@@": 10960,
    "shows": 2577,
    "mistake": 2773,
    "Financial": 1643,
    "subsc@@": 9213,
    "support": 531,
    "skr@@": 13364,
    "ří": 12799,
    "Lin@@": 4666,
    "food": 859,
    "Raist@@": 10844,
    "Ken@@": 6100,
    "erable": 7542,
    "dus@@": 12091,
    "EEC": 920,
    "o": 301,
    "entit@@": 8327,
    "flow@@": 10199,
    "relative": 5649,
    "response": 2702,
    "Dex@@": 9391,
    "Today": 5073,
    "Nar@@": 10899,
    "lap": 8829,
    "falling": 2550,
    "damaged": 6532,
    "partial": 4156,
    "turn": 1161,
    "spot": 3413,
    "gross": 6401,
    "Fon@@": 9983,
    "itel@@": 12574,
    "windows": 5579,
    "temporary": 2490,
    "intended": 1041,
    "movies": 7013,
    "specialised": 7041,
    "shes": 5379,
    "EUROP@@": 12444,
    "multi@@": 3623,
    "ct@@": 1294,
    "Cul@@": 9732,
    "figu@@": 13274,
    "completed": 1970,
    "cers": 8657,
    "measurement": 6928,
    "hour": 1404,
    "Perhaps": 8077,
    "equipped": 5066,
    "park": 5962,
    "в@@": 13033,
    "retain": 10426,
    "Cenelec": 7198,
    "YY@@": 11026,
    "Damn": 2799,
    "objective": 1394,
    "či": 13434,
    "ker@@": 7427,
    "nev@@": 11794,
    "unds": 9821,
    "IN": 3717,
    "those": 252,
    "ink@@": 7631,
    "Children": 9731,
    "sá@@": 12823,
    "nuclear": 3479,
    "ok@@": 1925,
    "ission": 3146,
    "itchen": 12483,
    "turned": 1019,
    "collective": 4764,
    "Gun@@": 10618,
    "Asia": 8853,
    "Section": 1389,
    "violent": 8075,
    "food@@": 11548,
    "aj@@": 8565,
    "protocol": 8194,
    "minim@@": 4965,
    "Back@@": 11840,
    "assess@@": 12522,
    "RO@@": 3535,
    "pali@@": 12099,
    "town": 1599,
    "Η@@": 13574,
    "Mal@@": 2602,
    "sigh@@": 12050,
    "dat": 13338,
    "ked": 1836,
    "Rep@@": 9534,
    "outstanding": 9292,
    "Mediter@@": 13462,
    "percent": 5889,
    "sli@@": 2567,
    "choice": 2027,
    "worried": 3380,
    "rose": 4650,
    "tra": 9187,
    "beings": 7527,
    "Staff": 4005,
    "Programme": 2234,
    "surpr@@": 8517,
    "grid": 10617,
    "DG": 5904,
    "detec@@": 5666,
    "Cen@@": 12673,
    "imag@@": 3450,
    "climate": 3443,
    "Ker@@": 10123,
    "stared": 6253,
    "nam": 8067,
    "vie": 10969,
    "contains": 1609,
    "Ra@@": 2695,
    "can": 57,
    "cham@@": 3943,
    "Blue": 8459,
    "ț@@": 12478,
    "oper": 9257,
    "ceed@@": 3763,
    "PRO@@": 4043,
    "gue": 2881,
    "guess": 1583,
    "ests": 7493,
    "yard": 7546,
    "Let@@": 11771,
    "centrum": 13268,
    "Santa": 7457,
    "recommend@@": 13451,
    "ditions": 11321,
    "founded": 5449,
    "apping": 7827,
    "experienced": 5772,
    "communication": 2265,
    "bankruptcy": 5184,
    "perspective": 7100,
    "courage": 5717,
    "translation": 7891,
    "raising": 7547,
    "postal": 8758,
    "Lew@@": 9635,
    "significant": 962,
    "French": 1757,
    "Tow@@": 7290,
    "constru@@": 4785,
    "systems": 864,
    "Transport": 6667,
    "Code": 2402,
    "dr": 9185,
    "ME": 9280,
    "killing": 3566,
    "extended": 3066,
    "lis": 9779,
    "ì@@": 13568,
    "diabetes": 8095,
    "let": 265,
    "}@@": 11339,
    "moved": 2081,
    "Paper": 7417,
    "Instrument": 4648,
    "isite": 7809,
    "Trib@@": 12367,
    "preparing": 3529,
    "introduced": 2827,
    "ea": 6201,
    "ped": 1574,
    "iro@@": 5309,
    "Never@@": 13175,
    "businesses": 3710,
    "equity": 5484,
    "profess@@": 5924,
    "]@@": 5965,
    "Steph@@": 9042,
    "nel@@": 11156,
    "ana@@": 7837,
    "”": 556,
    "TFEU": 1843,
    "proposed": 1337,
    "feet": 1803,
    "say": 200,
    "agon@@": 10549,
    "beer": 3388,
    "effici@@": 8034,
    "Small": 7036,
    "skills": 4734,
    "dem": 12925,
    "AUC": 9302,
    "surg@@": 10102,
    "ar@@": 408,
    "CYP@@": 5754,
    "č": 12304,
    "tal": 4051,
    "Import@@": 9118,
    "Automatic": 7895,
    "followed": 1691,
    "recyc@@": 8079,
    "wo@@": 7987,
    "fiscal": 5426,
    "res@@": 2181,
    "member@@": 12389,
    "round": 4257,
    "Lady": 5662,
    "Dom@@": 5940,
    "closing": 4758,
    "Dy@@": 6792,
    "sel@@": 2140,
    "Medicinal": 8124,
    "concept": 6128,
    "chance": 1334,
    "read": 902,
    "former": 2998,
    "transition": 7168,
    "pod@@": 9688,
    "digit@@": 11715,
    "separ@@": 8655,
    "signature": 6075,
    "ith@@": 8871,
    "signs": 3195,
    "€": 5402,
    "denly": 11670,
    "rap": 7829,
    "isual": 8370,
    "aircraft": 3229,
    "unt": 4824,
    "gly@@": 5545,
    "ura": 6066,
    "fel@@": 5808,
    "Jap@@": 13018,
    "mother": 721,
    "rement": 11889,
    "alleg@@": 5229,
    "refers": 9862,
    "Gentlemen": 9311,
    "someone": 420,
    "ghters": 7105,
    "Community": 247,
    "'ve": 154,
    "amend@@": 13265,
    "anie": 10105,
    "Subject": 2384,
    "incorrect": 9745,
    "voices": 6277,
    "ight": 6083,
    "razil": 9170,
    "goddamn": 12356,
    "item": 3359,
    "www@@": 12272,
    "enabling": 9353,
    "restrictions": 3029,
    "Tam@@": 9446,
    "Europol": 8000,
    "EE@@": 9499,
    "organ@@": 4897,
    "nar@@": 3857,
    "websites": 10182,
    "person": 469,
    "gin@@": 10501,
    "elderly": 9327,
    "gift": 4126,
    "mili@@": 11879,
    "patient": 2075,
    "sad": 3500,
    "ij": 12559,
    "lane": 11540,
    "techn@@": 10579,
    "discretion": 5336,
    "approval": 1581,
    "commitments": 2606,
    "thing": 375,
    "nec": 12996,
    "scene": 3759,
    "thly": 7792,
    "management": 675,
    "terly": 7707,
    "trigger": 8630,
    "explo@@": 2303,
    "ß@@": 11980,
    "akes": 5210,
    "OJ": 528,
    "Danny": 5017,
    "chair": 2986,
    "message": 1622,
    "recru@@": 4786,
    "beauty": 5928,
    "ber": 2625,
    "Hong": 8694,
    "section": 880,
    "expect": 2803,
    "Dop@@": 12696,
    "Sly@@": 12616,
    "ov": 9351,
    "Dub@@": 9736,
    "State": 203,
    "following": 316,
    "vitam@@": 9684,
    "esa": 10099,
    "compla@@": 3250,
    "with@@": 4999,
    "fifty": 8398,
    "obligation": 1437,
    "assume": 7550,
    "Center": 9625,
    "outcome": 7870,
    "dollars": 4940,
    "pack@@": 4771,
    "Differ@@": 9579,
    "arran@@": 4906,
    "W": 1067,
    "eved": 8757,
    "arguments": 2774,
    "selection": 2780,
    "transaction": 3235,
    "ż@@": 12782,
    "Dele@@": 7233,
    "sia": 6062,
    "scale": 3471,
    "classification": 3924,
    "world": 497,
    "Effec@@": 9574,
    "valid": 1943,
    "etc": 2211,
    "ure@@": 4229,
    "pack": 3814,
    "planning": 2971,
    "revolu@@": 11603,
    "delete": 8802,
    "amounts": 2006,
    "tane@@": 13380,
    "bare@@": 13285,
    "near": 2841,
    "dat@@": 6004,
    "lan@@": 2266,
    "icial": 8367,
    "Dr@@": 9051,
    "Nevertheless": 12918,
    "ome@@": 5133,
    "modu@@": 9520,
    "ails": 8842,
    "thes": 11379,
    "RS": 11509,
    "in@@": 158,
    "Shan@@": 10124,
    "rat@@": 1304,
    "jealous": 8064,
    "slau@@": 9743,
    "battle": 4815,
    "L.@@": 8100,
    "CE": 3272,
    "spot@@": 10307,
    "expen@@": 9206,
    "issuing": 4689,
    "methods": 1979,
    "Toto": 13281,
    "hor": 11958,
    "Kur@@": 9226,
    "Nov@@": 8530,
    "relationship": 1808,
    "Procedural": 5071,
    "Cut": 6473,
    "SU@@": 4519,
    "CYP": 12623,
    "acquis": 7628,
    "public@@": 5679,
    "honest": 4117,
    "independent": 2138,
    "ali@@": 2127,
    "hand": 426,
    "aves": 5471,
    "yeah": 319,
    ",000": 2866,
    "itz": 10071,
    "deposits": 8232,
    "Low@@": 10455,
    "relations": 3087,
    "pist@@": 7182,
    "leaned": 6604,
    "That": 127,
    "friend": 706,
    "Ala@@": 10448,
    "subsequently": 4832,
    "By": 1352,
    "resc@@": 9865,
    "op": 5634,
    "formin": 9710,
    "cust@@": 6208,
    "Access": 9506,
    "top@@": 3489,
    "zach@@": 13412,
    "rin@@": 9808,
    "tho@@": 5624,
    "non": 447,
    "FS@@": 10578,
    "(2)(@@": 4916,
    "ITS": 9554,
    "acu@@": 8635,
    "artan": 8233,
    "intervals": 8912,
    "hyd@@": 11727,
    "ister": 6645,
    "rong": 11476,
    "illiant": 13076,
    "nit": 13030,
    "past": 1611,
    "in'": 13423,
    "importance": 3573,
    "drew": 6070,
    "Bri@@": 4512,
    "SC": 4465,
    "ality": 1653,
    "min": 7186,
    "té@@": 11887,
    "apart": 4068,
    "atu": 12544,
    "e-@@": 12366,
    "event@@": 8396,
    "course": 462,
    "Admiral": 8470,
    "body@@": 9633,
    "criterion": 4881,
    "Spe@@": 4796,
    "chers": 6679,
    "purely": 7983,
    "Apparently": 11103,
    "uji": 12666,
    "unex@@": 5652,
    "further": 676,
    "iculous": 12625,
    "Secondly": 11953,
    "woman": 730,
    "friendly": 5947,
    "arri@@": 6972,
    "zk@@": 12305,
    "sit": 1929,
    "kul@@": 12929,
    "Chair@@": 7886,
    "seas": 9028,
    "arks": 10389,
    "kid@@": 8403,
    "Tele@@": 7440,
    "photo": 10773,
    "agents": 3528,
    "ī@@": 12294,
    "Nope": 13063,
    "lots": 10756,
    "infringements": 8242,
    "proble@@": 11556,
    "cot@@": 9443,
    "Vis@@": 7238,
    "nad@@": 10700,
    "mid": 7785,
    "U": 2231,
    "Bring": 8778,
    "transf@@": 11809,
    "kno@@": 3849,
    "narrow": 7112,
    "compatible": 3047,
    "Hy@@": 5557,
    "degre@@": 13090,
    "ravo": 11468,
    "kom": 12598,
    "Security": 2621,
    "pi@@": 1153,
    "months": 708,
    "ffic": 12019,
    "mind": 722,
    "my@@": 3575,
    "passengers": 4510,
    "atoes": 7619,
    "BC": 9783,
    "§": 10460,
    "closer": 3559,
    "Dick": 9631,
    "found": 377,
    "sco@@": 5438,
    "liabilities": 5343,
    "docum@@": 9622,
    "presence": 4144,
    "Tak@@": 10646,
    "porters": 10924,
    "throughout": 3736,
    "wea@@": 11658,
    "sumptions": 6723,
    "broke": 2533,
    "window": 2028,
    "actual": 2823,
    "ś@@": 12519,
    "colle@@": 2226,
    "zi@@": 6098,
    "Russi@@": 9388,
    "ivity": 11607,
    "superi@@": 7133,
    "sh@@": 388,
    "ost@@": 5631,
    "je": 11233,
    "alloc@@": 5648,
    "data": 314,
    "ten@@": 1218,
    "rer": 4966,
    "opo@@": 7749,
    "ive": 1177,
    "suffer": 6860,
    "kova": 12950,
    "personnel": 4484,
    "recal@@": 10125,
    "yi": 12434,
    "hro@@": 12446,
    "tical": 6416,
    "branches": 8123,
    "há@@": 13573,
    "Ad@@": 1632,
    "idi@@": 4953,
    "Secret@@": 12259,
    "there@@": 9083,
    "Someone": 2575,
    "ute": 2012,
    "Br@@": 4406,
    "Simon": 6929,
    "@@": 12820,
    "viation": 5843,
    "Dru@@": 6413,
    "Lichten@@": 12915,
    "lunch": 3628,
    "isl@@": 9431,
    "lit@@": 2289,
    "ces": 1408,
    "rati@@": 7622,
    "Stor@@": 10604,
    "hol@@": 4787,
    "ming": 2062,
    "fan": 5795,
    "ch": 550,
    "Night": 10688,
    "managed": 3254,
    "ova": 8702,
    "own": 399,
    "ound": 5364,
    "finan@@": 8404,
    "memory": 2756,
    "Docum@@": 8906,
    "struction": 10283,
    "budgetary": 2741,
    "Prepar@@": 10240,
    "]": 359,
    "bell": 7381,
    "Gru@@": 11756,
    "priest": 7078,
    "bread": 6757,
    "Health": 4341,
    "preparations": 5015,
    "specifications": 4833,
    "ponent": 8901,
    "rie": 10442,
    "Betty": 10511,
    "ford": 4851,
    "thermore": 12755,
    "monitored": 4850,
    "sten@@": 6918,
    "æ@@": 12198,
    "Gal@@": 4433,
    "ovo@@": 13356,
    "ox@@": 3445,
    "ascular": 7364,
    "ve": 1285,
    "harmonisation": 7941,
    "SC@@": 7323,
    "inqui@@": 11901,
    "desert": 7984,
    "sighed": 7705,
    "GmbH": 6791,
    "wheel": 5279,
    "dres@@": 6374,
    "А@@": 13002,
    "accession": 4839,
    "Under@@": 4169,
    "file": 1064,
    "stal": 7978,
    "element": 3194,
    "big": 654,
    "arian": 3282,
    "ancient": 6046,
    "prob@@": 4508,
    "eam": 9556,
    "okay": 432,
    "ventil@@": 10684,
    "UT@@": 10196,
    "fond": 12357,
    "ps@@": 10137,
    "s.@@": 10197,
    "hearing": 1856,
    "Europ@@": 9531,
    "ware": 7263,
    "impose": 6383,
    "Randy": 9386,
    ".eu": 12499,
    "ensured": 5114,
    "Environ@@": 8838,
    "Flor@@": 7502,
    "Police": 6958,
    "operate": 5458,
    "morning": 901,
    "PV@@": 10114,
    "BA": 7665,
    "grow@@": 8526,
    "session": 4888,
    "eligible": 1855,
    "lovely": 11008,
    "They": 268,
    "Japanese": 5669,
    "phase": 3747,
    "extent": 4462,
    "damned": 9007,
    "tries": 10090,
    "out@@": 1314,
    "cases@@": 10977,
    "magne@@": 10334,
    "g/@@": 7473,
    "Pap@@": 9463,
    "arrival": 8187,
    "harmon@@": 6492,
    "hy@@": 1822,
    "Court": 401,
    "tub@@": 5658,
    "cheap": 8138,
    "provides": 879,
    "mi@@": 1889,
    "Edu@@": 11964,
    "paramet@@": 9420,
    "ston": 4941,
    "attack": 1798,
    "mask": 7106,
    "...": 30,
    "bol@@": 6312,
    "Exper@@": 10378,
    "treat@@": 5801,
    "Sam@@": 3476,
    "witnesses": 5581,
    "use": 236,
    "mimo@@": 13413,
    "opening": 2568,
    "customers": 3184,
    "Norm@@": 12178,
    "eur@@": 9032,
    "took": 515,
    "Bank": 2315,
    "Hot@@": 11518,
    "walking": 4438,
    "parti@@": 9524,
    "thor@@": 5824,
    "Vide@@": 11395,
    "filter": 7363,
    "tickets": 6712,
    "enforced": 7272,
    "endar": 12173,
    "Policy": 2341,
    "S.": 8215,
    "jec@@": 3319,
    "activ@@": 5097,
    "Defendant": 9098,
    "sion": 1132,
    "Glob@@": 11075,
    "pover@@": 13271,
    "manipul@@": 9785,
    "aders": 12509,
    "bav@@": 12687,
    "magnetic": 6602,
    "orient@@": 5495,
    "host": 3769,
    "iku": 12745,
    "seline": 12890,
    "estly": 6264,
    "tan@@": 3258,
    "relatively": 5572,
    "consultations": 6337,
    "maybe": 754,
    "Clin@@": 9551,
    "cely": 11659,
    "extre@@": 11927,
    "puted": 9364,
    "frequ@@": 6551,
    "lins": 8158,
[...]
