{
    "shore": 7657,
    "Dig@@": 9364,
    "Hotel": 9259,
    "Source": 9678,
    "Member": 123,
    "„@@": 15158,
    "employees": 3890,
    "smel@@": 6485,
    "Й": 14996,
    "serve": 2661,
    "Johnny": 5853,
    "meat": 2349,
    "item": 3074,
    "NG@@": 7050,
    "Mun@@": 8700,
    "Down@@": 10122,
    "andu": 13569,
    "O'@@": 6570,
    "decides": 6001,
    "Sometimes": 3807,
    "Leave": 3613,
    "ilar": 11643,
    "oma": 7814,
    "Ж@@": 14552,
    "Pav@@": 11806,
    "Wh": 10857,
    "diseases": 6053,
    "lateral": 11818,
    "Au@@": 3725,
    "ader@@": 7768,
    "toi@@": 12334,
    "⎜": 15494,
    "return": 1405,
    "genetic": 9319,
    "authentic": 7299,
    "even": 262,
    "ess": 2583,
    "responsible": 1108,
    "residence": 2157,
    "Wi@@": 6105,
    "High@@": 5902,
    "program": 3622,
    "part": 315,
    "posed": 4448,
    "zou@@": 14498,
    "hurry": 5363,
    "Relax": 8169,
    "prove": 2623,
    "overe@@": 13171,
    "shooting": 5522,
    "£@@": 13649,
    "ε@@": 12144,
    "calendar": 5413,
    "false": 6597,
    "Bringing": 5019,
    "settled": 4161,
    "assumed": 6054,
    "Jist@@": 14576,
    "☆": 15171,
    "omi": 11411,
    "expiry": 4208,
    "As@@": 3501,
    "ored": 8696,
    "tender": 2865,
    "Div@@": 10827,
    "ardy": 11581,
    "procurement": 4455,
    "nes@@": 4874,
    "neys": 9163,
    "EESC": 2050,
    "shoc@@": 8508,
    "prin@@": 8709,
    "poj@@": 14558,
    "derogation": 4030,
    "■": 13631,
    "Hey": 272,
    "vy": 9020,
    "clim@@": 4530,
    "parallel": 6579,
    "prov@@": 11179,
    "fuels": 6695,
    "én@@": 12231,
    "COMM@@": 6917,
    "judgment": 1043,
    "Free": 3517,
    "idiot": 5120,
    "dialog": 9511,
    "ะ": 15529,
    "ࠂ@@": 15915,
    "Faj@@": 13679,
    "epis@@": 9341,
    "exciting": 9471,
    "three": 375,
    "kinda": 8705,
    "pulled": 3154,
    "kum": 13051,
    "utor": 7887,
    "apar@@": 12324,
    "Treat@@": 9752,
    "少@@": 15749,
    "rus": 8633,
    "September": 1345,
    "Maj@@": 12616,
    "Sho@@": 4680,
    "Que@@": 11333,
    "easier": 4595,
    "Van@@": 8850,
    "billion": 3036,
    "hat@@": 4966,
    "simply": 2844,
    "Excuse": 1763,
    "scenari@@": 11251,
    "Kul@@": 12609,
    "rising": 7232,
    "Sty@@": 11595,
    "While": 2970,
    "unii": 14742,
    "condition": 1999,
    "vey": 10750,
    "labor@@": 9820,
    "爀@@": 15218,
    "preven@@": 10458,
    "Although": 3234,
    "oth@@": 8222,
    "effect": 745,
    "fem@@": 9738,
    "hereinafter": 4393,
    "structures": 4088,
    "empty": 3338,
    "eco@@": 9954,
    "lodge": 9457,
    "consci@@": 6429,
    "perhaps": 2695,
    "loaded": 5573,
    "micro@@": 4355,
    "ariat": 13298,
    "zla": 14177,
    "stocks": 4643,
    "ger@@": 4689,
    "mus@@": 3568,
    "cation": 11469,
    "lives": 1666,
    "truck": 4364,
    "anese": 11874,
    "Ab@@": 2946,
    "@@": 14319,
    "key@@": 8944,
    "Bar@@": 2166,
    "Bai@@": 10664,
    "Better": 5027,
    "Market": 4242,
    "steady": 7219,
    "plays": 5468,
    "duplic@@": 8735,
    "AU@@": 6511,
    "Whatever": 3003,
    "nate": 9072,
    "Sear@@": 12278,
    "Roz@@": 12938,
    "increases": 5583,
    "Fondu": 14739,
    "stern": 9092,
    "b@@": 277,
    "so@@": 978,
    "ec": 9628,
    "vide@@": 10339,
    "proof": 1634,
    "pictures": 5011,
    "ero": 7017,
    "combin@@": 7683,
    "stě@@": 14542,
    "Chapter": 1662,
    "隝": 15443,
    "ח": 15564,
    "gericht": 10759,
    "pur@@": 2644,
    "of": 7,
    "gl@@": 4642,
    "parking": 7597,
    "oval": 11653,
    "strop@@": 12841,
    "coat": 6289,
    "female": 5256,
    "INFOR@@": 10914,
    "Gentle@@": 13191,
    "success": 5210,
    "cycles": 9251,
    "Create": 9662,
    "dnem": 14269,
    ";": 127,
    "surgery": 5618,
    "Π@@": 13337,
    "fishery": 8745,
    "prim@@": 8108,
    "French": 1836,
    "involves": 7019,
    "regul@@": 3876,
    "ust@@": 2347,
    "kus": 11978,
    "Hill": 10628,
    "ev@@": 1275,
    "@@": 15016,
    "bon@@": 3218,
    "intest@@": 11686,
    "Bos@@": 8046,
    "recognition": 2594,
    "stakeholders": 4414,
    "fail": 5911,
    "Very": 1833,
    "careful": 3279,
    "posse@@": 6607,
    "viously": 6442,
    "웃@@": 15629,
    "fif@@": 8109,
    "": 15058,
    "leno": 14585,
    "invol@@": 12271,
    "ד": 15936,
    "nky": 14325,
    "exposure": 2575,
    "sher": 8031,
    "tells": 5284,
    "ines@@": 11616,
    "හ@@": 15899,
    "ém": 13776,
    "hoto": 14241,
    "ê": 11311,
    "versus": 9978,
    "axis": 9655,
    "Re@@": 782,
    "mě@@": 13580,
    "Prac@@": 14352,
    "Slu@@": 12353,
    "phas@@": 11831,
    "Off@@": 9941,
    "semi": 9247,
    "Sec@@": 3412,
    "IX": 7727,
    "mer": 2381,
    "phi@@": 10844,
    "fallen": 6721,
    "sold": 2703,
    "bec": 12997,
    "dear": 2579,
    "VO": 11580,
    "N": 1196,
    "ą@@": 12655,
    "Your": 446,
    "District": 7886,
    "lily": 12638,
    "balances": 9340,
    "Oli@@": 10581,
    "enclat@@": 13572,
    "ss": 1615,
    "Doctor": 3643,
    "infection": 5515,
    "Not@@": 5462,
    "stock": 2753,
    "imposing": 8100,
    "Ta@@": 3780,
    "NG": 10802,
    "ɣ@@": 15966,
    "emission": 5056,
    "industry": 1210,
    "reput@@": 12432,
    "securities": 4968,
    "ables": 2693,
    "Zem@@": 12970,
    "cash": 2430,
    "................@@": 12335,
    "labelling": 6018,
    "EM": 11263,
    "gentleman": 8506,
    "Time": 2922,
    "Nom@@": 9173,
    "rej@@": 13607,
    "juris@@": 11312,
    "most": 443,
    "Remove": 8948,
    "es": 159,
    "vra@@": 13166,
    "RT@@": 10770,
    "Sled@@": 13684,
    "Un@@": 1328,
    "(s": 2415,
    "stra@@": 2438,
    "observation": 9315,
    "tika": 13138,
    "tato": 14855,
    "stres@@": 5898,
    "Alex@@": 9916,
    "cali@@": 8511,
    "resulted": 7709,
    "adap@@": 4816,
    "pite": 14688,
    "ovská": 14417,
    "Bec@@": 6396,
    ".m.": 11403,
    "kd@@": 12136,
    "zeň": 13571,
    "з": 15114,
    "dou@@": 10350,
    "nese": 12851,
    "providers": 5680,
    "prisoner": 9346,
    "/@@": 54,
    "HU": 12071,
    "Hmm": 4457,
    "Sv@@": 12847,
    "@@": 15249,
    "ovce": 14735,
    "mil@@": 3948,
    "complies": 8906,
    "screw": 8577,
    "Ω": 15842,
    "С@@": 13716,
    "ns": 1447,
    "recording": 6575,
    "sy": 2075,
    "ج": 15552,
    "impac@@": 12012,
    "abovementioned": 7971,
    "subjects": 4351,
    "David": 3292,
    "from": 47,
    "au": 9012,
    "legally": 4155,
    "attached": 3324,
    "son": 454,
    "Fourth": 9030,
    "international": 864,
    "concerned": 442,
    "ura@@": 9615,
    "running": 1561,
    "discrimin@@": 11573,
    "detail": 4609,
    "Nice": 2251,
    "nically": 6010,
    "ani@@": 5732,
    "samo": 14651,
    "substances": 2096,
    "Sk@@": 4357,
    "engen@@": 14595,
    "Pak": 13114,
    "Ch@@": 852,
    "Division": 7587,
    "unch": 5691,
    "references": 5383,
    "tow@@": 4363,
    "A@@": 172,
    "Under": 2192,
    "|": 1205,
    "ward": 1719,
    "seas": 8719,
    "Christ@@": 6577,
    "Po@@": 1674,
    "According": 1966,
    "mat@@": 966,
    "Position": 7400,
    "Pretty": 7242,
    "compen@@": 12808,
    "아@@": 15630,
    "ALE": 10299,
    "ology": 4691,
    "Technology": 9834,
    "Gordon": 10433,
    "NO": 9035,
    "ident@@": 8524,
    "pregnant": 3606,
    "∙": 15084,
    "xes": 4206,
    "ně@@": 13442,
    "ped@@": 5983,
    "suff@@": 8424,
    "ế@@": 15011,
    "Roy": 10284,
    "poses": 8178,
    "dokum@@": 14491,
    "adjusted": 4908,
    "ay": 1952,
    "od": 3300,
    "butions": 12760,
    "invent@@": 7829,
    "roz@@": 11462,
    "Import": 9270,
    "popla@@": 14003,
    "conclude": 5931,
    "rii": 14032,
    "chant": 10879,
    "Director": 3986,
    "tere": 13579,
    "temper@@": 9710,
    "involve": 5416,
    "COMMISSION": 2299,
    "gang@@": 10424,
    "events": 2383,
    "fii": 13694,
    "entering": 5956,
    "Pl@@": 7640,
    "kur@@": 12583,
    "inici@@": 14357,
    "Ner@@": 12478,
    "thum@@": 9293,
    "having": 562,
    "report@@": 9690,
    "Progra@@": 12434,
    "UNION": 7581,
    "rut@@": 12013,
    "removal": 6699,
    "城": 15219,
    "cena": 13722,
    "quant@@": 12844,
    "stuff": 1307,
    "Bir@@": 9536,
    "appell@@": 12850,
    "М": 15393,
    "AM": 9422,
    "Sam": 2734,
    "nalo@@": 13288,
    "motor@@": 8649,
    "Government": 2106,
    "lá@@": 12832,
    "very": 257,
    "ano": 4169,
    "o'@@": 12596,
    "ned": 1477,
    "ends": 1619,
    "y": 274,
    "Gam@@": 10210,
    "ċ@@": 14731,
    "Rap@@": 9797,
    "Dal@@": 8675,
    "Po": 12417,
    "Nev@@": 11218,
    "habit@@": 7257,
    "iler": 7323,
    "dwar@@": 8840,
    "seg@@": 6202,
    "oh": 3088,
    "cler@@": 8328,
    "Enforcement": 3971,
    "gra@@": 881,
    "hled": 14748,
    "eral": 5375,
    "Fir@@": 10272,
    "tri@@": 1456,
    "ises": 3956,
    "Setup": 9720,
    "boru": 14805,
    "note": 2419,
    "konstruk@@": 14747,
    "indicated": 1929,
    "xi@@": 7825,
    "aven": 7912,
    "terrible": 3246,
    "Donna": 10549,
    "ette": 5240,
    "consideration": 2636,
    "December": 731,
    "И@@": 13993,
    "ob@@": 980,
    "pressed": 3460,
    "sr@@": 12455,
    "ht@@": 11839,
    "Can@@": 3526,
    "Des@@": 3753,
    "Soubor": 14709,
    "display": 4769,
    "Willi@@": 14327,
    "Ty": 12619,
    "astro@@": 10978,
    "sta@@": 2309,
    "appeal": 1274,
    "hal@@": 2329,
    "Ċ@@": 15053,
    "shipment": 8685,
    "oku": 13273,
    "hic@@": 10101,
    "mo@@": 779,
    "Barry": 10454,
    "mixture": 8532,
    "diver@@": 3796,
    "mounted": 9280,
    "Carlos": 10558,
    "procedures": 795,
    "ŷ@@": 15236,
    "sport": 4521,
    "LÁ@@": 14564,
    "wned": 8402,
    "j": 4652,
    "倍@@": 15355,
    "tá@@": 13344,
    "bor": 5191,
    "Ote@@": 14089,
    "rka": 13115,
    "zer": 9456,
    "Parag@@": 11273,
    "zab@@": 13229,
    "exporter": 8516,
    "rok": 12613,
    "hurt": 1488,
    "AT": 4773,
    "Luxembourg": 3703,
    "Foreign": 7008,
    "tla@@": 12644,
    "Multi@@": 9725,
    "deliber@@": 7401,
    "connection": 1717,
    "volume": 2327,
    "Internet": 3357,
    "verify": 5367,
    "Country": 7700,
    "rej": 14138,
    "slept": 6115,
    "Hla@@": 13763,
    "market@@": 9833,
    "с@@": 13311,
    "rout@@": 12257,
    "Χ@@": 14345,
    "oling": 7286,
    "蟲@@": 15673,
    "Paragraph": 4906,
    "sma@@": 10838,
    "ump": 4514,
    "names": 2512,
    "develop@@": 9856,
    "Identi@@": 9268,
    "sele@@": 4943,
    "inde@@": 9497,
    "@@": 15623,
    "ři": 14175,
    "rush": 8713,
    "yar@@": 7460,
    "Lar@@": 6838,
    "pocket": 5656,
    "fed": 7058,
    "cast": 2945,
    "register": 3377,
    "Tat@@": 12039,
    "down@@": 2528,
    "rit@@": 3029,
    "magazine": 7422,
    "match": 4097,
    "drunk": 4310,
    "υ@@": 12390,
    "Fre@@": 3150,
    "adopting": 6868,
    "ser@@": 2432,
    "ʒ@@": 15963,
    "streng@@": 12022,
    "Jed@@": 11340,
    "aches": 6987,
    "underlying": 4789,
    "doubt": 2860,
    "Gen@@": 5762,
    "done": 518,
    "Prav@@": 13915,
    "ac@@": 543,
    "pipraz@@": 11122,
    "mag@@": 2562,
    "stone": 2871,
    "ced": 1790,
    "fifth": 6660,
    "iveness": 9238,
    "clearing": 9300,
    "daily": 2469,
    "rada": 13707,
    "lid@@": 5913,
    "pek@@": 14166,
    "Text": 3211,
    "lery": 11185,
    "›@@": 14473,
    "Ό@@": 15271,
    "Tun@@": 9089,
    "Bureau": 8458,
    "lord": 4710,
    "": 14397,
    "public@@": 5303,
    "tack@@": 7930,
    "ery@@": 9805,
    "informed": 2382,
    "Prob@@": 11547,
    "k": 468,
    "Admi@@": 13603,
    "multilateral": 7962,
    "kidding": 3604,
    "Nu@@": 11530,
    "units": 2608,
    "": 14789,
    "alternat@@": 7972,
    "ition@@": 4931,
    "Application": 5929,
    "partment": 10268,
    "kami": 13936,
    "las": 3937,
    "Saturday": 6907,
    "Pin@@": 11338,
    "pioglitaz@@": 11264,
    "™": 12711,
    "Cla@@": 2905,
    "Structural": 5412,
    "": 12748,
    "Aw": 9687,
    "uc@@": 2957,
    "tious": 8717,
    "livosti": 14922,
    "difference": 2089,
    "ised": 1201,
    "enda": 8228,
    "bom@@": 6456,
    "pop": 8154,
    "Mommy": 7823,
    "tionary": 7732,
    "eliminate": 9269,
    "dal@@": 11400,
    "meme": 14134,
    "ก@@": 15534,
    "clearance": 4678,
    "stra": 12663,
    "zar@@": 12561,
    "dit": 6242,
    "ⁿ": 15225,
    "reasoning": 8788,
    "en@@": 281,
    "Ak@@": 10462,
    "Malta": 6178,
    "consid@@": 14574,
    "Ĳ": 15332,
    "ously": 2278,
    "borders": 6130,
    "load": 2434,
    "Phi@@": 6368,
    "hrad@@": 14723,
    "Alex": 5326,
    "whereby": 6537,
    "Nel@@": 10962,
    "ies": 540,
    "Rá@@": 14230,
    "rid": 3666,
    "nel": 6298,
    "soldier": 6677,
    "medic@@": 8550,
    "than@@": 7967,
    "constitute": 2714,
    "concentrations": 5048,
    "judicial": 2026,
    "": 15035,
    "Ricky": 10725,
    "published": 1810,
    "enting": 10991,
    "FR@@": 6559,
    "Mac": 10723,
    "mine": 1258,
    "fall": 1459,
    "kidney": 9446,
    "Having": 1253,
    "Jar@@": 11488,
    "oke": 3716,
    "ez@@": 4604,
    "ñ": 14312,
    "distur@@": 4362,
    "": 14064,
    "foodstuffs": 7262,
    "ל@@": 15382,
    "pr@@": 1285,
    "DECISION": 5247,
    "strange": 3007,
    "Bea@@": 10243,
    "Philli@@": 11293,
    "infra@@": 7688,
    "□": 13841,
    "covers": 3466,
    "proje@@": 14653,
    "hu@@": 4051,
    "ugly": 7080,
    "řin@@": 14917,
    "LY": 10049,
    "kly": 11061,
    "õ@@": 12815,
    "exchange": 1648,
    "publication": 1228,
    "zat@@": 12839,
    "guns": 4919,
    "yards": 8590,
    "fever": 7398,
    "Ő@@": 14246,
    "san": 10221,
    "You'il": 5746,
    "Sheriff": 9704,
    "DR@@": 10230,
    "wife": 971,
    "rodin@@": 14665,
    "glass": 2569,
    "bars": 7763,
    "řád@@": 14892,
    "transpar@@": 13035,
    "VAT": 2874,
    "ine": 320,
    "forced": 4372,
    "sec": 10008,
    "Act": 1928,
    "arance": 12763,
    "mol": 12150,
    "Mat@@": 3379,
    "'": 82,
    "York": 2911,
    "chance": 1327,
    "zone": 3993,
    "suffici@@": 11642,
    "Brian": 7452,
    "aken": 8375,
    "neighbor@@": 10172,
    "Þ@@": 14568,
    "screen": 4067,
    "George": 3348,
    "divorce": 2269,
    "profession": 7250,
    "ima": 10527,
    "Micro@@": 11705,
    "Alan": 8080,
    "hard@@": 5136,
    "wan@@": 5063,
    "metal": 3722,
    "restaur@@": 11809,
    "Harmonisation": 9301,
    "flu@@": 2414,
    "slowly": 3748,
    "ried": 7164,
    "discovered": 5435,
    "Att@@": 9616,
    "especially": 2118,
    "med@@": 4550,
    "Fis@@": 10135,
    "dro@@": 3297,
    "lawyers": 5634,
    "eta": 10703,
    "man": 169,
    "Paul": 3473,
    "oz": 12664,
    "Gu@@": 1885,
    "catch": 2344,
    "legs": 3755,
    "Min@@": 4060,
    "kov@@": 11557,
    "hi@@": 1960,
    "ij@@": 11722,
    "highly": 4008,
    "ු@@": 15369,
    "bloc@@": 6676,
    "going": 192,
    "Teddy": 11160,
    "imported": 4507,
    "paused": 8977,
    "effectively": 4224,
    "spac@@": 5294,
    "enjoy": 3484,
    "infringement": 1874,
    "8": 125,
    "gy": 5305,
    "螺@@": 15674,
    "employ@@": 11502,
    "me": 42,
    "prima": 11621,
    "ling": 495,
    "Kev@@": 12990,
    "fancy": 8817,
    "tone": 7490,
    "sound": 1305,
    "try": 858,
    "Spr@@": 8958,
    "retirement": 8010,
    "bia": 7580,
    "Sil@@": 3953,
    "obo@@": 13403,
    "Pot@@": 7978,
    "n@@": 469,
    "eping": 6771,
    "now": 153,
    "cloud": 9822,
    "isol@@": 5797,
    "citizen@@": 9360,
    "spouses": 4086,
    "xe": 12492,
    "game": 1573,
    "avir": 7156,
    "enzy@@": 7496,
    "assessing": 5657,
    "‐": 14145,
    "Zab@@": 12870,
    "lka": 14070,
    "Union": 197,
    "carrying": 2743,
    "pensation": 12868,
    "rop@@": 2881,
    "ations": 421,
    "ף": 15934,
    "eve": 6051,
    "ement@@": 8603,
    "EUROPEAN": 2330,
    "ist@@": 1798,
    "white": 1381,
    "kar@@": 10539,
    "eps": 9508,
    "heating": 7457,
    "Rick": 10606,
    "times": 977,
    "Ot@@": 10398,
    "enem@@": 13392,
    "brea@@": 9700,
    "ket": 8473,
    "lel": 12888,
    "esion": 12682,
    "б": 15313,
    "úz@@": 13923,
    "card": 2297,
    "anta": 13015,
    "located": 3201,
    "table": 1023,
    "ة": 15554,
    "uto": 12835,
    "Combin@@": 9161,
    ":00": 3500,
    "attrib@@": 4023,
    "Quick": 7954,
    "stva": 13942,
    "Seven": 8326,
    "Pop@@": 9334,
    "interoper@@": 12260,
    "just": 94,
    "hr@@": 11659,
    "schemes": 3053,
    "ý": 12878,
    "q@@": 6181,
    "Somebody": 4509,
    "profit": 3601,
    "jack@@": 10250,
    "beh@@": 11354,
    "envisaged": 6231,
    "Evrop@@": 13284,
    "ET": 4370,
    "Dad": 1490,
    "ident": 9210,
    "weather": 5671,
    "fleet": 5521,
    "cer@@": 2348,
    "these": 203,
    "famous": 6519,
    "IV": 2289,
    "promo@@": 7606,
    "privi@@": 11377,
    "reverse": 9175,
    "ł": 13207,
    "Alternative": 4893,
    "Ret@@": 5479,
    "leg": 4171,
    "trend": 8909,
    "oun@@": 4755,
    "ў@@": 15075,
    "ª": 12527,
    "mys@@": 14008,
    "optim@@": 11038,
    "Appe@@": 11299,
    "–@@": 2921,
    "­@@": 5609,
    "Berlin": 9728,
    "lease": 7060,
    "thinks": 3001,
    "ibility": 6365,
    "hm": 11433,
    "cen@@": 6637,
    "marry": 4152,
    "ll": 3388,
    "Members": 4925,
    "ả@@": 15861,
    "se@@": 426,
    "Notice": 5350,
    "tube": 8791,
    "tain": 3540,
    "′": 11596,
    "separate": 2372,
    "compr@@": 8782,
    "doh@@": 14616,
    "ties": 2533,
    "infu@@": 13857,
    "and/or": 1284,
    "moz@@": 13132,
    "Ven@@": 7611,
    "walls": 4453,
    "pojišťov@@": 14375,
    "hook": 9217,
    "kus@@": 14223,
    "differences": 3899,
    "domain": 7111,
    "aff@@": 5090,
    "Kevin": 7708,
    "step@@": 8164,
    ".htm": 10225,
    "б@@": 14153,
    "od@@": 994,
    "shel@@": 4192,
    "fees": 3573,
    "Czech": 2527,
    "disappear": 8752,
    "ung@@": 5467,
    "cartel": 5878,
    "impul@@": 10726,
    "prince": 9917,
    "visa": 6457,
    "TE": 8014,
    "professions": 4517,
    "Sup@@": 4257,
    "pull": 3253,
    "tox@@": 10966,
    "deta@@": 10773,
    "sooner": 7432,
    "ski@@": 10141,
    "Gar@@": 4321,
    "G@@": 202,
    "identify": 3417,
    "UK": 5408,
    "http://@@": 6678,
    "alright": 7681,
    "wan": 10079,
    "rez@@": 12688,
    "šen@@": 14565,
    "uter": 11420,
    "jim@@": 12550,
    "somewhere": 2586,
    "eling": 7593,
    "ł@@": 11426,
    "aking": 2421,
    "té": 12299,
    "komun@@": 14769,
    "Commit@@": 10395,
    "transm@@": 5053,
    "la@@": 523,
    "EDF": 10232,
    "awarded": 4951,
    "subsid@@": 9049,
    "sum": 3762,
    "Ví@@": 13374,
    "∅": 15835,
    "residue": 9199,
    "listened": 8548,
    "recognize": 6523,
    "interrup@@": 6102,
    "steps": 2491,
    "compatibility": 5050,
    "coast": 8446,
    "exported": 5514,
    "Ί@@": 15186,
    "elles": 11865,
    "ó": 12266,
    "renewal": 9370,
    "guidelines": 2762,
    "Sour@@": 10367,
    "British": 6436,
    "stages": 4479,
    "chlor@@": 10460,
    "Speci@@": 4957,
    "chle@@": 14784,
    "use@@": 5248,
    "consent": 5189,
    "lyn": 10378,
    "licence": 3046,
    "Ê": 14824,
    "Pier@@": 9124,
    "kod@@": 13398,
    "zing": 7315,
    "partnership": 5154,
    "police": 1478,
    "tiny": 5684,
    "nurse": 6631,
    "relevant": 503,
    "Љ@@": 15268,
    "II@@": 3321,
    "Hard@@": 10397,
    "hold": 1160,
    "valu@@": 9514,
    "costs": 489,
    "faced": 6090,
    "ľ": 13441,
    "riger@@": 13382,
    "htt@@": 12730,
    "eigh@@": 8216,
    "cle@@": 5973,
    "equally": 7567,
    "Ok": 5332,
    "∝@@": 15830,
    "ickly": 10670,
    "ought": 3335,
    "Úřad": 14428,
    "ore": 1276,
    "Chic@@": 13377,
    "ient": 10006,
    "lík": 14222,
    "dic": 9921,
    "reasoned": 8219,
    "examination": 2065,
    "suppli@@": 12918,
    "ack": 2124,
    "IFRS": 10811,
    "影@@": 15467,
    "article": 3641,
    "von@@": 12520,
    "leva": 14071,
    "sub": 3529,
    "satel@@": 12042,
    "à@@": 12965,
    "Part@@": 3882,
    "γ": 13548,
    "types": 1739,
    "compet@@": 5307,
    "韆@@": 15196,
    "stand": 1545,
    "Sounds": 6000,
    "slu@@": 6601,
    "rage": 8938,
    "?’": 9500,
    "worker": 6064,
    "stations": 8064,
    "ctor": 3719,
    "Ash@@": 8902,
    "launch": 6364,
    "zvol@@": 14674,
    "conform@@": 11456,
    "Hyper@@": 9765,
    "": 15428,
    "pel@@": 3895,
    "Both": 4120,
    "aromat@@": 12782,
    "responsibility": 1203,
    "Represent@@": 8254,
    "ts": 384,
    "ξ": 15003,
    "pli@@": 4136,
    "stipulated": 8417,
    "Υ@@": 13087,
    "گ@@": 15916,
    "Č@@": 11843,
    "ites": 3521,
    "kla@@": 10251,
    "ní@@": 13240,
    "státních": 14963,
    "expecting": 7525,
    "mem@@": 5218,
    "ome": 10336,
    "tam": 13322,
    "nud@@": 12113,
    "TEN@@": 11439,
    "tongue": 6343,
    "Frid@@": 12719,
    "ATE": 7571,
    "hel@@": 2895,
    "pru@@": 13043,
    "terminal": 8546,
    "lese": 12892,
    "r": 699,
    "baili@@": 11567,
    "jection": 6694,
    "ken": 6528,
    "phen@@": 5041,
    "obran@@": 14431,
    "@@": 15154,
    "ired": 6354,
    "wore": 5770,
    "anna": 6955,
    "games": 5372,
    "yours": 1925,
    "consultation": 3472,
    "ant@@": 1418,
    "----@@": 10053,
    "dirty": 5329,
    "vision": 4463,
    "situation": 851,
    "抳@@": 15292,
    "牵@@": 15705,
    "CI": 6848,
    "忽@@": 15735,
    "enough": 557,
    "supposed": 1489,
    "⎪@@": 15254,
    "used": 239,
    "thered": 9423,
    "zt@@": 13066,
    "@@": 15414,
    "goals": 8627,
    "surviv@@": 4825,
    "@@": 15418,
    "Intel@@": 9384,
    "becomes": 4854,
    "died": 1538,
    "Ma": 9573,
    "exp@@": 5436,
    "memories": 7311,
    "differ@@": 5188,
    "green": 2724,
    "present@@": 9785,
    "Arthur": 6839,
    "tit@@": 4416,
    "Jimmy": 4995,
    "com": 9150,
    "NE@@": 6003,
    "German": 2234,
    "again": 321,
    "桜": 15716,
    "sort": 1994,
    "Moh@@": 10657,
    "nap@@": 6971,
    "attitude": 9144,
    "ni@@": 1101,
    "Tru@@": 4856,
    "operational": 2226,
    "short": 1476,
    "ge": 585,
    "Sa@@": 3677,
    "bered": 11017,
    "berg": 7314,
    "transposition": 9440,
    "goods": 886,
    "ase": 2336,
    "ა@@": 15526,
    "sons": 4059,
    "ˑ@@": 15579,
    "riage": 11524,
    "dating": 5032,
    "introdu@@": 10634,
    "ons": 1525,
    "ī": 14869,
    "wished": 9008,
    "thank": 1714,
    "processing": 1382,
    "purpose": 918,
    "hungry": 4849,
    "Elizab@@": 13852,
    "rel": 6045,
    "operated": 4989,
    "insolvency": 4532,
    "O@@": 332,
    "door@@": 7249,
    "Robin": 9560,
    "El": 9812,
    "mar": 8377,
    "Zam@@": 12620,
    "real": 670,
    "ot@@": 1077,
    "cris@@": 11683,
    "ating": 428,
    "meth@@": 5631,
    "fro@@": 4497,
    "Guess": 7151,
    "hello": 6952,
    "kou@@": 12672,
    "Kate": 6453,
    "É": 12395,
    "take": 167,
    "tions": 837,
    "when": 143,
    "celebr@@": 5624,
    "paral@@": 12468,
    "settle": 6307,
    "ϕ": 15950,
    "orem": 12463,
    "disp@@": 13079,
    "ruce": 13410,
    "0@@": 15,
    "cool": 2181,
    "strengthen": 5118,
    "vers": 10675,
    "teams": 9261,
    "Network": 3112,
    "Teva": 11137,
    "vin@@": 6079,
    "@@": 15059,
    "coal": 8000,
    "Everyone": 3442,
    "term": 861,
    "entry": 1227,
    "TAC": 10188,
    "absor@@": 4828,
    "main@@": 10536,
    "@@": 15345,
    "light@@": 8578,
    "Mil@@": 3091,
    "Na@@": 3363,
    "s.": 9751,
    "Miller": 10403,
    "Flu@@": 10979,
    "euroz@@": 12259,
    "prescribed": 4817,
    "claim@@": 9176,
    "Ů": 15034,
    "Additional": 6195,
    "chap@@": 10422,
    "reliable": 5901,
    "doubts": 6294,
    "penalties": 5864,
    "ECB": 3576,
    "net": 1973,
    "low": 847,
    "exist": 2907,
    "evid@@": 7526,
    "⎪": 14606,
    "？": 15407,
    "Jen@@": 8394,
    "il@@": 550,
    "against": 409,
    "okam@@": 14273,
    "till": 2738,
    "shar@@": 6106,
    "fik@@": 13783,
    "Aud@@": 6041,
    "discipl@@": 5704,
    "inspection": 3098,
    "手@@": 15463,
    "ni": 6740,
    "lud@@": 11396,
    "designation": 4468,
    "carb@@": 11323,
    "base": 2324,
    "akut@@": 14124,
    "閑@@": 15445,
    "LOV@@": 12525,
    "ő@@": 12661,
    "sides": 3602,
    "SS": 8249,
    "erate": 10231,
    "Red": 4272,
    "≤@@": 13058,
    "isk@@": 10082,
    "alie": 11068,
    "¸": 15167,
    "な@@": 15803,
    "Maxim@@": 12537,
    "heard": 668,
    "icing": 4575,
    "ч": 13634,
    "clause": 5847,
    "group": 884,
    "stvo@@": 14543,
    "劉": 15769,
    "Table": 2827,
    "Pleas": 8764,
    "alive": 1766,
    "We'il": 4165,
    "Alexand@@": 12047,
    "FEU": 13091,
    "rty": 10196,
    "jd@@": 13446,
    "Guine@@": 10999,
    "ai": 1380,
    "mu": 12654,
    "dissemination": 8775,
    "marine": 5933,
    "Do@@": 2201,
    "oč@@": 13874,
    "ili@@": 3075,
    "Yu@@": 7898,
    "spectrum": 9123,
    "Parliam@@": 10828,
    "pir@@": 6826,
    "ia": 539,
    "collateral": 9594,
    "Wat@@": 5882,
    "Proto@@": 11795,
    "code": 1594,
    "associated": 1870,
    "trends": 9495,
    "told": 413,
    "Bes@@": 11689,
    "pion@@": 9807,
    "veterinary": 5158,
    "strateg@@": 12309,
    "sme": 12761,
    "toto": 14178,
    "emo@@": 4835,
    "Icel@@": 11085,
    "fool": 4660,
    "parliam@@": 7675,
    "eda": 10921,
    "COMMUNITIES": 7475,
    "figuration": 11239,
    "lectual": 12350,
    "realized": 3870,
    "deadlines": 7714,
    "ferred": 7705,
    "jum@@": 8132,
    "Invest@@": 7902,
    "jednat": 14908,
    "huge": 3556,
    "@@": 14790,
    "fighting": 3236,
    "enjo@@": 6811,
    "\"": 29,
    "deliver": 4984,
    "kr@@": 12272,
    "undertake": 7390,
    "therapy": 2754,
    "observed": 2067,
    "JE@@": 13354,
    "ce": 1004,
    "Vil@@": 10926,
    "testy": 13745,
    "ded@@": 11807,
    "jmen@@": 14604,
    "allo@@": 9103,
    "financing": 1604,
    "deliv@@": 9873,
    "alities": 5202,
    "▐": 12297,
    "erou": 14423,
    "谢": 15450,
    "Lex": 5860,
    "details": 2567,
    "Modi@@": 8027,
    "oto@@": 11959,
    "ráž@@": 14811,
    "duty": 1245,
    "beneath": 5889,
    "west": 3122,
    "rou": 13042,
    "Gol@@": 6285,
    "uration": 11821,
    "epid@@": 10276,
    "Vez@@": 14680,
    "Le@@": 1750,
    "dice": 12240,
    "lawyer": 2405,
    "ente": 11972,
    "rizi@@": 13637,
    "kab@@": 12837,
    "propo@@": 12886,
    "I‑@@": 6638,
    "Brit@@": 7079,
    "oils": 7346,
    "safeguard": 7176,
    "roli": 14283,
    "self": 2081,
    "anci@@": 10474,
    "rectly": 11845,
    "mix": 8085,
    "behaviour": 5958,
    "Span@@": 12333,
    "BV": 11240,
    "ch": 490,
    "hil@@": 9866,
    "pon": 7480,
    "country": 541,
    "teacher": 5695,
    "urgent": 6226,
    "Ano@@": 12959,
    "enh@@": 11927,
    "abon@@": 13589,
    "♭": 15491,
    "spi@@": 6401,
    "focus": 3171,
    "‖": 15062,
    "ply@@": 12289,
    "agent": 3028,
    "pol": 11761,
    "hund@@": 12731,
    "faith": 4907,
    "bast@@": 9946,
    "animal": 1479,
    "about": 91,
    "Step": 8843,
    "belong": 5769,
    "cou@@": 2103,
    "zer@@": 11450,
    "cles": 6174,
    "Bez": 14612,
    "perfect": 2433,
    "ere": 4381,
    "ays": 6717,
    "occurred": 3294,
    "Frankie": 11100,
    "produkt": 14840,
    "ghty": 10774,
    "chov@@": 13101,
    "many": 576,
    "év@@": 14075,
    "ï": 12384,
    "class@@": 9312,
    "Joseph": 10528,
    "kmen@@": 13186,
    "pl@@": 2029,
    "mak@@": 4563,
    ".ht@@": 12048,
    "dried": 7673,
    "inclusion": 4451,
    "ya": 2086,
    "hod@@": 11064,
    "Anton@@": 10505,
    "Arth@@": 13174,
    "Я": 15391,
    "Ná@@": 13513,
    "EMEN@@": 6213,
    "dynam@@": 6643,
    "밥": 15633,
    "roub@@": 13193,
    "minimis": 11109,
    "method": 1829,
    "trial": 2792,
    "Duration": 7662,
    "physical": 2828,
    "Ѕ": 15949,
    "Will": 1726,
    "Α@@": 12744,
    "Ran@@": 7048,
    "amount": 528,
    "א@@": 15385,
    "Lid@@": 12450,
    "foreign": 2184,
    "Over": 3898,
    "inside": 1140,
    "dominant": 7450,
    "asing": 3339,
    "nearly": 3938,
    "determin@@": 8237,
    "dese@@": 13630,
    "abandoned": 8556,
    "pound": 6155,
    "honour": 8919,
    "licences": 3933,
    "grow": 4244,
    "vá@@": 13080,
    "point@@": 10236,
    "sters": 4019,
    "areas": 960,
    "Staff": 3185,
    "icks": 2900,
    "ˇ@@": 15187,
    "buying": 7025,
    "diameter": 9245,
    "promoting": 4716,
    "PC@@": 8365,
    "aspe@@": 14156,
    "ility": 4470,
    "King": 2976,
    "Prez@@": 13904,
    "cky": 11446,
    "sur@@": 1343,
    "requirements": 506,
    "bridge": 3840,
    "sled@@": 12668,
    "θ@@": 13367,
    "ג@@": 15384,
    "Team": 10081,
    "power@@": 11079,
    "Dani@@": 11193,
    "banky": 14883,
    "Nobody": 2951,
    "zt": 13574,
    "composed": 6788,
    "defici@@": 7682,
    "nou@@": 12187,
    "hypo@@": 6550,
    "SE": 4017,
    "Terry": 10624,
    "TA@@": 3441,
    "umul@@": 9732,
    "proven": 8663,
    "eu@@": 3559,
    "nor": 1682,
    "Fil@@": 7488,
    "belongs": 7014,
    "Prov@@": 3323,
    "Colle@@": 6553,
    "defense": 7350,
    "uh": 1027,
    "bite": 7854,
    "thy": 2429,
    "THEM@@": 13551,
    "process@@": 9484,
    "mou": 14084,
    "ATA": 11605,
    "Gee": 10846,
    "holes": 8877,
    "kari@@": 14296,
    "OS": 11036,
    "rism": 12740,
    "grade": 3860,
    "profes@@": 13372,
    "event": 1237,
    "orig@@": 11841,
    "ideas": 5381,
    "prog@@": 12771,
    "bomb": 5474,
    "economic": 584,
    "stran@@": 5160,
    "ر@@": 15378,
    "Ű": 15165,
    "vital": 7751,
    "Bobby": 5982,
    "MA@@": 4390,
    "fat": 2926,
    "utions": 8441,
    "efficacy": 5458,
    "Hear@@": 7411,
    "Maur@@": 10038,
    "vina": 14227,
    "Shel@@": 6374,
    "len": 5252,
    "OV@@": 10409,
    "whis@@": 6216,
    "sny": 14373,
    "ل@@": 15096,
    "farm@@": 11156,
    "poh@@": 14591,
    "la": 1385,
    "ゅ@@": 15799,
    "poison@@": 9347,
    "Earl": 10066,
    "NE": 11594,
    "mune": 8684,
    "slov": 14556,
    "tru": 14854,
    "dum": 9697,
    ".m@@": 12317,
    "chal@@": 11634,
    "\\": 11990,
    "justi@@": 9019,
    "Communities": 2677,
    "deposit": 7686,
    "eur": 9881,
    "generated": 7064,
    "remed@@": 10091,
    "SS@@": 9973,
    "hibit@@": 7481,
    "rem": 12181,
    "communications": 3235,
    "mic": 9809,
    "recommendations": 3152,
    "æ": 13597,
    "prud@@": 7986,
    "…": 988,
    "B@@": 177,
    "ෙ@@": 15896,
    "sni@@": 7856,
    "pressive": 7290,
    "war": 1582,
    "ins": 758,
    "patch": 5924,
    "IPA": 8432,
    "fucking": 955,
    "una": 11764,
    "óz@@": 13832,
    "else@@": 12944,
    "approve": 8325,
    "artic@@": 11326,
    "ร": 15882,
    "Oliver": 10190,
    "inated": 8221,
    "invitation": 4590,
    "dying": 4295,
    "ble": 1388,
    "ét@@": 12716,
    "influen@@": 10043,
    "β@@": 12592,
    "ounts": 11931,
    "cute": 5581,
    "学": 15754,
    "measured": 4055,
    "itude": 7924,
    "function": 1904,
    "funk@@": 13535,
    "h": 629,
    "hundreds": 8443,
    "ocen@@": 13584,
    "resid@@": 2473,
    "lined": 4146,
    "transit": 6761,
    "plat@@": 4073,
    "ξ@@": 13600,
    "Respon@@": 9449,
    "ague": 3879,
    "width": 7797,
    "rying": 3965,
    "recog@@": 13625,
    "Chla@@": 13730,
    "ン@@": 15783,
    "gained": 8856,
    "vel@@": 3741,
    "top": 1448,
    "Dá@@": 13456,
    "HIV": 9908,
    "Bo@@": 1296,
    "god": 3907,
    "D": 713,
    "trials": 4845,
    "vel": 8797,
    "itors": 6173,
    "Dí@@": 13453,
    "thin'": 7957,
    "Pit@@": 9932,
    "Bus@@": 8976,
    "sed": 787,
    "stup": 14529,
    "Taking": 3462,
    "slouch@@": 13964,
    "rules": 372,
    "surface": 2882,
    "ouring": 8912,
    "guilty": 5756,
    "ween": 7444,
    "bon": 9963,
    "stro@@": 5660,
    "aby": 12469,
    "ier": 5837,
    "ption": 5093,
    "during": 485,
    "ues": 4330,
    "kg": 1656,
    "fisher@@": 11383,
    "functions": 3853,
    "ghts": 5892,
    "sweetie": 8636,
    "refuse": 5058,
    "Ve@@": 6749,
    "calm": 4202,
    "Б": 15573,
    "passing": 5453,
    "grace": 9480,
    "their": 122,
    "stimul@@": 6259,
    "BELGI@@": 10504,
    "red@@": 4853,
    "detailed": 2080,
    "examine": 3695,
    "ants": 1445,
    "along": 1257,
    "feed": 2712,
    "dub@@": 12817,
    "togra@@": 9871,
    "hry": 14147,
    "shou@@": 10421,
    "izon": 7846,
    "producent@@": 14764,
    "enemy": 4112,
    "Ⅼ@@": 15297,
    "choc@@": 12624,
    "Nest@@": 12531,
    "crash": 7985,
    "Hello": 914,
    "cover": 834,
    "sert": 5698,
    "أ@@": 15930,
    "trest@@": 13805,
    "Grant": 9332,
    "nej@@": 14514,
    "lab@@": 11041,
    "collected": 4574,
    "shoulder": 4369,
    "mise": 11793,
    "relates": 6356,
    "that": 16,
    "raw": 3647,
    "@@": 15212,
    "crew": 3078,
    "evaluation": 1915,
    "Toh@@": 13949,
    "sectors": 2418,
    "ﾀ@@": 15609,
    "eters": 11878,
    "tar@@": 5721,
    "exist@@": 11954,
    "žd@@": 14527,
    "benefici@@": 13215,
    "principal": 4802,
    "Americans": 8774,
    "Molly": 10595,
    "deleg@@": 7995,
    "are": 39,
    "G.": 9576,
    "obtain": 2307,
    "Mama": 6764,
    "relig@@": 9403,
    "train": 2823,
    "approximately": 3406,
    "maintained": 4492,
    "aglipt@@": 11091,
    "IC@@": 1528,
    "isk": 6538,
    "pick": 2406,
    "Gri@@": 7871,
    "photos": 9005,
    "ine@@": 2936,
    "n": 414,
    "valo": 14338,
    "ration": 4227,
    "hor@@": 1954,
    "raj@@": 13948,
    "lucky": 3076,
    "trading": 4516,
    "Euro": 7947,
    "sest@@": 13489,
    "consolidated": 7595,
    "Pursuant": 5870,
    "rare": 4684,
    "compon@@": 13394,
    "Sou@@": 7292,
    "Chang@@": 9894,
    "hormon@@": 11677,
    "ma": 1550,
    "op@@": 702,
    "Organisation": 3328,
    "appy": 12158,
    "icked": 5470,
    "reflected": 7247,
    "Ü": 13287,
    "iska": 13173,
    "gentle@@": 12995,
    "ÉM@@": 14650,
    "": 14671,
    "includes": 2394,
    "lo": 2854,
    "comfor@@": 10502,
    "": 13962,
    "In": 116,
    "serious": 1199,
    "pling": 8225,
    "Consequently": 3887,
    "∫": 14524,
    "Max@@": 11448,
    "hen@@": 8540,
    "的": 15703,
    "suffered": 4723,
    "S@@": 157,
    "hit": 1439,
    "kad@@": 13139,
    "candid@@": 12500,
    "Introdu@@": 9406,
    "mor@@": 2657,
    "EGTC": 9271,
    "sage": 7293,
    "cess": 8431,
    "čin@@": 14291,
    "brace": 10682,
    "Glen@@": 11493,
    "Bi@@": 3383,
    "justified": 2978,
    "systemic": 9157,
    "ME@@": 8990,
    "iser": 9671,
    "prosecution": 9216,
    "": 15082,
    "drž@@": 14783,
    "Joint": 1951,
    "wire": 6572,
    "creating": 4911,
    "sho@@": 3919,
    "@@": 14588,
    "Gab@@": 10680,
    "tariff": 4199,
    "elo@@": 10654,
    "format": 4032,
    "waters": 3657,
    "ick@@": 1531,
    "hru": 14286,
    "Cham@@": 7678,
    "Tribunal": 6141,
    "ӱ": 15571,
    "bi@@": 1740,
    "student": 6710,
    "Kru@@": 12060,
    "ratic": 10064,
    "ʼ": 14984,
    "Sparhawk": 10478,
    "In@@": 604,
    "tenders": 6655,
    "Bon@@": 6164,
    "lets": 3397,
    "Ireland": 3005,
    "Smi@@": 11464,
    "liv": 14198,
    "ad@@": 390,
    "Carl": 8589,
    "mi": 9835,
    "I.": 2889,
    "aside": 4379,
    "ord": 5135,
    "voluntary": 5833,
    "stabil@@": 13990,
    "rubber": 7841,
    "lips": 4624,
    "POD@@": 13876,
    "rix": 9888,
    "Jacob": 9911,
    "integrated": 3531,
    "Plus": 7938,
    "ioned": 9474,
    "copies": 6314,
    "cu@@": 1708,
    "grant": 1751,
    "priorities": 4074,
    "anch@@": 9730,
    "": 15246,
    "ne": 1241,
    "armed": 4460,
    "Child": 10255,
    "ly": 369,
    "aku@@": 12670,
    "maturity": 9367,
    "increasingly": 8767,
    "ted": 379,
    "Working": 6448,
    "bleeding": 5900,
    "kost@@": 14072,
    "irt": 10881,
    "remuneration": 4796,
    "break": 1613,
    "Pre@@": 1862,
    "market": 284,
    "jail": 5205,
    "fight": 1347,
    "Sept@@": 13830,
    "reputation": 7110,
    "different": 515,
    "doba": 14151,
    "items": 2836,
    "theory": 6241,
    "made": 210,
    "shadows": 8935,
    "Cz@@": 11995,
    "Ý": 13984,
    "ale": 1661,
    "Ÿ@@": 15145,
    "Authority": 1924,
    "assembly": 8641,
    "Μ@@": 13350,
    "mes": 2440,
    "Й@@": 15266,
    "Kr@@": 12428,
    "Al": 5920,
    "ि@@": 15543,
    "largement": 8557,
    "returning": 9521,
    "ionally": 3864,
    "imped@@": 9192,
    "rch@@": 14609,
    "ion/@@": 13168,
    "proportionality": 5429,
    "allow@@": 11909,
    "Ge@@": 4431,
    "F@@": 181,
    "aly@@": 7183,
    "Wiz@@": 9802,
    "sanctions": 7633,
    "Den": 12895,
    "Phar@@": 10720,
    "proper@@": 12800,
    "gu": 12558,
    "zlo@@": 13152,
    "lik@@": 11724,
    "Ă": 14160,
    ",5": 7970,
    "ì": 13619,
    "-@@": 306,
    "exer@@": 7849,
    "exposures": 8052,
    "assess": 3176,
    "anne": 10729,
    "ght": 5576,
    "ide": 1168,
    "Θ": 15005,
    "stran": 12765,
    "К": 15065,
    "ined": 1590,
    "read": 1006,
    "stating": 8002,
    "cell": 2585,
    "unfair": 7903,
    "conversation": 4611,
    "mus": 12248,
    "［@@": 15612,
    "emphas@@": 5102,
    "values": 1783,
    "liday": 12498,
    "loud": 6347,
    "tich@@": 13071,
    "ribu@@": 13547,
    "buch@@": 13349,
    "permanent": 3732,
    "therein": 6630,
    "Hungarian": 9614,
    "Would": 1745,
    "ssing": 5499,
    "Tax@@": 10165,
    "razy": 11313,
    "somehow": 5311,
    "essence": 8565,
    "Tar@@": 4347,
    "officer": 2616,
    "⁭": 15038,
    "Sol@@": 4020,
    "de": 707,
    "ctors": 5742,
    "flowers": 6217,
    "Know": 8610,
    "Are": 433,
    "pink": 9429,
    "/index@@": 11252,
    "ª@@": 13963,
    "Ū@@": 14496,
    "think": 144,
    "": 13342,
    "gare@@": 13626,
    "offer": 2055,
    "exten@@": 10740,
    "inov@@": 13662,
    "L.@@": 9078,
    "odbor@@": 14584,
    "kup@@": 13748,
    "message": 2025,
    "seem": 1990,
    "iv@@": 1997,
    "advised": 8687,
    "General": 595,
    "shrugged": 8271,
    "sample": 2504,
    "vis": 4588,
    "awful": 5977,
    "convic@@": 6514,
    "Figure": 8387,
    "audience": 9024,
    "nut": 9362,
    "staring": 6065,
    "gun@@": 6963,
    "Prepar@@": 9696,
    "bearing": 5076,
    "ˮ@@": 15323,
    "Energy": 4195,
    "odi@@": 5736,
    "'d": 196,
    "Ali@@": 7862,
    "Almost": 7759,
    "utes": 3020,
    "áp@@": 13866,
    "To@@": 1908,
    "М@@": 13877,
    "statements": 3642,
    "help@@": 9539,
    "introduce": 4836,
    "smo@@": 4670,
    "...": 31,
    "exceeded": 8522,
    "Thi@@": 9952,
    "gentlemen": 3616,
    "owner": 4586,
    "Norm@@": 11815,
    "@@": 15410,
    "tax@@": 7824,
    "emergency": 2973,
    "Bat@@": 7194,
    "expenses": 3319,
    "or": 36,
    "clean": 2494,
    "definitions": 7728,
    "处": 15761,
    "Officer": 5265,
    "greenhouse": 8436,
    "Ther@@": 8342,
    "ety": 4450,
    "assessment": 797,
    "ь@@": 14398,
    "Ban@@": 5021,
    "one": 76,
    "mad": 2968,
    "ever@@": 8671,
    "思@@": 15734,
    "invite": 7276,
    "化@@": 15767,
    "cast@@": 11853,
    "programming": 4620,
    "stam@@": 6641,
    "vala": 14732,
    "doing": 343,
    "@@": 15426,
    "ite": 1121,
    "you": 13,
    "Their": 3791,
    "Background": 7585,
    "Ukra@@": 11901,
    "rates": 1711,
    "°": 2525,
    "Thor@@": 10007,
    "dismissed": 6346,
    "visual": 7385,
    "lav@@": 11571,
    "decisions": 1287,
    "icker": 7907,
    "@@": 15056,
    "suits": 8666,
    "Audit": 10728,
    "wand@@": 9784,
    "Well": 184,
    "zl": 13966,
    "tabul@@": 13575,
    "já": 14813,
    "statutory": 6058,
    "ners": 3192,
    "recep@@": 8023,
    "lux@@": 11031,
    "tiv": 13855,
    "house": 594,
    "proposal": 1038,
    "nó@@": 14432,
    "OP@@": 4260,
    "vary": 7647,
    "impairment": 4159,
    "lad@@": 3085,
    "Fen@@": 11300,
    "s/@@": 6859,
    "raphs": 11593,
    "Check": 3957,
    "Tá@@": 14025,
    "swit@@": 6267,
    "ieve": 12698,
    "trying": 757,
    "ema@@": 9889,
    "pec": 13434,
    "She": 183,
    "method@@": 10183,
    "kla": 13970,
    "nerv@@": 9486,
    "pá@@": 13762,
    "spare": 6658,
    "leh@@": 12989,
    "brown": 6377,
    "Polish": 6831,
    "recall": 8368,
    "Γ": 15013,
    "moc": 14378,
    "fab@@": 4700,
    "update": 1957,
    "ở@@": 15854,
    "mie": 11872,
    "mbo@@": 8659,
    "democ@@": 12117,
    "packed": 8914,
    "Publi@@": 11056,
    "errors": 5829,
    "cutan@@": 12253,
    "admissibility": 9226,
    "Ah": 2008,
    "resear@@": 8252,
    "ῦ@@": 15846,
    "sive": 1860,
    "@@": 14635,
    "minal": 7872,
    "evaluated": 6272,
    "wants": 1119,
    "li": 4665,
    "inc@@": 1442,
    "lea@@": 3160,
    "HO": 11210,
    "Dor@@": 8703,
    "rý@@": 14392,
    "ation": 191,
    "refer": 3763,
    "finance": 3915,
    "peror": 8069,
    "$@@": 11928,
    "Laura": 10516,
    "nah": 11414,
    "VY@@": 14058,
    "CO": 5343,
    "tic": 1366,
    "PR@@": 4641,
    "ก": 15893,
    "document": 1035,
    "ind@@": 5217,
    "loss": 1879,
    "ි@@": 15370,
    "value": 573,
    "Oblast": 13861,
    "Germany": 1606,
    "wat@@": 6199,
    "chip@@": 10106,
    "ativ@@": 6568,
    "ࠅ@@": 15912,
    "AC": 7016,
    "urement": 12208,
    "identifying": 8012,
    "About": 2787,
    "framework": 1001,
    "bag": 2758,
    "place": 280,
    "administered": 3579,
    "Therefore": 1964,
    "Commission@@": 10869,
    "Jam@@": 7497,
    "jim": 13062,
    "commit@@": 11339,
    "econ@@": 11496,
    "Đ@@": 15006,
    "original": 2151,
    "cam@@": 3371,
    "incl@@": 10309,
    "Lichten@@": 13205,
    "gently": 9004,
    "Which": 1358,
    "Fili@@": 12364,
    "fashion": 8403,
    "术@@": 15718,
    "gradu@@": 3800,
    "rece@@": 14557,
    "Chem@@": 7819,
    "ments": 928,
    "": 15984,
    "Keep": 2032,
    "aft": 8139,
    "wall": 2170,
    "impact": 1164,
    "Gla@@": 9369,
    "transparent@@": 14717,
    "amoun@@": 8193,
    "Regulations": 2361,
    "˛": 15959,
    "Mainten@@": 13439,
    "container": 8334,
    "‑@@": 3067,
    "threshold": 5512,
    "šk@@": 13145,
    "humanit@@": 10058,
    "wise": 4442,
    "id@@": 630,
    "amat@@": 11554,
    "improve": 2187,
    "lings": 7715,
    "fresh": 3039,
    "≤": 10540,
    "Ano": 14775,
    "em@@": 676,
    "boj@@": 14135,
    "Sit": 4554,
    "PO@@": 3288,
    "company": 655,
    "Anna": 7368,
    "Dobr@@": 14054,
    "immun@@": 7283,
    "analysed": 9185,
    "hub@@": 12111,
    "о": 13788,
    "skal@@": 14031,
    "Compet@@": 6268,
    "acquired": 4994,
    "sko@@": 12941,
    "sses": 5233,
    "extrem@@": 12519,
    "guaran@@": 14447,
    "ESF": 5965,
    "ー": 15483,
    "six": 1127,
    "field": 902,
    "rele@@": 11762,
    "struck": 6427,
    "satellite": 7625,
    "noc": 14939,
    "employed": 4373,
    "Cha@@": 4806,
    "asu": 13135,
    "inions": 11842,
    "Hod@@": 11687,
    "lete": 11366,
    "Ǻ@@": 15400,
    "ournal": 11382,
    "der@@": 2160,
    "consulting": 8032,
    "comprehen@@": 11989,
    "itá": 14534,
    "amer@@": 11961,
    "birth@@": 11981,
    "rant": 10193,
    "Vero@@": 11184,
    "י@@": 14995,
    "ン": 15784,
    "prices": 1170,
    "ơ@@": 15330,
    "anian": 7456,
    "Reporting": 8166,
    "ٌ@@": 15921,
    "д@@": 13578,
    "committees": 9345,
    "difficul@@": 13420,
    "Bay@@": 9931,
    "crops": 8363,
    "akt": 14425,
    "zan@@": 11760,
    "u": 1322,
    "longer": 1055,
    "⅔": 15838,
    "over@@": 703,
    "Sud@@": 7366,
    "inal": 2481,
    "offic@@": 11487,
    "tac@@": 4121,
    "rule": 1450,
    "contracts": 1791,
    "seda": 13789,
    "蘭": 15676,
    "edon@@": 10228,
    "reimbursement": 7310,
    "Mol@@": 8727,
    "": 15405,
    "閏@@": 15654,
    "7": 117,
    "Mlad@@": 13781,
    "chil@@": 6107,
    "dom": 4711,
    "žen@@": 14081,
    "new": 237,
    "requesting": 7513,
    "É@@": 10093,
    "plus": 2940,
    "ktor": 11997,
    "Era@@": 10997,
    "ond": 6451,
    "robi@@": 11754,
    "zmá@@": 14809,
    "fon@@": 7099,
    "rum": 11072,
    "_en@@": 10761,
    "elec": 14080,
    "ths": 2447,
    "defend": 7822,
    "tre@@": 1842,
    "soud@@": 14797,
    "demand": 2894,
    "青@@": 15650,
    "aw@@": 1972,
    "posures": 13095,
    "bet@@": 4481,
    "elds": 9098,
    "one@@": 6478,
    "arity": 3875,
    "til": 11527,
    "party": 561,
    "roc@@": 9540,
    "Sig@@": 5820,
    "zis@@": 13576,
    "proud": 3878,
    "spal@@": 14293,
    "ux": 10137,
    "rist": 6002,
    "d": 396,
    "alu": 13159,
    "inafter": 13706,
    "means": 416,
    "晚@@": 15720,
    "芒@@": 15681,
    "Courts": 7302,
    "จ@@": 15891,
    "Cmax": 10842,
    "ping": 1433,
    "∏@@": 15832,
    "states": 2373,
    "∆@@": 15223,
    "flesh": 6344,
    "Sku@@": 14351,
    "ider": 6927,
    "": 15624,
    "stayed": 5784,
    "Т": 15142,
    "kist@@": 14016,
    "deli@@": 11973,
    "pry@@": 13054,
    "gathered": 8119,
    "dostat@@": 14394,
    "remember": 833,
    "dim@@": 6684,
    "monthly": 7991,
    "Grand": 6778,
    "kol@@": 12986,
    "rt@@": 3730,
    "eck": 9065,
    "tob@@": 12367,
    "increasing": 3545,
    "ař@@": 14667,
    "presentation": 4973,
    "collect": 6735,
    "list": 763,
    "Gentlemen": 8579,
    "秘@@": 15699,
    "中": 15778,
    "ina": 1663,
    "Requi@@": 7022,
    "DEC@@": 10948,
    "hereby": 3859,
    "sam@@": 9034,
    "ћ@@": 15387,
    "nová": 13868,
    "ر": 15379,
    "ný": 13280,
    "Professor": 6238,
    "pup@@": 7102,
    "Full": 9218,
    "choro@@": 14658,
    "ring": 1611,
    "brings": 6533,
    "bar@@": 1465,
    "@@": 14408,
    "ata": 6898,
    "kas@@": 12736,
    "Things": 7202,
    "grew": 5143,
    "Rob@@": 6969,
    "oty@@": 11209,
    "lodged": 3387,
    "lus@@": 10960,
    "Cest@@": 14100,
    "tially": 13090,
    "Vo@@": 5443,
    "picking": 8491,
    "definitely": 4056,
    "your@@": 11011,
    "α@@": 11627,
    "pat@@": 2252,
    "@@": 14278,
    "iry": 6976,
    "mirror": 7499,
    "oup@@": 10840,
    "gen@@": 1360,
    "Tw@@": 10257,
    "Maintenance": 3852,
    "ups": 6030,
    "IF@@": 4419,
    "ה@@": 15565,
    "ɛ@@": 15581,
    "doses": 4328,
    "‘@@": 12006,
    "acid": 2956,
    "confer@@": 8576,
    "engaged": 4992,
    "Amer@@": 12230,
    "property": 1277,
    "Son@@": 8464,
    "super": 7937,
    "恶@@": 15733,
    "zu": 12373,
    "feature": 8482,
    "nit@@": 2722,
    "Civ@@": 11851,
    "dar@@": 5022,
    "yc@@": 4566,
    "Proced@@": 10880,
    "lia": 9818,
    "dod@@": 11437,
    "understanding": 3959,
    "ran@@": 1076,
    "jen": 13244,
    "sist": 6011,
    "blin@@": 7623,
    "sen": 2845,
    "sklad@@": 14900,
    "Blo@@": 9059,
    "sale": 2332,
    "Huh": 4182,
    "û@@": 13038,
    "fying": 1796,
    "spod@@": 13926,
    "non@@": 3865,
    "ean": 11957,
    "Drž@@": 14682,
    "dialogue": 4666,
    "lová": 14251,
    "tí@@": 12943,
    "民": 15713,
    "may@@": 7950,
    "ω@@": 13178,
    "sil": 12900,
    "reds": 11907,
    "@@": 15621,
    "Chamber": 3877,
    "tent@@": 10534,
    "manufactur@@": 13204,
    "transactions": 2284,
    "rin": 10222,
    "intelligence": 6544,
    "quest": 7755,
    "nic@@": 3896,
    "(1)(a": 8251,
    "Caro@@": 11435,
    "laid": 746,
    "Poh@@": 13450,
    "Western": 8277,
    "placing": 4261,
    "song": 4090,
    "chal": 12931,
    "combined": 4417,
    "utors": 7098,
    "Instal@@": 10072,
    "ban@@": 1773,
    "AB": 10436,
    "nu@@": 3309,
    "@@": 15280,
    "Employment": 5155,
    "enhan@@": 11755,
    "polu": 14294,
    "DH@@": 11302,
    "bli@@": 8602,
    "WTO": 8499,
    "annex": 7342,
    "compared": 2266,
    "sever@@": 5972,
    "ligent": 8160,
    "far": 612,
    "wet": 5730,
    "signific@@": 13549,
    "seed": 6069,
    "mann": 9506,
    "explod@@": 10736,
    "igh": 8615,
    "Kel@@": 9493,
    "sv@@": 9412,
    "Everybody": 3624,
    "movie": 3765,
    "EX@@": 3436,
    "Chi@@": 6154,
    "falling": 2897,
    "wards": 3136,
    "commander": 8194,
    "omez@@": 14239,
    "dissemin@@": 10545,
    "Hi": 999,
    "pro@@": 462,
    "‴": 15514,
    "disaster": 7895,
    "ress": 5094,
    "icity": 7353,
    "sud": 14255,
    "care": 646,
    "indi@@": 8692,
    "ĳ@@": 15402,
    "establish": 1863,
    "Zlat@@": 13818,
    "usil@@": 14030,
    "ous@@": 8098,
    "restruct@@": 12718,
    "ill": 1268,
    "UC@@": 4844,
    "ský": 12226,
    "arities": 11682,
    "vou@@": 11579,
    "oret@@": 10509,
    "suspended": 5955,
    "programmes": 1120,
    "counted": 8994,
    "server@@": 13083,
    "clinical": 2207,
    "ision": 5648,
    "ree": 5213,
    "Jer@@": 10275,
    "other": 114,
    "properties": 4813,
    "solid": 5259,
    "ie": 1089,
    "kne": 14829,
    "Aid": 2837,
    ".’": 1920,
    "≈@@": 15157,
    "Derek": 10695,
    "reporting": 2275,
    "power": 735,
    "": 15337,
    "vy@@": 11246,
    "windows": 6148,
    "URE": 6243,
    "revenues": 9522,
    "crying": 6772,
    "doz@@": 12295,
    "paint": 7135,
    "Monday": 7750,
    "depends": 5200,
    "Mid@@": 5992,
    "story": 1403,
    "environment@@": 10947,
    "corresponding": 2485,
    "Evaluation": 6854,
    "scrip@@": 10319,
    "page": 2149,
    "manual": 9355,
    "thanks": 2607,
    "Ň@@": 15028,
    "gging": 3603,
    "Forget": 5551,
    "ff@@": 1427,
    "Zad@@": 13251,
    "sieur": 10361,
    "chment": 11430,
    "villa@@": 9989,
    "▁": 15222,
    "ECR": 2688,
    "titles": 8587,
    "tery": 4495,
    "dumped": 5306,
    "lite": 11844,
    "install@@": 13301,
    "KOM": 14209,
    "Ь": 15185,
    "natural": 1306,
    "prod@@": 12743,
    "ulu": 11854,
    "smus": 11745,
    "nul@@": 8741,
    "NP@@": 11775,
    "what": 72,
    "taxation": 4964,
    "ﬂ@@": 12939,
    "supports": 5794,
    "Organ@@": 7191,
    "clo@@": 1677,
    "beyond": 1881,
    "freez@@": 11650,
    "ct": 1608,
    "tren@@": 12040,
    "ches": 1406,
    "volunte@@": 6560,
    "men@@": 3123,
    "个": 15779,
    "Enterprise": 8019,
    "Smith": 7295,
    "◦": 15124,
    "ys": 1095,
    "Nav@@": 5640,
    "Je@@": 2796,
    "µ": 14981,
    "TEN": 11434,
    "ř@@": 12621,
    "Ann": 10955,
    "pretend": 7278,
    "dispute": 1825,
    "murdered": 6215,
    "devices": 3274,
    "ded": 1200,
    "nii": 14594,
    "hou": 12405,
    "addresses": 8459,
    "lem": 10109,
    "quick": 3411,
    "cle": 6664,
    "zky": 13109,
    "for@@": 809,
    "忍@@": 15736,
    "Hall": 9925,
    "struktur@@": 14043,
    "Half": 9200,
    "delivered": 3440,
    "京@@": 15478,
    "zim@@": 13247,
    "Frank": 3538,
    "sleep": 1601,
    "ace": 4080,
    "hope": 1111,
    "dows": 12967,
    "pleas@@": 11067,
    "ţ": 15239,
    "the": 5,
    "ut": 2942,
    "閟@@": 15653,
    "servations": 6627,
    "appeals": 9272,
    "standard": 1295,
    "screwed": 8320,
    "oce@@": 11699,
    "struct@@": 7057,
    "Spo@@": 8285,
    "kni": 14692,
    "vehic@@": 12424,
    "丁@@": 15782,
    "Affairs": 5447,
    "朝": 15719,
    "w": 806,
    "hlu@@": 14268,
    "ย": 15884,
    "arms": 2115,
    "shock": 6449,
    "repeated": 5651,
    "": 15090,
    "Me@@": 1880,
    "built": 3308,
    "atures": 10515,
    "sexu@@": 12074,
    "park": 5872,
    "unior": 8487,
    "capsu@@": 7200,
    "sí@@": 13659,
    "ovi": 13014,
    "ting": 440,
    "Ms.": 6606,
    "su@@": 780,
    "Protocol": 1936,
    "consisting": 6108,
    "Guidelines": 3829,
    "míst": 14940,
    "marks": 2696,
    "ipul@@": 13786,
    "The@@": 6821,
    "prevention": 4537,
    "秦": 15698,
    "under": 165,
    "stup@@": 11658,
    "CEN": 4180,
    "TAB@@": 12465,
    "West": 4798,
    "advanced": 5267,
    "ept": 11684,
    "Shall": 7477,
    "ordinary": 3492,
    "aby@@": 9502,
    "komis@@": 14970,
    "held": 958,
    "moment@@": 10531,
    "Ms": 7632,
    "defic@@": 11911,
    "Dav@@": 8207,
    "ta@@": 1413,
    "placebo": 4477,
    "variety": 5661,
    "improv@@": 14252,
    "Produ@@": 6733,
    "iew": 9858,
    "글": 15638,
    "backed": 9242,
    "listen": 1765,
    "či": 13965,
    "hyper@@": 4491,
    "will": 86,
    "Basic": 9968,
    "Ě": 14986,
    "gets": 1384,
    "mom": 1737,
    "idly": 11789,
    "complet@@": 12767,
    "pension": 3238,
    "hunting": 7332,
    "coordination": 3115,
    "mmol": 10684,
    "implications": 9205,
    "stuffs": 11535,
    "Len@@": 6933,
    "embar@@": 11152,
    "émi@@": 14254,
    "remaining": 4116,
    "ousness": 6254,
    "ề@@": 15860,
    "lad": 6794,
    "Press": 9936,
    "col@@": 1046,
    "winning": 9654,
    "bott@@": 8202,
    "grants": 3802,
    "pse": 8229,
    "": 15081,
    "audi@@": 12394,
    "5@@": 77,
    "Each": 2283,
    "抯": 14754,
    "rect": 11356,
    "For@@": 1721,
    "cuse": 12786,
    "Men": 7095,
    "tou@@": 3880,
    "OH@@": 11919,
    "Air": 4897,
    "zas": 12812,
    "ű@@": 13731,
    "applying": 2726,
    "resulting": 2534,
    "'s": 18,
    "vement": 12269,
    "Ex@@": 931,
    "Regional": 2892,
    "ER": 2944,
    "unlawful": 6646,
    "Competition": 6542,
    "title": 5577,
    "mitting": 10717,
    "him": 80,
    "lut@@": 8185,
    "Bruce": 10721,
    "finds": 4338,
    "ended": 1967,
    "poli@@": 10832,
    "buil@@": 10705,
    "Registry": 8224,
    "alised": 3378,
    "Korea": 7948,
    "ā": 13356,
    "Air@@": 6104,
    "desk": 4441,
    "graf@@": 14411,
    "xt": 12759,
    "thre@@": 9342,
    "SV@@": 12009,
    "√@@": 14620,
    "Sky@@": 10555,
    "kala": 13708,
    "ged": 1079,
    "contracting": 4674,
    "": 14076,
    "corrid@@": 11598,
    "written": 1804,
    "Paci@@": 10131,
    "tered": 1724,
    "important": 739,
    "Posa@@": 14846,
    "amaz@@": 10666,
    "gods": 7233,
    "emp@@": 4374,
    "漀@@": 15290,
    "nature": 1125,
    "Just": 404,
    "Hol@@": 2557,
    "water": 661,
    "contin@@": 9430,
    "Boy@@": 11223,
    "lap@@": 5767,
    "Calm": 8332,
    "sure": 392,
    "rob@@": 2249,
    "charac@@": 14912,
    "redit@@": 12988,
    "П@@": 14389,
    "ğ": 15335,
    "alth": 8866,
    "enz@@": 10369,
    "whoever": 7920,
    "dinner": 2280,
    "ź@@": 13774,
    "Associ@@": 11500,
    "biocid@@": 10650,
    "opat@@": 11988,
    "ing": 121,
    "promise": 2056,
    "kapit@@": 14187,
    "ona": 7148,
    "ON": 3239,
    "exercise": 1900,
    "makes": 1084,
    "asi": 11763,
    "voice": 1282,
    "twice": 3055,
    "tive": 1514,
    "uch@@": 9828,
    "health": 954,
    "get": 118,
    "Copy": 8618,
    "br@@": 1616,
    "excep@@": 11028,
    "antit@@": 12538,
    "head": 502,
    "inti@@": 7137,
    "gover@@": 7505,
    "lah": 9459,
    "ų": 13141,
    "ר": 15557,
    "kon": 10826,
    "certi@@": 9748,
    "šek": 13317,
    "authorising": 8422,
    "SA@@": 3925,
    "lights": 3694,
    "parano@@": 11130,
    "recalled": 8072,
    "||": 1688,
    "render": 6023,
    "compan@@": 8421,
    "vul@@": 9264,
    "NN": 11846,
    "þ": 13556,
    "named": 3489,
    "erial": 8076,
    "darling": 5465,
    "path": 3312,
    "trade": 759,
    "curr@@": 12069,
    "confusion": 6875,
    "standard@@": 12541,
    "DY": 12499,
    "iště": 14781,
    "other@@": 11103,
    "Ö@@": 11617,
    "ps": 1301,
    "Stro@@": 12237,
    "Josh": 10408,
    "bid@@": 5717,
    "firms": 5364,
    "Exactly": 5138,
    "gal@@": 6046,
    "much": 295,
    "н@@": 13161,
    "po": 7578,
    "DVD": 11583,
    "ר@@": 15112,
    "ron": 2374,
    "bust@@": 8373,
    "establishing": 1250,
    "ublic": 14853,
    "Fal@@": 8302,
    "expressly": 6908,
    "ére": 13973,
    "inations": 6899,
    "itly": 12070,
    "FROM": 8838,
    "haj@@": 13803,
    "governing": 3620,
    "direction": 3372,
    "arrested": 7270,
    "CFSP": 4998,
    "Kre@@": 11908,
    "icht": 12453,
    "positive": 2682,
    "PRA@@": 12082,
    "Global": 9062,
    "¯@@": 13334,
    "comparable": 4895,
    "@@": 13924,
    "Any": 1368,
    "χ": 15097,
    "performed": 3117,
    "kick": 5963,
    "ld@@": 9292,
    "liquidity": 8105,
    "Authorisation": 8601,
    "high": 619,
    "ourable": 12579,
    "reli@@": 3062,
    "d'@@": 9476,
    "pale": 7955,
    "deteri@@": 7501,
    "nica": 10818,
    "Brussels": 1293,
    "Agency": 1636,
    "estern": 10594,
    "nobody": 3050,
    "ghtly": 5612,
    "Ä@@": 13162,
    "reserves": 8885,
    "shareholders": 8138,
    "抮@@": 15727,
    "continuous": 6525,
    "www.@@": 7643,
    "refriger@@": 9376,
    "materi@@": 10092,
    "›": 12511,
    "Opinion": 4485,
    "vice": 10262,
    "Isab@@": 11178,
    "involved": 1349,
    "statistical": 4648,
    "beautiful": 1574,
    "": 14915,
    "lymp@@": 11996,
    "愀": 15465,
    "equality": 7628,
    "ED": 3844,
    "appli@@": 8077,
    "ství": 14314,
    "Nový": 14290,
    "rance": 12356,
    "increase": 1066,
    "lawful": 11253,
    "intra": 7248,
    "aled": 6982,
    "clarify": 9542,
    "skupin": 14384,
    "endo@@": 10663,
    "Commitments": 3846,
    "·@@": 13587,
    "expl@@": 5082,
    "only": 154,
    "need@@": 7349,
    "dat": 12924,
    "ele": 10974,
    "excited": 6381,
    "Latvia": 5455,
    "cellent": 9850,
    "sto": 11606,
    "atic": 3252,
    "administrative": 1088,
    "both": 441,
    "ental": 3022,
    "Finally": 3450,
    "า@@": 15306,
    "lying": 2886,
    "report": 614,
    "nin": 11565,
    "ki@@": 11360,
    "≐@@": 15361,
    "markets": 1716,
    "articles": 3447,
    "Tot@@": 11045,
    "grouping": 8571,
    "AD": 6214,
    "biggest": 6308,
    "headings": 5036,
    "blade": 8315,
    "Select": 5260,
    "Sur@@": 5152,
    "aviation": 7518,
    "els": 2205,
    "region": 2343,
    "onto": 3483,
    "oblo@@": 14377,
    "odkaz": 14780,
    "Jay": 10568,
    "compati@@": 12632,
    "经@@": 15693,
    "8@@": 98,
    "Goodbye": 6832,
    "guess": 1085,
    "Long": 5729,
    "changes": 1373,
    "her": 84,
    "facing": 6787,
    "liter@@": 5401,
    "Be@@": 1483,
    "strategie": 14899,
    "Henry": 4241,
    "Dre@@": 8974,
    "alcohol": 5278,
    "pilot@@": 13539,
    "ater": 3674,
    "Chair@@": 8952,
    "wron@@": 9033,
    "Zak@@": 11914,
    "CV@@": 10920,
    "limin@@": 11718,
    "sej@@": 14333,
    "attachment": 8583,
    "dust": 5910,
    "Queen": 5932,
    "ύ@@": 13046,
    "pot@@": 2910,
    "áv@@": 13170,
    "(3)(@@": 9548,
    "kor@@": 12484,
    "rear": 7123,
    "@@": 15132,
    "tier": 7596,
    "camera": 4658,
    "rozhodnutí": 14877,
    "iona": 11733,
    "writing": 2479,
    "barely": 5775,
    "constra@@": 7979,
    "spek@@": 14193,
    "Ħ@@": 15210,
    "ror": 5015,
    "抣@@": 15462,
    "Exam@@": 7524,
    "controls": 2952,
    "Čast@@": 14894,
    "POR@@": 9262,
    "troub@@": 7358,
    "Tem@@": 5057,
    "itious": 8932,
    "Claud@@": 11558,
    "rish": 12033,
    "amb@@": 6198,
    "Ly@@": 4915,
    "soci@@": 3998,
    "dumping@@": 14275,
    "successfully": 7680,
    "Amen": 10801,
    "ζ": 15040,
    "Here": 770,
    "history": 2448,
    "knowledge": 1820,
    "vem": 14570,
    "fisheries": 3980,
    "ount": 6309,
    "tick@@": 11630,
    "derivatives": 8750,
    "ช@@": 15890,
    "certain": 420,
    "DC": 8184,
    "locate": 8111,
    "Help": 2571,
    "lod@@": 7881,
    "agenda": 6350,
    "Scott": 7696,
    "agency": 3841,
    "Ander@@": 11051,
    "風@@": 15646,
    "college": 4663,
    "aster": 8746,
    "⎦": 15822,
    "conscious": 7062,
    "interoperability": 7840,
    "ENER@@": 9303,
    "cking": 3038,
    "jour@@": 6779,
    "Fro@@": 8768,
    "tap@@": 8453,
    "grid": 9781,
    "hore@@": 14267,
    "det@@": 2843,
    "mech": 14078,
    "ц": 15139,
    "cam": 11654,
    "ට": 15903,
    "櫻": 15714,
    "coh@@": 10874,
    "hat": 5377,
    "keys": 3952,
    "summary": 4061,
    "however": 1350,
    "Summary": 5525,
    "aliz@@": 5066,
    "son@@": 4780,
    "ware@@": 8874,
    "Oral": 5164,
    "ά": 14159,
    "peace": 3170,
    "dump@@": 12228,
    "PO": 11623,
    "do@@": 868,
    "masa": 14842,
    "schedule": 5255,
    "儿": 15477,
    "intermedi@@": 4287,
    "appreci@@": 7462,
    "’t": 13529,
    "ses@@": 11506,
    "ening": 2748,
    "eutic": 7570,
    "ini": 8910,
    "Ⅱ": 15837,
    "debt": 2243,
    "安@@": 15470,
    "thous@@": 13197,
    "Wh@@": 2537,
    "EFTA": 5030,
    "Madam": 10772,
    "questions": 1246,
    "ukon@@": 14228,
    "sm@@": 2171,
    "ext@@": 6295,
    "Life": 6541,
    "van@@": 4751,
    "Family": 8404,
    "Applicable": 4781,
    "filed": 7599,
    "→@@": 13799,
    "freezing": 9601,
    "HS": 7175,
    "Appro@@": 5989,
    "Ci@@": 10762,
    "pointed": 3546,
    "COM": 10954,
    "³@@": 13737,
    "ative": 1072,
    "pic@@": 6323,
    "influ@@": 9037,
    "modification": 8743,
    "カ@@": 15796,
    "∪": 15828,
    "option": 3025,
    "Because": 822,
    "nam": 9086,
    "decisive": 8096,
    "šku": 14211,
    "rol": 5804,
    "China": 2953,
    "gence": 8448,
    "ient@@": 10598,
    "scare": 9753,
    "okie": 9025,
    "、@@": 15812,
    "investigation": 1139,
    "arising": 3560,
    "players": 7458,
    "stuck": 4345,
    "accoun@@": 4969,
    "taking": 603,
    "=": 1671,
    "amin@@": 7589,
    "ﬂ": 13604,
    "princi@@": 10809,
    "pomoc@@": 14719,
    "thering": 6302,
    "K": 1837,
    "Think": 3702,
    "idence": 11888,
    "pushed": 5922,
    "Lis@@": 12064,
    "ghter": 3079,
    "ment": 807,
    "emoc@@": 9928,
    "directed": 6757,
    "once": 650,
    "bus": 3831,
    "registration": 2612,
    "weird": 3124,
    "arch@@": 5672,
    "ð@@": 12975,
    "character": 3286,
    "facilitate": 3374,
    "proti@@": 14666,
    "Elena": 10162,
    "tim@@": 5777,
    "credit@@": 9960,
    "crossing": 9155,
    "Blue": 7942,
    "growing": 3533,
    "ending": 1764,
    "selves": 12906,
    "": 15194,
    "ACP": 7528,
    "for": 19,
    "duly": 4837,
    "compensation": 1727,
    "mighty": 9352,
    "Stone": 10364,
    "Schengen": 6020,
    "hy": 7641,
    "dream": 2570,
    "Photo": 10853,
    "capacity": 1266,
    "MP@@": 8384,
    "unk": 3652,
    "ZZ@@": 11155,
    "implement": 3278,
    "positions": 4437,
    "Directive": 255,
    "them@@": 4555,
    "degra@@": 10330,
    "phys@@": 4771,
    "Johnson": 10108,
    "tec@@": 12443,
    "tend": 7549,
    "o'clock": 9174,
    "ter": 639,
    "Zdrav@@": 14359,
    "Unable": 8281,
    "organi@@": 11766,
    "preclud@@": 7933,
    "ders": 2172,
    "ე@@": 15305,
    "impa@@": 8586,
    "∅@@": 15834,
    "⎤": 15824,
    "great": 516,
    "declaration": 2524,
    "initiative": 3033,
    "cro@@": 2227,
    "restructuring": 2869,
    "ita": 4795,
    "Royal": 9799,
    "STI": 13443,
    "formalities": 8858,
    "falls": 4724,
    ".e.": 14396,
    "ould": 12258,
    "nám": 14593,
    "conne@@": 5716,
    "urban": 6220,
    "oba": 12641,
    "connect": 7049,
    "kill": 728,
    "ↁ": 15504,
    "ness": 957,
    "Welcome": 3596,
    "lers": 3724,
    "nant": 10655,
    "≥": 7186,
    "臼": 15683,
    "bucks": 6915,
    "skem": 14699,
    "Letter": 9715,
    "Rebec@@": 10868,
    "ố@@": 14866,
    "dimension": 6480,
    "Comple@@": 7427,
    "silent": 5831,
    "hno@@": 14501,
    "#@@": 11849,
    "breakfast": 5714,
    "final": 992,
    "would": 105,
    "Pack@@": 9363,
    "ure": 1068,
    "that@@": 6960,
    "DEM": 11725,
    "norm@@": 13092,
    "hun@@": 4784,
    "碈@@": 15454,
    "throat": 5024,
    "wind": 2749,
    "Tou@@": 10204,
    "electricity": 3216,
    "clar@@": 12439,
    "ponese": 13608,
    "four": 862,
    "del": 8345,
    "emoglob@@": 14141,
    "che": 4668,
    "ٱ": 14344,
    "kle@@": 12413,
    "afraid": 1599,
    "ickness": 6208,
    "emit@@": 12534,
    "ℓ": 15299,
    "e.@@": 7855,
    "šer@@": 14932,
    "Go": 657,
    "Young": 8112,
    "allerg@@": 11811,
    "whether": 484,
    "Head": 6846,
    "ↂ": 15503,
    "μ": 13870,
    "Im@@": 1858,
    "OR@@": 2295,
    "haw@@": 12198,
    "second": 510,
    "hotel@@": 11944,
    "targets": 4683,
    "elem": 14642,
    "ٱ@@": 15309,
    "hood": 3661,
    "zep@@": 13616,
    "lan": 3204,
    "鰐@@": 15644,
    "Р": 15945,
    "weak@@": 3756,
    "itab@@": 11230,
    "risks": 2083,
    "Coun@@": 3692,
    "Ke@@": 3893,
    "mation": 9404,
    "ovina": 10636,
    "great@@": 10200,
    "nep@@": 11057,
    "aqu@@": 4988,
    "organised": 5161,
    "Franc@@": 10529,
    "ovo": 10452,
    "continue": 1454,
    "Secretary": 6619,
    "TER@@": 8882,
    "HR": 7722,
    "andid@@": 11327,
    "Atlan@@": 12051,
    "individually": 8300,
    "ort": 8560,
    "offered": 3066,
    "domin@@": 6156,
    "humans": 4271,
    "非@@": 15649,
    "elihood": 12680,
    "putting": 3818,
    "ction@@": 7853,
    "ak@@": 1527,
    "א": 15386,
    "Â": 13918,
    "Taliban": 9813,
    "UN@@": 2640,
    "Nob@@": 10392,
    "dings": 7044,
    "enterprises": 3727,
    "AF@@": 9796,
    "til@@": 8165,
    "libr@@": 11741,
    "wor@@": 1939,
    "problem": 895,
    "neh@@": 13478,
    "play": 959,
    "ature": 4474,
    "praz@@": 12381,
    "dot@@": 12000,
    "ů@@": 13510,
    "Ltd": 8231,
    "stolen": 6730,
    "obstac@@": 10961,
    "missi@@": 7776,
    "mig@@": 12659,
    "mark@@": 4944,
    "ostat@@": 12194,
    "desp@@": 6324,
    "spla@@": 11357,
    "handed": 5688,
    "April": 1243,
    "ctional": 12041,
    "fortun@@": 9754,
    "driving": 3057,
    "itability": 11341,
    "eh": 6081,
    "since": 537,
    "released": 4926,
    "tov@@": 12695,
    "obs": 10071,
    "Љ": 15947,
    "knowing": 4761,
    "proto": 13895,
    "claimant": 9257,
    "ca": 234,
    "tory": 10075,
    "Chin@@": 12058,
    "prak@@": 14119,
    "vise": 5985,
    "abil@@": 10752,
    "perf@@": 12084,
    "intraven@@": 8694,
    "moments": 7660,
    "etic": 8734,
    "Swiss": 7273,
    "starting": 2263,
    "refusal": 5707,
    "prison": 3704,
    "closure": 6722,
    "ể@@": 15159,
    "emia": 4636,
    "ord@@": 2662,
    "Lux@@": 12917,
    "Vari@@": 10402,
    "yed": 3532,
    "version": 2492,
    "onom@@": 11330,
    "happening": 2755,
    "ME": 9201,
    "Gil@@": 10133,
    "interfe@@": 10794,
    "¶@@": 13299,
    "alone": 909,
    "Û": 15598,
    "brilliant": 7749,
    "nolog@@": 12035,
    "ි": 15536,
    "Accord@@": 13647,
    "้": 15869,
    "vu": 12879,
    "quantity": 3438,
    "е@@": 12891,
    "&": 2506,
    "ince": 7782,
    "icha": 13764,
    "agent@@": 12646,
    "liv@@": 6074,
    "Pe@@": 3803,
    "boyfriend": 4472,
    "neigh@@": 8210,
    "nim@@": 12649,
    "Ir@@": 7324,
    "čky": 14154,
    "@@": 15344,
    "MR@@": 8279,
    "diabetes": 9386,
    "grin@@": 8792,
    "popular": 8563,
    "significantly": 3522,
    "nine": 3557,
    "cker": 7340,
    "harmonised": 5099,
    "determining": 3353,
    "talent": 9543,
    "fot@@": 13678,
    "prior": 1905,
    "control": 526,
    "Zel@@": 12236,
    "Brad@@": 11032,
    "rist@@": 5710,
    "Specific": 5508,
    "": 14368,
    "approach": 1725,
    "ception": 9420,
    "Û@@": 14992,
    "Earth": 2923,
    "blu@@": 5357,
    "¡": 12362,
    "ples": 6004,
    "inky": 11863,
    "medium": 3291,
    "˘@@": 15398,
    "whenever": 6101,
    "compens@@": 5117,
    "disposal": 4299,
    "silver": 6348,
    "abuse": 6847,
    "dry": 3284,
    "avy": 11835,
    "Mech@@": 13053,
    "after@@": 6459,
    "(3": 1355,
    "itim@@": 13067,
    "ře@@": 13351,
    "boys": 1996,
    "inserted": 6901,
    "presents": 10375,
    "customs": 1759,
    "ﬁ@@": 12552,
    "ego": 10034,
    "aran@@": 11592,
    "exceed": 2022,
    "Ì": 15151,
    "Klu@@": 13110,
    "Jak@@": 12291,
    "Measures": 8639,
    "말@@": 15634,
    "ln": 9958,
    "چ@@": 15918,
    "technolog@@": 12448,
    "手": 15464,
    "find": 353,
    "fea@@": 7040,
    "Ў@@": 14997,
    "ake": 2779,
    "consolid@@": 11306,
    "uru": 12685,
    "admi@@": 6726,
    "clea@@": 11648,
    "„": 12586,
    "Could": 2009,
    "environment": 1631,
    "Tol@@": 11180,
    "posing": 7052,
    "object": 2638,
    "growth": 1605,
    "Ψ@@": 15232,
    "pos@@": 3905,
    "Rest@@": 5709,
    "Little": 5100,
    "BS": 10329,
    "loan": 3726,
    "estimate": 6754,
    "iling": 2821,
    "dl": 10867,
    "bri@@": 3513,
    "rent@@": 12560,
    "runs": 5723,
    "girls": 1983,
    "Presid@@": 8074,
    "sat": 2791,
    "Now": 355,
    "tunnel": 7982,
    "ances": 3194,
    "ω": 14712,
    "assessed": 3271,
    "opti@@": 8174,
    "pla@@": 2139,
    "CR@@": 6257,
    "select": 4377,
    "rett": 10574,
    "Dě@@": 14388,
    "pal@@": 2866,
    "annu@@": 9470,
    "Mediterranean": 7519,
    "Doktor": 14047,
    "plot": 10744,
    "ón": 10032,
    "ayed": 9808,
    "Mal@@": 2736,
    "Čer@@": 13715,
    "neu@@": 10760,
    "Peg@@": 10882,
    "heal@@": 8385,
    "zen@@": 10181,
    "star@@": 3049,
    "entary": 7787,
    "Ѓ@@": 15395,
    "0": 48,
    "portugal@@": 14765,
    "️@@": 15409,
    "blist@@": 9912,
    "夏@@": 15759,
    "Italy": 2651,
    "trib@@": 6780,
    "⨯@@": 15487,
    "manufacturing": 5980,
    "잡@@": 15628,
    "ission@@": 10560,
    "fit@@": 8956,
    "ﬃ@@": 14095,
    "isations": 11092,
    "integra@@": 9588,
    "П": 15392,
    "Kd@@": 14243,
    "eutical": 8698,
    "wondered": 6066,
    "Google": 11128,
    "noted": 2442,
    "pati@@": 7993,
    "嫕@@": 15756,
    "reci@@": 11334,
    "flexibility": 8616,
    "deeply": 9067,
    "Without": 3173,
    "Use": 2920,
    "ver@@": 1183,
    "cap@@": 2084,
    "arbitration": 6547,
    "，": 14470,
    "sman": 4927,
    "inter@@": 777,
    "won@@": 10660,
    "south": 4686,
    "millions": 6170,
    "gener@@": 2728,
    "kredit@@": 14691,
    "excluded": 4395,
    "effective": 1131,
    "ého": 14020,
    "EN.01000@@": 8622,
    "normally": 3269,
    "Is@@": 7921,
    "born": 2177,
    "fur@@": 3069,
    "assessments": 7128,
    "elu": 13937,
    "ans": 747,
    "egg": 7965,
    "ante": 7551,
    "denied": 9516,
    "Kyle": 9254,
    "ulo@@": 12855,
    "Private": 9042,
    "Contact": 8122,
    "peri@@": 4501,
    "Al@@": 766,
    "כ@@": 15561,
    "umin@@": 11553,
    "world@@": 12567,
    "ili": 11453,
    "atin@@": 10499,
    "anything": 430,
    "gement": 8998,
    "Program@@": 7563,
    "Look": 471,
    "jih": 14356,
    "charged": 4070,
    "confirm": 6283,
    "Tony": 5659,
    "syn@@": 4267,
    "attac@@": 11667,
    "toward": 2725,
    "TED": 7004,
    "ő": 13704,
    "ple@@": 2353,
    "stad@@": 11852,
    "ґ@@": 13409,
    "か@@": 15808,
    "pants": 5002,
    "hated": 8035,
    "Dev@@": 5313,
    "ו": 15383,
    "fou@@": 10870,
    "gold": 3421,
    "'re": 68,
    "confir@@": 6978,
    "textil@@": 14541,
    "sharp": 6271,
    "kec@@": 14907,
    "ause": 10343,
    "mouth": 1984,
    "counter": 6169,
    "letter": 1571,
    "rod": 11177,
    "dead@@": 9051,
    "procedural": 3593,
    "Art": 3572,
    "*": 907,
    "assessm@@": 13241,
    "Preg@@": 9665,
    "Zapo@@": 14412,
    "economies": 9190,
    "pout@@": 13561,
    "imper@@": 10301,
    "Syl@@": 11226,
    "crack": 8515,
    "http://www.@@": 5074,
    "hot@@": 9233,
    "king@@": 8653,
    "Lam@@": 8313,
    "stac@@": 10887,
    "updated": 4499,
    "Contro@@": 10353,
    "robot": 9674,
    "TFEU": 2733,
    "obtaining": 6554,
    "bie": 6703,
    "bys": 13470,
    "asylum": 6959,
    "://@@": 12658,
    "dej@@": 14643,
    "保@@": 15775,
    "repe@@": 6750,
    "THER": 8848,
    "ná@@": 12884,
    "new@@": 5212,
    "sist@@": 5162,
    "uni@@": 4543,
    "Croatia": 7169,
    "K@@": 289,
    "Mick@@": 11291,
    "flower": 9679,
    "keep": 529,
    "Manag@@": 8723,
    "Fol@@": 7897,
    "accessible": 6521,
    "reflect": 5287,
    "No": 60,
    "EM@@": 2541,
    "counts": 6882,
    "each": 324,
    "Proces@@": 12630,
    "now@@": 7516,
    "Scho@@": 12028,
    "Nec@@": 11980,
    "due": 893,
    "Even": 1598,
    "walk": 1780,
    "lars": 10833,
    "quota": 3958,
    "Bran@@": 6665,
    "iat@@": 11384,
    "Sem@@": 11049,
    "max": 10400,
    "epiz@@": 12996,
    "roughly": 8588,
    "me@@": 1317,
    "Mm": 3486,
    "Or@@": 3612,
    "lec": 13674,
    "kiss": 3990,
    "enci": 14562,
    "Implement@@": 13444,
    "Pou@@": 12003,
    "lace": 10637,
    "Dim@@": 10046,
    "Am": 4296,
    "seznam@@": 14463,
    "useless": 9571,
    "newly": 9473,
    "shing": 1985,
    "琀@@": 15455,
    "FS": 11111,
    "S.@@": 4846,
    "foreg@@": 12062,
    "involvement": 6005,
    "categor@@": 11520,
    "Call": 3229,
    "explained": 3916,
    "mé@@": 12392,
    "∩": 15829,
    "degrees": 7101,
    "South": 3849,
    "argument@@": 13245,
    "Conf@@": 9100,
    "tek": 13040,
    "Ė": 14713,
    "deemed": 3336,
    "assemb@@": 10559,
    "Rome": 6183,
    "stá@@": 14192,
    "itation": 4198,
    "sight": 2522,
    "check": 1239,
    "tested": 4735,
    "vid@@": 6557,
    "祖": 15701,
    "selling": 4027,
    "technologie": 14590,
    "»": 5395,
    "mene": 13834,
    "tik": 13073,
    "zna@@": 13960,
    "aspects": 3143,
    "Pharmac@@": 7421,
    "coach": 9148,
    "hepatic": 6817,
    "transfer@@": 7975,
    "hab@@": 5988,
    "￱@@": 15340,
    "enterprise": 6556,
    "dogs": 4603,
    "waiting": 1510,
    "FF": 7690,
    "vý@@": 13761,
    "audits": 7375,
    "laun@@": 10614,
    "please": 624,
    "enforcement": 1420,
    "SI@@": 3237,
    "Pla@@": 3443,
    "Lim@@": 8339,
    "ü": 13293,
    "levy": 10048,
    "f": 666,
    "head@@": 2548,
    "Ə@@": 15584,
    "Claire": 8667,
    "lowing": 4805,
    "D.": 4867,
    "Jersey": 11268,
    "HA": 8981,
    "youth": 5620,
    "allowance": 5177,
    "←": 15125,
    "NR@@": 10086,
    "↓@@": 13814,
    "corresponds": 9279,
    "regener@@": 11166,
    "ago": 854,
    "ş": 13768,
    "pig": 6526,
    "lamp@@": 12566,
    "statut@@": 13778,
    "shine": 9120,
    "Pull": 8725,
    "tight": 4389,
    "ks": 825,
    "calculated": 2453,
    "climate": 3625,
    "Incre@@": 8346,
    "stit@@": 6861,
    "around": 391,
    "kum@@": 12555,
    "pad": 11018,
    "bance": 10928,
    "met": 996,
    "'il": 1895,
    "ums": 7234,
    "@@": 15986,
    "tenance": 12857,
    "obraz@@": 14285,
    "supplies": 4839,
    "TM@@": 11248,
    "hob@@": 8878,
    "akce": 14750,
    "shop": 4117,
    "anded": 5758,
    "pie": 9212,
    "provided": 349,
    "ˑ": 15326,
    "nab@@": 11283,
    "Sav@@": 10600,
    "ID@@": 4368,
    "fold": 7559,
    "Afghanistan": 8484,
    "Dist@@": 8147,
    "ember": 12934,
    "jected": 5351,
    "progres@@": 9322,
    "asts": 8434,
    "hli": 14925,
    "Od@@": 10698,
    "Gover@@": 6815,
    "SI": 8897,
    "": 13905,
    "chosen": 4160,
    "twel@@": 12774,
    "anne@@": 10917,
    "adequately": 8203,
    "bringing": 3361,
    "lik": 12909,
    "rights": 654,
    "¢": 14353,
    "safety": 930,
    "reduction": 1875,
    "transport": 1053,
    "ké": 14109,
    "polit@@": 4348,
    "institutions": 1230,
    "possibility": 1855,
    "trapped": 8964,
    "ca@@": 1271,
    "ority": 6958,
    "laugh@@": 10942,
    "resh": 9798,
    "lé@@": 11481,
    "indu@@": 5204,
    "intends": 8378,
    "ving": 2274,
    "jev@@": 13929,
    "monitoring": 1487,
    "Gro@@": 3148,
    "internet@@": 13997,
    "c@@": 228,
    "L@@": 221,
    "ax@@": 3502,
    "chlorothiaz@@": 12376,
    "CHOP": 13916,
    "icí": 14972,
    "perman@@": 9772,
    "Isl@@": 9462,
    "Κ@@": 12915,
    "categories": 2893,
    "Viet@@": 9519,
    "kut@@": 13458,
    "Ru@@": 4534,
    "ného": 14317,
    "annexed": 7896,
    "Take": 1082,
    "licen@@": 5398,
    "vacc@@": 6251,
    "ѕ@@": 15137,
    "ambul@@": 10370,
    "sin": 5335,
    "Di@@": 1417,
    "recommends": 8637,
    "produk@@": 13644,
    "posed@@": 11665,
    "Hydro@@": 10778,
    "ell@@": 11395,
    "spar@@": 5570,
    "sis": 2539,
    "cops": 4568,
    "Unii": 14975,
    "Iceland": 7592,
    "ode": 3996,
    "ơ": 15968,
    "jurisdiction": 1392,
    "face": 609,
    "cked": 2883,
    "deep": 2317,
    "ner": 1548,
    "ē@@": 13020,
    "supplier": 6318,
    "bic@@": 9877,
    "smell": 3679,
    "Anne": 9927,
    "Safety": 3370,
    "ilá": 14477,
    "Nate": 11075,
    "": 13557,
    "interven@@": 4218,
    "datum": 13668,
    "අ@@": 15906,
    "Doc": 7973,
    "wil@@": 5091,
    "indic@@": 11759,
    "National": 2186,
    "housing": 7210,
    "Ï@@": 14461,
    "Hag@@": 11296,
    "lamps": 7244,
    "han@@": 7997,
    "forget": 2097,
    "bage": 9612,
    "suspected": 5159,
    "precautions": 7796,
    "boat": 2972,
    "investigations": 5787,
    "iled": 3771,
    "surely": 9320,
    "bla": 13641,
    "taj@@": 13985,
    "indicator": 9488,
    "Stra@@": 5755,
    "rail": 5539,
    "ָ@@": 15939,
    "晉": 15721,
    "arise": 6649,
    "shy": 9673,
    "Last": 1738,
    "@@": 15985,
    "@@": 14714,
    "trou@@": 12154,
    "associations": 5813,
    "aband@@": 10004,
    "sign": 1551,
    "suming": 8361,
    "soul": 3932,
    "uris@@": 12845,
    "kud": 14641,
    "express": 6361,
    "rian": 8189,
    "Dis@@": 1723,
    "internal": 1310,
    "flat": 4048,
    "Communication": 3240,
    "cur@@": 1217,
    "ợ@@": 15201,
    "republiky": 13643,
    "interests": 1878,
    "overall": 1819,
    "azole": 9230,
    "profession@@": 12466,
    "{": 5165,
    "talking": 774,
    "parties": 578,
    "orov@@": 13385,
    "During": 3911,
    "neither": 2927,
    "November": 1298,
    "contrast": 8104,
    "Descri@@": 11798,
    "Vid@@": 12483,
    "assets": 1223,
    "voting": 8182,
    "EHP": 13839,
    "sona": 13991,
    "к@@": 13413,
    "wol@@": 10428,
    "making": 786,
    "rot@@": 6634,
    "conce@@": 6143,
    "vej@@": 14002,
    "tware": 11614,
    "arest": 7443,
    "io": 1864,
    "where": 161,
    "Rak@@": 12720,
    "": 13390,
    "Annexes": 5349,
    "weapon": 3955,
    "곡@@": 15440,
    "Framework": 2730,
    "therap@@": 6681,
    "clothing": 7940,
    "T": 556,
    "stored": 5092,
    "EHS": 14550,
    "lay": 2133,
    "gate": 4656,
    "ied": 5438,
    "ich": 4628,
    "initial": 2639,
    "Smí@@": 14404,
    "bastard": 4708,
    "CH@@": 3254,
    "Chy@@": 13378,
    "υ": 12930,
    "effec@@": 11858,
    "random": 8988,
    "else": 664,
    "ma@@": 1059,
    "administ@@": 6564,
    "solve": 6507,
    "ࠃ@@": 15914,
    "psychiat@@": 10807,
    "cele@@": 11134,
    "al": 242,
    "zby@@": 14636,
    "Monit@@": 13131,
    "refused": 5536,
    "cabin": 7701,
    "HAS": 3325,
    "fier": 9868,
    "lodip@@": 11199,
    "rested": 11522,
    "largest": 6727,
    "Page": 7023,
    "Ani": 13665,
    "feas@@": 9626,
    "EG@@": 5681,
    "": 13982,
    "legislat@@": 11190,
    "transpo@@": 7631,
    "uce": 10368,
    "э@@": 15182,
    "exclus@@": 11711,
    "Objec@@": 9337,
    "·": 9134,
    "im@@": 329,
    "piece": 2398,
    "Febru@@": 14213,
    "sely": 4392,
    "gly@@": 6093,
    "ordin@@": 4327,
    "Ç": 15070,
    "抰@@": 15726,
    "revol@@": 8258,
    "lists": 5061,
    "factors": 2510,
    "pes": 4319,
    "Recommend@@": 11926,
    "civiliz@@": 11025,
    "Wor@@": 3630,
    "Charter": 6281,
    "Georgia": 9685,
    "paras": 6310,
    "Ú": 14217,
    "operating": 1873,
    "passenger": 4615,
    "adres@@": 14341,
    "Pad@@": 11589,
    "therine": 11559,
    "likes": 4476,
    "abling": 12501,
    "mr@@": 12072,
    "bear": 2424,
    "➝": 13911,
    "Dep@@": 5316,
    "itch@@": 9745,
    "CHAPTER": 2853,
    "guest": 7297,
    "ĵ": 15976,
    "aven@@": 10026,
    "μ@@": 10144,
    "stem": 11005,
    "reach": 1823,
    "usive": 7741,
    "label@@": 7574,
    "Soud@@": 13775,
    "crucial": 7510,
    "Fif@@": 7107,
    "zlo": 13209,
    "ς@@": 13831,
    "Africa": 5266,
    "Brother": 8411,
    "existed": 8742,
    "peci@@": 14077,
    "Liv@@": 10348,
    "fore": 12088,
    "repli@@": 14762,
    "EC@@": 1194,
    "祿": 15700,
    "rescue": 5967,
    "enter": 1080,
    "cases": 559,
    "es’": 2412,
    "jab@@": 12382,
    "atives": 6961,
    "missed": 3318,
    "Radu": 13699,
    "employment": 1401,
    "din@@": 7228,
    "common": 643,
    "it": 22,
    "ter@@": 733,
    "in'": 8631,
    "although": 2613,
    "jesty": 12495,
    "giving": 1789,
    "enter@@": 6534,
    "norma": 14274,
    "Justice": 1914,
    "entrepreneur@@": 8211,
    "Sco@@": 10890,
    "te@@": 890,
    "working": 673,
    "MO@@": 7716,
    "secondary": 5199,
    "ب@@": 15380,
    "ERS": 8780,
    "gen": 6510,
    "dependent": 5927,
    "point": 388,
    "ask@@": 10154,
    "Profess@@": 11062,
    "idance": 9848,
    "phosp@@": 6264,
    "thought": 337,
    "managing": 5587,
    "plants": 3516,
    "saz@@": 12916,
    "а": 13516,
    "dealt": 7785,
    "communic@@": 10576,
    "imal": 10791,
    "Laurie": 11198,
    "behind": 1031,
    "Indic@@": 9645,
    "inhibitors": 8206,
    "teeth": 4527,
    "অ@@": 15909,
    "MISSION": 13070,
    "feel@@": 12199,
    "brat": 12496,
    "Braz@@": 12182,
    "”@@": 11940,
    "imagine": 3504,
    "such@@": 13142,
    "ы@@": 14660,
    "zena": 14613,
    "hear@@": 3942,
    "chud@@": 14479,
    "Furthermore": 2411,
    "tend@@": 6620,
    "fixed": 1332,
    "fired": 4522,
    "error": 2138,
    "evening": 2969,
    "ing@@": 974,
    "ft": 2337,
    "pis@@": 7207,
    "serv@@": 2994,
    "entrance": 8510,
    "livo@@": 14690,
    "ign": 4145,
    "G": 1444,
    "Capital": 9048,
    "antly": 4297,
    "leg@@": 2550,
    "Org@@": 12218,
    "negoti@@": 3769,
    "goddamn": 5590,
    "strength": 3404,
    "eight": 2573,
    "owe": 4882,
    "trat@@": 12056,
    "brow@@": 9716,
    "joy": 6162,
    "reduced": 2281,
    "exporting": 3106,
    "nal@@": 5953,
    "court": 305,
    "harm@@": 11501,
    "beneficiary": 3347,
    "rip@@": 3645,
    "companying": 13047,
    "ranean": 12993,
    "HT@@": 11669,
    "verage": 8668,
    "kontrol@@": 14199,
    "isti": 13733,
    "military": 2815,
    "ius": 10777,
    "contractual": 4562,
    "describ@@": 9504,
    "bio@@": 4573,
    "∑@@": 15041,
    "Gent@@": 11951,
    "ACE": 9414,
    "ו@@": 15205,
    "ˆ": 15234,
    "always": 458,
    "companies": 1150,
    "夏": 15760,
    "finally": 2108,
    "where@@": 11033,
    "attor@@": 12139,
    "neut@@": 9712,
    "onu": 14689,
    "п@@": 14148,
    "holdings": 7201,
    "agg@@": 5981,
    "came": 496,
    "nation": 6127,
    "But": 140,
    "bench@@": 8507,
    "covering": 3685,
    "fie": 12224,
    "exhaust": 9052,
    "various": 1632,
    "buried": 6716,
    "nar@@": 4336,
    "Ố@@": 15519,
    "gone": 900,
    "highest": 4840,
    "interview": 7010,
    "campa@@": 11048,
    "Manufac@@": 10475,
    "petition": 9518,
    "gin@@": 10625,
    "emissions": 3017,
    "Neu@@": 11837,
    "ently": 1544,
    "volu@@": 13495,
    "refunds": 5795,
    "pad@@": 8246,
    "hlou@@": 13677,
    "racen@@": 13283,
    "gly": 10356,
    "menu": 6228,
    "symbo@@": 11773,
    "couple": 1769,
    "set": 251,
    "online": 4508,
    "protecting": 6171,
    "leng@@": 10899,
    "tations": 11194,
    "cuts": 7301,
    "nity": 5163,
    "kali@@": 14257,
    "DF": 12361,
    "cise": 7261,
    "abs@@": 11717,
    "ref@@": 1979,
    "SMEs": 4209,
    "oring": 5569,
    "Cou@@": 10261,
    "umns": 9652,
    "ori@@": 3734,
    "whe@@": 4728,
    "obliged": 4873,
    "@@": 15093,
    "shower": 7442,
    "time@@": 8523,
    "ْ@@": 15547,
    "viewed": 10579,
    "fear": 2588,
    "wishes": 6098,
    "ROZ@@": 13999,
    "garden": 7771,
    "这@@": 15447,
    "cut": 1267,
    "dreams": 4704,
    "Op@@": 3223,
    "parent": 2773,
    "Kon@@": 10244,
    "smoke": 4283,
    "ħ": 15593,
    "saving": 6060,
    "σ": 13853,
    "the@@": 1449,
    "ino": 3972,
    "finger@@": 7699,
    "air@@": 2011,
    "eng@@": 3789,
    "dimen@@": 7103,
    "incen@@": 12783,
    "series": 3507,
    "choices": 9326,
    "Maria": 9181,
    "ných": 14701,
    "missions": 6293,
    "ň": 13959,
    "kills": 9749,
    "ס@@": 15229,
    "habitu@@": 8492,
    "Prague": 9759,
    "kde@@": 13346,
    "decid@@": 9825,
    "frozen": 5552,
    "ká@@": 13517,
    "manip@@": 12014,
    "messages": 5421,
    "hlava": 14478,
    "meal": 5846,
    "plenty": 6245,
    "illegal": 4592,
    "ulations": 7769,
    "<@@": 12518,
    "bu": 11441,
    "®": 11802,
    "golden": 8728,
    "poru@@": 14841,
    "prejudice": 2650,
    "nau@@": 11319,
    "κ": 14807,
    "conf@@": 2155,
    "ὴ@@": 15850,
    "Then": 486,
    "Nicole": 10358,
    "Ord@@": 10934,
    "labour": 2918,
    "ɶ": 13983,
    "Co": 7882,
    "Ko@@": 9815,
    "zin@@": 11549,
    "warm": 4439,
    "l": 427,
    "provin@@": 10270,
    "A.": 2885,
    "j@@": 658,
    "loha": 13336,
    "Bou@@": 10796,
    "points": 1147,
    "syringe": 8066,
    "cet@@": 10735,
    "ological": 3139,
    "◊": 15172,
    "spp": 10269,
    "В": 14834,
    "recommended": 2271,
    "engine": 3263,
    "itime": 10211,
    "awesome": 6753,
    "nos@@": 13268,
    "ard": 940,
    "ู@@": 15367,
    "range": 1546,
    "ING@@": 8437,
    "accep@@": 7464,
    "ship@@": 4880,
    "Pá@@": 14127,
    "mean": 288,
    "insist@@": 7850,
    "Orders": 7936,
    "discharge": 6333,
    "enforceable": 8238,
    "Parties": 1980,
    "mountain": 5974,
    "incredible": 8082,
    "uck": 9478,
    "infor@@": 12488,
    "eho": 14364,
    "íst@@": 14308,
    "aver@@": 6532,
    "fucker": 10797,
    "Tim": 10571,
    "ourse": 7306,
    "江@@": 15459,
    "Castle": 10151,
    "election": 9559,
    "confidential": 4579,
    "preme": 12068,
    "ฮ@@": 15876,
    "core": 5068,
    "cep@@": 3892,
    "objects": 5818,
    "Holly@@": 10925,
    "fell": 2416,
    "ector": 10001,
    "sever": 13102,
    "utr@@": 13210,
    "better": 412,
    "added": 1376,
    "opt@@": 12617,
    "users": 2141,
    "vulner@@": 11886,
    "≈": 14683,
    "aid": 278,
    "beam": 7356,
    "Maxi": 13909,
    "idea": 892,
    "VO@@": 11532,
    "luv": 13585,
    "鸡@@": 15642,
    "ý@@": 12834,
    "silly": 7645,
    "stero@@": 6953,
    "": 15425,
    "aring": 3799,
    "Atlantic": 9076,
    "paying": 4044,
    "restrictive": 5274,
    "figur@@": 10766,
    "Fred": 9987,
    "force": 501,
    "capac@@": 8790,
    "recovered": 5675,
    "řá@@": 14662,
    "TU": 12752,
    "caught": 2222,
    "fis@@": 11551,
    "bent": 8908,
    "Did": 568,
    "certific@@": 12323,
    "Bra@@": 3822,
    "prefer": 6729,
    "Ooh": 5832,
    "oday": 14069,
    "plant": 1956,
    "krup@@": 10464,
    "AB@@": 4673,
    "ot": 1441,
    "powder": 4965,
    "ტ@@": 15521,
    "stated": 2099,
    "calculation": 3331,
    "World": 4068,
    "el": 513,
    "At": 781,
    "child": 835,
    "remote": 6039,
    "kes": 3633,
    "full": 743,
    "Again": 7039,
    "eper": 7712,
    "sectoral": 6584,
    "Airlines": 10604,
    "Belgian": 6949,
    "▪": 14101,
    "Stanley": 11243,
    "p": 340,
    "inger": 7889,
    "∏": 14916,
    "Tran@@": 3230,
    "sit@@": 4631,
    "Water": 7218,
    "listed": 1341,
    "conducted": 3682,
    "Mem@@": 6738,
    "Aven@@": 12494,
    "listening": 4891,
    "istic": 5353,
    "Duncan": 10215,
    "glad": 2582,
    "bec@@": 8118,
    "Η": 14849,
    "Ș@@": 14579,
    "ไ@@": 15527,
    "manager": 4824,
    "o@@": 304,
    "ey@@": 1893,
    "DS": 8191,
    "lies": 3107,
    "首": 15442,
    "collabor@@": 8244,
    "thu@@": 12146,
    "AI@@": 9744,
    "representation": 6687,
    "​@@": 13340,
    "ln@@": 7906,
    "nowhere": 7429,
    "Sus@@": 7112,
    "Nad@@": 10784,
    "elo": 11201,
    "sibility": 6565,
    "rom@@": 9919,
    "presid@@": 8708,
    "possible": 481,
    "onel": 11391,
    "eyed": 9455,
    "football": 8176,
    "‟@@": 14577,
    "tm@@": 12785,
    "int@@": 2036,
    "Ű@@": 15970,
    "Figures": 8149,
    "ně": 13361,
    "unemployment": 7743,
    "společnost": 14687,
    "Ã": 13333,
    "Ka@@": 4133,
    "phil@@": 9351,
    "redi@@": 13112,
    "zo@@": 5179,
    "youn@@": 11121,
    "AS": 3947,
    "circulation": 6822,
    "thou@@": 6326,
    "Fur@@": 11646,
    "welcomes": 7534,
    "declar@@": 10191,
    "exports": 4745,
    "liminary": 11610,
    "consul@@": 7209,
    "Start": 6152,
    "allocated": 3590,
    "income": 2403,
    "repeat": 8247,
    "Hap@@": 11171,
    "Saf@@": 9718,
    "limit@@": 12504,
    "sole": 4523,
    "leaflet": 4493,
    "พ@@": 15531,
    "œ@@": 13566,
    "✉": 15489,
    "drawn": 2495,
    "il": 789,
    "ficial": 8256,
    "Albert": 10532,
    "Nathan": 9981,
    "Ν": 14890,
    "Scar@@": 11154,
    "st@@": 387,
    "grateful": 9011,
    "bum@@": 6784,
    "podnik": 14592,
    "group@@": 10510,
    "St.": 8756,
    "dokument@@": 14093,
    "opak": 14348,
    "university": 9079,
    "ingredi@@": 11461,
    "pollution": 7594,
    "uz@@": 11151,
    "propos@@": 10742,
    "exercised": 6642,
    "anks": 5991,
    "TIT@@": 7267,
    "ského": 14839,
    "Auditors": 7260,
    "ars": 1496,
    "Ga@@": 5397,
    "street": 2788,
    "ovy": 12642,
    "ay@@": 3008,
    "○": 15000,
    "bow@@": 6080,
    "icop@@": 8984,
    "debts": 7487,
    "ˤ@@": 15958,
    "ture": 2617,
    "": 14819,
    "tiv@@": 4547,
    "letters": 4235,
    "life@@": 7256,
    "IP@@": 4123,
    "ully": 9945,
    "éry": 14028,
    "ist": 2258,
    "budget": 1113,
    "helps": 6670,
    "blon@@": 9122,
    "speaking": 4181,
    "assume": 4959,
    "committed": 2858,
    "scheduled": 6667,
    "eř@@": 14123,
    "@@": 15427,
    "bourg": 11652,
    "sume": 7804,
    "bil": 12402,
    "ilo": 11078,
    "eing": 4034,
    "igno@@": 8810,
    "flo@@": 2173,
    "treatment": 659,
    "krit@@": 14186,
    "black@@": 7028,
    "ڤ": 15136,
    "appropriations": 2152,
    "Į@@": 15333,
    "uses": 1898,
    "Lithu@@": 11479,
    "here": 102,
    "supported": 3068,
    "R.": 9498,
    "chloride": 8604,
    "fulfil@@": 5170,
    "MI": 11174,
    "special": 879,
    "Bil@@": 9391,
    "anymore": 1949,
    "Class": 6084,
    "EC": 214,
    "ALDE": 11139,
    "ives": 1917,
    "Šť@@": 14427,
    "aster@@": 9726,
    "--@@": 10287,
    "fied": 2111,
    "vampire": 8481,
    "production": 693,
    "recently": 4236,
    "determination": 4715,
    "secu@@": 9886,
    "Where": 292,
    "Solidarity": 8401,
    "launched": 6748,
    "kopie": 14420,
    "SV": 12207,
    "ept@@": 11983,
    "cem": 14804,
    "Kill": 7259,
    "Back@@": 11318,
    "laborator@@": 14640,
    "index@@": 11691,
    "Charlotte": 10858,
    "Pet@@": 6209,
    "jer@@": 5489,
    "sks": 10376,
    "breaks": 8837,
    "roku": 13620,
    "designate": 9180,
    "fir@@": 2875,
    "am@@": 435,
    "ann": 10848,
    "DECISI@@": 12574,
    "needle": 7817,
    "Denmark": 4277,
    "continuing": 7263,
    "ı@@": 13710,
    "odes@@": 12126,
    "ə": 15328,
    "hospod@@": 14085,
    "bro": 9127,
    "Energ@@": 12197,
    "representatives": 3670,
    "ruin": 9060,
    "uj@@": 11740,
    "Q": 6578,
    "renal": 3718,
    "؀@@": 15933,
    "Parla@@": 14125,
    "US@@": 5545,
    "lana": 12142,
    "pass": 2346,
    "么@@": 15480,
    "prepa@@": 11413,
    "achieving": 6221,
    "territory": 1586,
    "airport": 3764,
    "home": 447,
    "Only": 1523,
    "kam@@": 12513,
    "determine": 1962,
    "ệ@@": 15859,
    "Ň": 15067,
    "mild": 8063,
    "midnight": 9299,
    "J": 5310,
    "fate": 7015,
    "thereof": 1157,
    "DE@@": 10216,
    "beach": 6673,
    "Lucy": 9602,
    "test@@": 5141,
    "in": 12,
    "َ": 15920,
    "panel": 5555,
    "ention": 3728,
    "unable": 4111,
    "了@@": 15479,
    "women": 1166,
    "world": 508,
    "hyd@@": 12098,
    "October": 1148,
    "upper": 5568,
    "Elektro@@": 13682,
    "Effec@@": 7538,
    "course": 517,
    "derived": 5523,
    "RO": 10374,
    "kul@@": 13146,
    "sible": 3414,
    "Me": 2153,
    "Chicago": 8551,
    "bod@@": 8731,
    "Dro@@": 12016,
    "narrow": 7627,
    "universal": 9081,
    "ų@@": 15079,
    "MED@@": 8949,
    "Pro": 12576,
    "applicable": 553,
    "Vy@@": 12585,
    "solvent": 8415,
    "reaction": 4830,
    "Haro@@": 10599,
    "tle": 2375,
    "莽@@": 15678,
    "tolerance": 10630,
    "love": 377,
    "FBI": 9171,
    "Sarah": 5561,
    "anyway": 2196,
    "proto@@": 9566,
    "pigs": 7555,
    "membership": 9321,
    "î": 14991,
    "tes": 6185,
    "povolení": 14798,
    "ization": 6499,
    "TI": 11473,
    "char@@": 2037,
    "strav@@": 12805,
    "list@@": 4193,
    "Bí@@": 13405,
    "delivery": 3515,
    "inci": 12505,
    "To": 455,
    "stant": 11948,
    "": 15032,
    "official": 1620,
    "uring": 4403,
    "nez@@": 13487,
    "¼@@": 13823,
    "mra@@": 13230,
    "mm@@": 10176,
    "hazard@@": 10205,
    "ala": 7695,
    "customer": 5630,
    "delete": 9040,
    "": 15247,
    "depth": 8530,
    "ser": 3086,
    "forth@@": 8890,
    "ye": 6951,
    "Ona": 14492,
    "transport@@": 4544,
    "substantial": 4354,
    "OB@@": 9531,
    "A": 142,
    "ws": 1651,
    "⅓": 15840,
    "bs": 2413,
    "galax@@": 10957,
    "fraud": 4740,
    "Aye": 6830,
    "tation": 4042,
    "busines@@": 11624,
    "school": 1051,
    "recy@@": 12980,
    "posal": 12861,
    "coherent": 9411,
    "movement": 2259,
    "corridor": 8893,
    "Isra@@": 11631,
    "day@@": 8366,
    "ı": 14553,
    "|@@": 4970,
    "how": 204,
    "št@@": 13294,
    "fund": 2826,
    "Want": 5501,
    "undertaken": 5347,
    "conventions": 9623,
    "ab@@": 511,
    "season": 6827,
    "一@@": 15357,
    "ists": 2756,
    "rh@@": 11335,
    "tedly": 9417,
    "step": 1865,
    "incorpor@@": 6482,
    "Ϊ@@": 15951,
    "Mich@@": 8901,
    "ades": 6491,
    "pair": 5655,
    "Pí@@": 14519,
    "ulation": 2961,
    "into": 132,
    "lek": 13149,
    "Δ": 13358,
    "Treaty": 740,
    "year": 380,
    "assist@@": 9826,
    "subparagraph": 2215,
    "천": 15432,
    "drug": 3446,
    "maintaining": 6775,
    "odev@@": 14967,
    "navigation": 7338,
    "Marketing": 9790,
    "construction": 3196,
    "alco@@": 10002,
    "tka": 14042,
    "auth@@": 10989,
    "PPE": 8541,
    "criminal": 2062,
    "anno@@": 9481,
    "appear": 2544,
    "Commander": 5299,
    "Decisions": 7974,
    "Eric": 7826,
    "FB@@": 9359,
    "Hou@@": 8057,
    "RADA": 14946,
    "KA@@": 12318,
    "lun@@": 5480,
    "Е@@": 13892,
    "SEC@@": 6224,
    "ssm@@": 12340,
    "give": 357,
    "Kenne@@": 10732,
    "posts": 7710,
    "_TA(@@": 7544,
    "twenty": 4142,
    "Tom": 3346,
    "trap": 7980,
    "Canada": 8275,
    "boh@@": 13509,
    "trá@@": 14779,
    "bob@@": 12121,
    "Wy@@": 10646,
    "already": 474,
    "formal": 3413,
    "Sloven@@": 10798,
    "enhanced": 7698,
    "RES@@": 5503,
    "tá": 14761,
    "CIA": 8730,
    "applications": 1748,
    "uting": 3792,
    "see": 139,
    "za": 2483,
    "compu@@": 11429,
    "estim@@": 10541,
    "syn": 13475,
    "zas@@": 13365,
    "Finan@@": 9902,
    "Bankruptcy": 4454,
    "ever": 436,
    "sequently": 12153,
    "Ś@@": 12981,
    "Ste@@": 2385,
    "beau@@": 11770,
    "org@@": 3553,
    "decline": 9492,
    "swa@@": 8435,
    "expec@@": 8807,
    "type": 686,
    "‏": 15844,
    "řec@@": 14954,
    "ć": 13129,
    "alysis": 6496,
    "stole": 5362,
    "Zas@@": 14049,
    "protect": 1830,
    "Nes@@": 11975,
    "rad": 10749,
    "throu@@": 12387,
    "indicating": 6966,
    "Shan@@": 10892,
    "hung@@": 12770,
    "press": 2468,
    "argu@@": 6592,
    "surprise": 3697,
    "Pom@@": 11887,
    "stret@@": 5706,
    "/": 199,
    "inspections": 6428,
    "distra@@": 6992,
    "nb@@": 9006,
    "restra@@": 7775,
    "": 15131,
    "Dok@@": 13613,
    "caemia": 8889,
    "TC": 10089,
    "middle": 3457,
    "bow": 5181,
    "Defin@@": 5238,
    "qualified": 4877,
    "engines": 6741,
    "diag@@": 10635,
    "Every@@": 11780,
    "vaz@@": 14462,
    "ף@@": 15312,
    "mit": 4916,
    "cin@@": 4482,
    "suring": 11214,
    "inu": 13670,
    "geant": 10310,
    "Christmas": 3854,
    "強@@": 15740,
    "furniture": 8759,
    "wood@@": 7251,
    "Г": 14777,
    "rova": 13158,
    "pak": 13460,
    "airports": 8968,
    "者": 15690,
    "identity": 4465,
    "Paul@@": 11812,
    "victim": 2989,
    "dropped": 3813,
    "Aff@@": 12833,
    "‴@@": 15303,
    "produced": 1909,
    "divided": 5871,
    "Fla@@": 7046,
    "Af@@": 10641,
    "x@@": 687,
    "fication": 1504,
    "mits": 12140,
    "itu@@": 7658,
    "庶@@": 15743,
    "benz@@": 12454,
    "rect@@": 9482,
    "necessary": 370,
    "maso": 13628,
    "substance": 1961,
    "breathing": 6386,
    "storage": 2596,
    "Internal": 4494,
    "ext": 13282,
    "turnover": 5802,
    "cerem@@": 9994,
    "sle@@": 2807,
    "國": 15763,
    "Tel": 10285,
    "ජ@@": 15374,
    "ash": 3118,
    "bour@@": 8293,
    "UN": 4614,
    "ā@@": 12508,
    "ochran@@": 13435,
    "database": 3563,
    "irs": 4513,
    "cand@@": 8297,
    "ej": 12757,
    "Meg@@": 12151,
    "clou@@": 7832,
    "reaching": 6452,
    "driver": 3295,
    "mitted": 11993,
    "Street": 5391,
    "reported": 1707,
    "Abby": 10865,
    "ach@@": 2178,
    "asse@@": 6680,
    "zdroj": 13452,
    "clearly": 1969,
    "normal": 1260,
    "so": 108,
    "sila": 14744,
    "icon": 7742,
    "Tre@@": 5149,
    "bral": 12966,
    "ERF": 13025,
    "lox@@": 11047,
    "London": 4266,
    "aero@@": 8660,
    "passengers": 4621,
    "candidate": 5457,
    "drop@@": 5840,
    "awareness": 6205,
    "nedo@@": 14611,
    "Mor@@": 3327,
    "sebe@@": 14826,
    "cohesion": 4993,
    "larg@@": 12288,
    "feels": 4105,
    "brit@@": 12265,
    "Also": 5079,
    "ops": 4693,
    "standardis@@": 7956,
    "merous": 9427,
    "Bru@@": 9865,
    "xu": 12717,
    "destination": 4722,
    "exhausted": 7740,
    "종@@": 15284,
    "total": 843,
    "therefore": 544,
    "easily": 3873,
    "Appeal": 3488,
    "drive": 1768,
    "flat@@": 8418,
    "sten": 11131,
    "aimed": 4388,
    "tom": 9743,
    "LO@@": 3543,
    "spoken": 7212,
    "achiev@@": 10747,
    "period": 336,
    "road": 1638,
    "branch": 6879,
    "Innovation": 9584,
    "figured": 3714,
    "tablets": 4065,
    "coming": 602,
    "Sw@@": 10437,
    "di": 4459,
    "vention": 8566,
    "reti@@": 10972,
    "ical": 697,
    "“@@": 12973,
    "consider": 1896,
    "good@@": 6474,
    "wed": 3706,
    "California": 8928,
    "inhal@@": 9875,
    "financ@@": 13393,
    "compar@@": 5073,
    "cats": 9636,
    "speak": 1705,
    "ician": 5251,
    "break@@": 7704,
    "stat@@": 2732,
    "Index": 10324,
    "hop@@": 4248,
    "み": 15800,
    "Pat@@": 4424,
    "opportunities": 3465,
    "chose": 7147,
    "ネ@@": 15791,
    "respond": 5567,
    "beat": 2948,
    "hard": 857,
    "ะ@@": 15875,
    "Sor@@": 8200,
    "stvo": 13000,
    "activities": 610,
    "din": 10836,
    "byt@@": 12124,
    "ำ@@": 15873,
    "roce": 14051,
    "shoot": 2877,
    "logical": 4721,
    "excluding": 4826,
    "Vla@@": 12479,
    "obec@@": 14184,
    "Dne@@": 14977,
    "ková": 12797,
    "wine": 2625,
    "productivity": 9450,
    "stabili@@": 7734,
    "mobil": 14022,
    "TA": 7347,
    "Save": 5986,
    "breach": 3950,
    "at": 45,
    "ater@@": 11424,
    "dered": 9814,
    "emplo@@": 6261,
    "interval": 9811,
    "objec@@": 7540,
    "Cí@@": 13840,
    "，@@": 15614,
    "cod@@": 9313,
    "ø": 13137,
    "fairly": 8704,
    "kt@@": 11777,
    "MF@@": 10104,
    "don": 4010,
    "Cool": 7723,
    "stitution": 9976,
    "Moz@@": 11485,
    "Youn@@": 12542,
    "explic@@": 10492,
    "bathroom": 5865,
    "yeah": 1044,
    "sku@@": 13368,
    ",000": 2835,
    "evil": 4099,
    "kids": 1452,
    "Swit@@": 11275,
    "accredit@@": 8701,
    "Yes": 215,
    "know@@": 8008,
    "factory": 8729,
    "struktur": 13967,
    "Shi@@": 3978,
    "relief": 5361,
    "Zach@@": 12612,
    "rolled": 5918,
    "gol@@": 8863,
    "currently": 2553,
    "okinetic": 8979,
    "Emma": 9528,
    "tress": 8950,
    "ge@@": 1495,
    "language": 2052,
    "Į": 15014,
    "poc@@": 12582,
    "อ": 15877,
    "yment": 9847,
    "neutropen@@": 11337,
    "background": 4902,
    "Perhaps": 2763,
    "patients": 618,
    "ren": 4039,
    "abov@@": 13292,
    "des": 5276,
    "Í@@": 12447,
    "prohib@@": 11779,
    "progress": 2145,
    "Sez@@": 13950,
    "fon": 13623,
    "nis": 7035,
    "God": 457,
    "effort": 3804,
    "Rever@@": 10115,
    "lue": 8454,
    "wi@@": 1592,
    "注@@": 15252,
    "lety": 13276,
    "reasonable": 2641,
    "eme": 8262,
    "subsequently": 5440,
    "し@@": 15806,
    "identification": 3394,
    "Captain": 1709,
    "any": 134,
    "referring": 3733,
    "Exec@@": 11641,
    "sour@@": 7863,
    "expectations": 8444,
    "iná@@": 14706,
    "needs": 911,
    "nat": 12735,
    "instruments": 1505,
    "Twenty": 9451,
    "sac@@": 3638,
    "hev": 13930,
    "coordin@@": 4383,
    "EUR": 680,
    "mechanisms": 4703,
    "Pod@@": 12211,
    "ah": 2804,
    "ovka": 14238,
    "icip@@": 6889,
    "findings": 3634,
    "moving": 1868,
    "ŭ@@": 15586,
    "KAP@@": 14598,
    "fuck": 1383,
    "Bs": 8486,
    "貴@@": 15668,
    "Tu": 13330,
    "negotiations": 3737,
    "ha": 3479,
    "tur@@": 2540,
    "Hea@@": 11157,
    "reg@@": 3172,
    "cket": 6129,
    "Ü@@": 12968,
    "Ω@@": 14018,
    "jó@@": 13307,
    "ļ@@": 14040,
    "Jason": 7307,
    "jn": 13203,
    "ν": 13278,
    "More": 1650,
    "Sue": 10977,
    "ַ@@": 15569,
    "lok@@": 13739,
    "Publications": 9721,
    "St@@": 727,
    "TR@@": 3475,
    "rud@@": 11105,
    "tance": 12137,
    "Statist@@": 9275,
    "detected": 7132,
    "correction": 6781,
    "coordinated": 7870,
    "consum@@": 8702,
    "summons": 9093,
    "Linc@@": 14818,
    "plement": 7020,
    "Mě@@": 14157,
    "alumin@@": 8784,
    "tak": 13127,
    "ū": 15099,
    "kni@@": 9898,
    "textile": 6985,
    "lé": 12794,
    "admissible": 9910,
    "slow": 3711,
    "audit@@": 7214,
    "lived": 3424,
    "nad": 13021,
    "thern": 5968,
    "hem": 11387,
    "gins": 6998,
    "solved": 8354,
    "cho@@": 3830,
    "taste": 4627,
    "cook": 7502,
    "aim": 2568,
    "containing": 1784,
    "shing@@": 12674,
    "sol@@": 2786,
    "worth@@": 8562,
    "aud@@": 3423,
    "Afric@@": 12987,
    "cylin@@": 8871,
    "wedding": 3615,
    "dow": 9940,
    "personality": 9683,
    "Thanks": 947,
    "sar@@": 10338,
    "Chinese": 3285,
    "Angeles": 10864,
    "Chloe": 10700,
    "Stop": 1304,
    "propose": 5903,
    "agreed": 1700,
    "»@@": 14041,
    "Sam@@": 3683,
    "sday": 9088,
    "engage": 8051,
    "fe@@": 1854,
    "famili@@": 12044,
    "cru@@": 1991,
    "dren": 13658,
    "️": 15616,
    "hanging": 5692,
    "night@@": 4996,
    "Russia": 4753,
    "mim@@": 12403,
    "arding": 3418,
    "Jane": 5178,
    "krá@@": 14736,
    "apart@@": 12094,
    "competence": 3967,
    "crimin@@": 9763,
    "Ask": 6037,
    "doin'": 9253,
    "okra@@": 14284,
    "鴨@@": 15643,
    "White": 4168,
    "no": 100,
    "Supreme": 7461,
    "Why": 261,
    "boy@@": 11540,
    "les@@": 3578,
    "​": 15199,
    "From": 1581,
    "naps@@": 13445,
    "soud": 13507,
    "Fi@@": 2484,
    "VI@@": 9371,
    "ords": 7392,
    "cela": 14181,
    "atory": 2123,
    "rit": 9639,
    "Ģ@@": 14105,
    "Andre@@": 10160,
    "◘": 15818,
    "illa": 7635,
    "adjustments": 6394,
    "Unie": 14011,
    "Marie": 9829,
    "Gener@@": 8369,
    "allergic": 9105,
    "lodi": 14722,
    "speech": 6325,
    "ground": 1134,
    "flet": 12872,
    "hu": 11794,
    "Jin@@": 12073,
    "bo": 6135,
    "ῆ@@": 15848,
    "ward@@": 9550,
    "P.": 7404,
    "lej@@": 13696,
    "": 15092,
    "weg@@": 13472,
    "lic@@": 4162,
    "warned": 8757,
    "taxable": 5763,
    "specially": 9021,
    "Anal@@": 11585,
    "phy": 6158,
    "dar": 8485,
    "utu": 13120,
    "DN@@": 12325,
    "survey": 8544,
    "cho": 10819,
    "zí@@": 14322,
    "delay": 3364,
    "anou": 14035,
    "\\x@@": 8400,
    "List": 5273,
    "shoes": 4920,
    "Alli@@": 9846,
    "iva": 10891,
    "scienti@@": 6395,
    "∑": 15831,
    "platform": 7122,
    "By@@": 9942,
    "independence": 6669,
    "Poz@@": 13755,
    "essa": 10718,
    "쁟@@": 15632,
    "saf@@": 5586,
    "Ţ@@": 14299,
    "komunik@@": 14545,
    "Applic@@": 4438,
    "uchy": 11970,
    "dose": 935,
    "mately": 8569,
    "Komis@@": 14152,
    "rest": 1171,
    "AM@@": 4972,
    "attractive": 7468,
    "tall": 6062,
    "payable": 5778,
    "THE": 741,
    "Further": 5517,
    "mac@@": 5885,
    "C‑@@": 3499,
    "eč@@": 13765,
    "plo@@": 5309,
    "counting": 6736,
    "heat": 3434,
    "horse": 3402,
    "ρ": 13893,
    "[": 431,
    "dil": 12656,
    "glob@@": 6702,
    "apo@@": 9760,
    "hier@@": 10711,
    "save": 1729,
    "Kingdom": 1453,
    "Hur@@": 11016,
    "ck": 1192,
    "switch": 6260,
    "Environment": 7174,
    "constit@@": 7134,
    "Dave": 8407,
    "cm": 5945,
    "Real": 9461,
    "con": 9770,
    "heaven": 7491,
    "Nem@@": 12067,
    "suspect": 5295,
    "audit": 2809,
    "amongst": 9215,
    "Jeff@@": 11748,
    "Н": 15064,
    "occup@@": 3408,
    "ip": 4564,
    "present": 755,
    "Amy": 7211,
    "teri@@": 12193,
    "poor": 2710,
    "att@@": 3454,
    "eable": 7300,
    "ạ": 15862,
    "ั@@": 15307,
    "Za@@": 11678,
    "master": 2965,
    "ash@@": 4540,
    "rating@@": 13969,
    "checks": 2752,
    "Jeff": 9532,
    "phra@@": 8575,
    "م@@": 15926,
    "idu": 13932,
    "Eastern": 9277,
    "ion": 981,
    "communicate": 4894,
    "amental": 13428,
    "Baby": 7161,
    "Mary": 4207,
    "constitu@@": 4935,
    "obvious": 5023,
    "ING": 2242,
    "tab": 9787,
    "central": 2231,
    "tility": 7319,
    "time": 115,
    "Council": 216,
    "notify": 3901,
    "attorney": 8055,
    "actively": 8892,
    "ín@@": 12703,
    "genuine": 7790,
    "concern": 2702,
    "nights": 7067,
    "ories": 2999,
    "sumption": 8399,
    "bov@@": 13032,
    "у@@": 13663,
    "jist@@": 14615,
    "dragon": 8656,
    "undertaking": 1475,
    "matters": 1509,
    "Ø": 13486,
    "eration": 3851,
    "appropri@@": 8634,
    "fuckin": 5838,
    "t": 217,
    "OHIM": 5037,
    "sent@@": 8273,
    "dil@@": 6252,
    "scared": 2713,
    "Old": 5748,
    "რ": 15863,
    "jela": 14770,
    "pode@@": 14303,
    "lake": 8033,
    "generally": 2818,
    "extra@@": 2998,
    "bari@@": 12177,
    "pu": 12923,
    "ale@@": 12626,
    "’s": 220,
    "ribe": 10855,
    "well": 246,
    "ML": 10279,
    "六@@": 15774,
    "káš": 14027,
    "!": 35,
    "spe@@": 3525,
    "Jon@@": 7070,
    "zal@@": 12267,
    "exhaust@@": 8304,
    "B": 790,
    "intellectual": 7082,
    "´@@": 7093,
    "Ben@@": 3490,
    "—": 253,
    "exclusion": 7285,
    "himself": 949,
    "alist": 5344,
    "weight": 1377,
    "bye": 4358,
    "Eh": 10886,
    "owners": 8572,
    "ˇ": 15188,
    "avi@@": 7843,
    "mand@@": 10267,
    "auto@@": 11408,
    "dy": 2006,
    "Click": 6583,
    "William": 6719,
    "Edward": 7240,
    "prevent": 1981,
    "asset": 3834,
    "起@@": 15449,
    "Ba@@": 4478,
    "Overall": 9562,
    "Chief": 4889,
    "sugg@@": 10716,
    "supply": 1446,
    "require": 1718,
    "associ@@": 8574,
    "ets": 2023,
    "jit": 13411,
    "mama": 9874,
    "nes": 4289,
    "rts": 9667,
    "ad": 1409,
    "Nat@@": 4504,
    "visor": 9169,
    "⌧": 15073,
    "scen@@": 11288,
    "Clu@@": 8124,
    "escape": 4101,
    "supplement@@": 7367,
    "pit": 9650,
    "bat@@": 3041,
    "VA": 11336,
    "turning": 4777,
    "dětí": 14910,
    "sweet": 2939,
    "warn": 9260,
    "tures": 4337,
    "ym": 12408,
    "éra": 14442,
    "Marty": 9961,
    "comfort": 7619,
    "ứ@@": 15517,
    "sit": 1886,
    "OL@@": 4361,
    "oil": 2369,
    "key": 965,
    "becom@@": 13888,
    "GR@@": 10753,
    "sak@@": 12135,
    "vo@@": 1693,
    "Est@@": 6128,
    "І@@": 15231,
    "Any@@": 10207,
    "Star": 8288,
    "main": 846,
    "tain@@": 4852,
    "changing": 4560,
    "minds": 8802,
    "–": 195,
    "submits": 5371,
    "E": 714,
    "÷": 14161,
    "precise": 5768,
    "sensit@@": 12099,
    "Body": 10438,
    "istan": 8926,
    "Uru@@": 13440,
    "god@@": 8073,
    "He@@": 1513,
    "‚@@": 14525,
    "activity": 1312,
    "limit": 1315,
    "tune": 11052,
    "р@@": 13039,
    "Accession": 6853,
    "Nejvyšší": 14143,
    "nesen@@": 14802,
    "Nancy": 10930,
    "ō": 14741,
    "eless": 4885,
    "termin@@": 5000,
    "evol@@": 9183,
    "server": 3393,
    "Cle@@": 6509,
    "envis@@": 11405,
    "measure": 904,
    "ovan@@": 12075,
    "脛@@": 15687,
    "easy": 1588,
    "Romania": 4103,
    "flow": 3453,
    "Ric@@": 11027,
    "vehicle": 1506,
    "cooperation": 874,
    "viv@@": 10199,
    "ey": 1667,
    "smiled": 4429,
    "agents": 3389,
    "cutaneous": 9014,
    "bole@@": 14094,
    "Jesse": 10863,
    "fire@@": 5173,
    "pig@@": 8310,
    "knife": 4766,
    "per@@": 712,
    "avoid": 2296,
    "put": 400,
    "Pu@@": 7223,
    "expenditure": 1118,
    "monetary": 6744,
    "tax": 889,
    "𝅗𝅥": 15604,
    "Ь@@": 15141,
    "trees": 4252,
    "lots": 5873,
    "answer": 1269,
    "bound": 2986,
    "‖@@": 15515,
    "ické": 13657,
    "Bay": 9897,
    "plan": 883,
    "carrier": 5693,
    "proces@@": 12636,
    "CIL": 13593,
    "dole": 13397,
    "largely": 9454,
    "lis@@": 9899,
    "ong": 3250,
    "wom@@": 11514,
    "bigger": 5097,
    "surveillance": 3632,
    "stly": 5647,
    "Minister@@": 12955,
    "shi@@": 2312,
    "viz": 13598,
    "got@@": 11070,
    "": 15217,
    "ش@@": 15377,
    "aci@@": 10712,
    "amending": 2206,
    "aircraft": 3435,
    "rif@@": 8969,
    "ef": 5812,
    "đ@@": 14436,
    "genu@@": 11715,
    "ه@@": 15376,
    "oking": 4126,
    "instant": 8739,
    "aks": 5072,
    "PROV@@": 8772,
    "ƒ": 15401,
    "½": 12840,
    "remove": 4164,
    "depart@@": 12732,
    "¿@@": 13974,
    "true": 1019,
    "trap@@": 12775,
    "tee": 12110,
    "Flo@@": 10958,
    "smaller": 5437,
    "ś@@": 12866,
    "innovative": 6358,
    "repayment": 9357,
    "Mo@@": 1340,
    "without": 341,
    "porteur": 10238,
    "soudních": 14936,
    "C.@@": 8982,
    "brat@@": 10025,
    "documentation": 4435,
    "forgotten": 5875,
    "officially": 7192,
    "life": 322,
    "ents": 783,
    "defence": 3866,
    "ony@@": 10586,
    "rich@@": 8471,
    "Strategic": 8941,
    "scheme": 1270,
    "protec@@": 9656,
    "stoj@@": 14810,
    "plen@@": 8629,
    "Informa@@": 14694,
    "Sum@@": 6962,
    "ه": 15549,
    "roof": 5942,
    "disappeared": 5886,
    "hmm": 5227,
    "worn": 7409,
    "looks": 1443,
    "probably": 1135,
    "ering": 952,
    "notification": 1976,
    "Sweden": 4140,
    "Administrative": 6543,
    "received": 1158,
    "sch@@": 2931,
    "C@@": 164,
    "opened": 2162,
    "sul@@": 4163,
    "osm@@": 13912,
    "gre@@": 2716,
    "AT@@": 2214,
    "Mmm": 7269,
    "anticip@@": 8028,
    "certain@@": 11211,
    "Du@@": 4682,
    "bra": 10246,
    "excess": 6931,
    "ň@@": 12687,
    "aned": 7308,
    "Cin@@": 10648,
    "Dr.": 1462,
    "想@@": 15466,
    "ce@@": 1404,
    "Cot@@": 10906,
    "pursu@@": 5208,
    "Ha@@": 3600,
    "mother@@": 10128,
    "circum@@": 5696,
    "ella": 6353,
    "aye": 10314,
    "Sele@@": 9235,
    "jury": 9073,
    "Day": 5765,
    "tons": 5654,
    "pose": 4232,
    "theless": 11250,
    "所@@": 15728,
    "Blood": 9274,
    "oh@@": 4567,
    "Wal@@": 2576,
    "centr@@": 11026,
    "Conne@@": 5738,
    "clothes": 3376,
    "ity@@": 5653,
    "creditors": 4661,
    "ت@@": 15553,
    "洲": 15710,
    "closely": 4077,
    "a’": 8470,
    "jak": 12969,
    "PROD@@": 13902,
    "kop@@": 13121,
    "uje": 14247,
    "่": 15871,
    "chances": 9168,
    "김@@": 15637,
    "journey": 5914,
    "Rady": 14063,
    "ster@@": 4405,
    "Ĺ": 15149,
    "info": 10743,
    "Ę": 15982,
    "cry": 5399,
    "ština": 14633,
    "Kapit@@": 13741,
    "competition/@@": 10990,
    "Е": 15394,
    "forem": 14941,
    "康@@": 15742,
    "ropa@@": 10328,
    "bab@@": 6563,
    "der": 923,
    "Special": 3247,
    "geographical": 2934,
    "ikat@@": 14656,
    "treas@@": 6345,
    "Institu@@": 8821,
    "noticed": 4426,
    "bub@@": 9184,
    "ového": 14859,
    "March": 1179,
    "wrong": 675,
    "☒": 14472,
    "Př@@": 13921,
    "approxim@@": 8276,
    "pov@@": 12982,
    "vize": 12477,
    "Ò": 15121,
    "zákony": 14959,
    "hosp@@": 7818,
    "ti@@": 549,
    "Star@@": 3391,
    "suspend": 9605,
    "discus@@": 11278,
    "infringed": 8645,
    "papers": 5390,
    "wo": 682,
    "ams": 4799,
    "dow@@": 8738,
    "AP@@": 3281,
    "changed": 1516,
    "nings": 5055,
    "ט@@": 15204,
    "simil@@": 7453,
    "chain": 4371,
    "sity": 3243,
    "'am": 10012,
    "inspek@@": 14402,
    "never": 256,
    "⌊@@": 15496,
    "nan": 11044,
    "Vice": 8943,
    "DE": 4147,
    "lost@@": 13253,
    "regularly": 5728,
    "DP": 10384,
    "遁@@": 15663,
    "ak": 1395,
    "fo@@": 1255,
    "purpo@@": 12169,
    "ána": 14567,
    "taxi": 10995,
    "Claude": 10992,
    "sha@@": 9490,
    "ky": 1938,
    "frame": 6225,
    "bond": 9618,
    "body": 582,
    "IL@@": 4731,
    "pretty": 1056,
    "birthday": 4011,
    "talked": 3128,
    "Boy": 7089,
    "rek": 11955,
    "dvůr": 14707,
    "share@@": 8180,
    "status": 1902,
    "oro": 11958,
    "ue@@": 12598,
    "context": 1339,
    "endant": 11916,
    "command": 3060,
    "sil@@": 3015,
    "thoughts": 5039,
    "hired": 7621,
    "ář@@": 13939,
    "remedy": 8844,
    "cup": 6244,
    "šť@@": 14426,
    "ģ@@": 14406,
    "spy": 9634,
    "ف@@": 15550,
    "m@@": 363,
    "presc@@": 9617,
    "healthcare": 8186,
    "Mess@@": 8278,
    "spr@@": 7614,
    "cried": 6777,
    "far@@": 4311,
    "One": 652,
    "jest@@": 12276,
    "levels": 1338,
    "character@@": 6852,
    "badly": 7651,
    "Conference": 8740,
    "beneficiaries": 4487,
    "NA@@": 5444,
    "convention": 9387,
    "úni@@": 14957,
    "dumb": 7418,
    "ồ": 15857,
    "Ⅴ@@": 15508,
    "vom@@": 8814,
    "poch@@": 14048,
    "hla@@": 12378,
    "trary": 11965,
    "thi@@": 5107,
    "até": 14973,
    "objection": 7474,
    "students": 5565,
    "é@@": 3157,
    "friends": 1020,
    "Procedure": 2367,
    "sty": 6808,
    "usu@@": 12433,
    "Afgh@@": 12001,
    "solidarity": 10335,
    "Export": 9466,
    "Thus": 3814,
    "bags": 6412,
    "harm": 3889,
    "cti@@": 12095,
    "Penny": 10781,
    "sees": 4156,
    "AG": 7878,
    "basis": 445,
    "Level": 9722,
    "enth": 7529,
    "copy": 2816,
    "paliv@@": 13867,
    "ences": 1827,
    "need": 187,
    "Wow": 2507,
    "ය@@": 15373,
    "asked": 730,
    "Big": 3979,
    ";": 15086,
    "sup@@": 2345,
    "ig@@": 912,
    "qui@@": 5445,
    "served": 2120,
    "loved": 2686,
    "interest": 802,
    "throw": 3224,
    "bey@@": 13249,
    "sor@@": 2357,
    "IE": 8886,
    "Plan": 5272,
    "Tomorrow": 7065,
    "ourt": 13318,
    "cog@@": 11196,
    "sh": 1291,
    "χ@@": 13290,
    "Be": 2454,
    "": 15404,
    "fu@@": 2556,
    "stí@@": 14838,
    "vince": 13009,
    "bach@@": 11545,
    "年@@": 15746,
    "idel@@": 8679,
    "height": 6265,
    "hell": 826,
    "box": 1776,
    "sou": 13533,
    "Dur@@": 10415,
    "ť@@": 13596,
    "oda": 9998,
    "⎯": 15134,
    "ry@@": 2244,
    "kin@@": 4047,
    "knowled@@": 12129,
    "options": 3897,
    "shot": 1371,
    "differ": 9382,
    "profits": 7426,
    "Sp@@": 3047,
    "Mod@@": 5740,
    "Roland": 10266,
    "tives": 4843,
    "Tam": 13304,
    "um@@": 1100,
    "Functioning": 4386,
    "ských": 14664,
    "chapter": 5442,
    "vote": 2781,
    "dé@@": 11897,
    "orie": 12604,
    "ytu@@": 14292,
    "withdrawal": 5456,
    "ratio": 4871,
    "maritime": 6567,
    "possibly": 3966,
    "payments": 1628,
    "ran": 1921,
    "Ho": 11255,
    "oblast@@": 12948,
    "chemical": 3988,
    "correct@@": 11279,
    "cial": 6887,
    "mek": 13098,
    "sustainable": 2459,
    "oct@@": 11890,
    "destroy": 4625,
    "@@": 12972,
    "Israel": 9015,
    "summon@@": 10030,
    "v@@": 754,
    "Explanatory": 9630,
    "kra@@": 12114,
    "Business": 6972,
    "what@@": 7479,
    "analysis": 1591,
    "urity": 11917,
    "ový": 14315,
    "Elect@@": 4782,
    "May": 871,
    "ady": 10470,
    "Administ@@": 12407,
    "ę@@": 12532,
    "pun@@": 2985,
    "hla": 13525,
    "per": 542,
    "tys": 13542,
    "ricity": 12108,
    "cancer": 4456,
    "directive": 2088,
    "！@@": 15615,
    "iner": 8845,
    "directly": 922,
    "La@@": 4234,
    "Leo": 9977,
    "adverse": 2399,
    "performance": 1643,
    "Does": 1686,
    "ned@@": 11661,
    "old": 406,
    "toxicity": 5126,
    "consulted": 8336,
    "OD@@": 7274,
    "cooperate": 5649,
    "book@@": 9980,
    "Ξ@@": 14778,
    "mé": 13069,
    "Green@@": 8664,
    "stu@@": 5614,
    "BI@@": 10220,
    "Τ": 14661,
    "obla@@": 13457,
    "cal@@": 2101,
    "han": 9993,
    "tum@@": 6707,
    "notice": 1503,
    "等": 15696,
    "make": 209,
    "Constitution": 6433,
    "resolved": 8881,
    "˝": 15324,
    "pregnancy": 5851,
    "example": 1206,
    "uprav@@": 13879,
    "political": 1970,
    "invited": 3558,
    "economy": 2351,
    "requested": 1788,
    "•@@": 13255,
    "glu@@": 8331,
    "marketing": 1989,
    "Instru@@": 10059,
    "vessel": 2960,
    "Dr": 6431,
    "NU@@": 11110,
    "moto@@": 13833,
    "extensive": 9026,
    "Contin@@": 7590,
    "Pil@@": 7086,
    "TY": 11508,
    "‡": 13700,
    "k@@": 362,
    "watched": 3779,
    "raid": 11728,
    "technologies": 4167,
    "traffic": 3137,
    "Wo@@": 7237,
    "param@@": 12076,
    "biolog@@": 11484,
    "laying": 2543,
    "Board": 1816,
    "Scheme": 8187,
    "portion": 9558,
    "vial": 6923,
    "pissed": 9625,
    "Explorer": 11186,
    "texts": 7376,
    "Payments": 3651,
    "inher@@": 5611,
    "ank": 3671,
    "presented": 2377,
    "long": 314,
    "PEN@@": 9022,
    "vo": 11788,
    "mass": 3158,
    "prince@@": 14902,
    "risk": 554,
    "multil@@": 12209,
    "virus": 5737,
    "upon": 1003,
    "her@@": 2004,
    "six@@": 9353,
    "Form": 6349,
    "bodies": 1091,
    "zni@@": 13256,
    "nels": 10764,
    "incorporated": 5597,
    "blow": 3826,
    "oms": 5187,
    "ֶ@@": 15570,
    "temporarily": 8931,
    "Ha": 7888,
    "ὶ": 15849,
    "penet@@": 9631,
    "@@": 13163,
    "suffer": 7370,
    "Sm@@": 11564,
    "Gre@@": 3416,
    "conventional": 9189,
    "mur@@": 5221,
    "introduction": 4318,
    "vap@@": 12859,
    "exped@@": 10088,
    "want": 149,
    "sun@@": 3407,
    "assigned": 3215,
    "Hungary": 4962,
    "eled": 9080,
    "designated": 3356,
    "recogn@@": 11494,
    "deriv@@": 8480,
    "chat@@": 10548,
    "deficit": 4793,
    "Bo": 11219,
    "dev@@": 7126,
    "mir@@": 9526,
    "ece": 11123,
    "nia": 6028,
    "hé": 14079,
    "sting": 4036,
    "Afri@@": 13402,
    "Fou@@": 12482,
    "▌": 15821,
    "My": 316,
    "beginning": 2590,
    "‚": 13419,
    "mut@@": 2592,
    "⬆": 15123,
    "recorded": 3736,
    "fully": 1169,
    "dest": 6880,
    "discuss": 5137,
    "open@@": 9838,
    "wings": 7984,
    "lád@@": 14906,
    "edge": 3667,
    "anybody": 2559,
    "lover": 8929,
    "«": 7066,
    "includ@@": 13427,
    "stories": 4541,
    "kak@@": 13018,
    "ape": 10189,
    "Ji@@": 10986,
    "EUR@@": 6941,
    "longed": 7634,
    "Ğ@@": 15594,
    "Rus@@": 8543,
    "sory": 11163,
    "thcare": 11898,
    "What": 63,
    "solely": 4887,
    "distance": 3222,
    "Ď@@": 14956,
    "choose": 2707,
    "‛@@": 14336,
    "Ĵ": 15977,
    "pane": 11449,
    "idents": 10913,
    "ute": 1850,
    "COM(@@": 3523,
    "authorisations": 6375,
    "{@@": 11968,
    "fig@@": 11587,
    "out": 61,
    "Ő": 15119,
    "yal": 9515,
    "refer@@": 7476,
    "coun@@": 2046,
    "target@@": 10702,
    "Fred@@": 10707,
    "fiel@@": 12491,
    "rely": 3125,
    "bit@@": 2514,
    "fascin@@": 10543,
    "horizontal": 6785,
    "dor@@": 6715,
    "TP": 8785,
    "tva@@": 14733,
    "reducing": 4505,
    "organ": 9836,
    "slight": 9503,
    "cigare@@": 14911,
    "racy": 9151,
    "keeping": 3330,
    "price": 798,
    "PC": 9975,
    "combat": 6408,
    "whereas": 3598,
    "eafter": 6869,
    "tej@@": 14137,
    "debtor": 2301,
    "Strana": 14618,
    "shots": 8168,
    "Kos@@": 10112,
    "plates": 7362,
    "New@@": 7275,
    "‹@@": 15042,
    "everything": 599,
    "amend": 5325,
    "ours": 2584,
    "rable": 10941,
    "а@@": 12729,
    "week": 1155,
    "děl": 14259,
    "si": 6791,
    "Austria": 3969,
    "ero@@": 3562,
    "witch": 9402,
    "searching": 8960,
    "scrat@@": 7928,
    "bask@@": 9084,
    "lence": 9859,
    "Њ@@": 15317,
    "pero@@": 11875,
    "liš@@": 14879,
    "ห": 15878,
    "permits": 8648,
    "record": 2183,
    "good": 188,
    "ver": 4467,
    "log": 5487,
    "+": 1576,
    "headed": 4702,
    "honey": 2928,
    "narod@@": 13829,
    "picked": 3592,
    "trum": 12902,
    "some": 171,
    "led@@": 5859,
    "gro@@": 3313,
    "Believe": 9140,
    "ERDF": 5293,
    "creatures": 8350,
    "Ford": 10520,
    "pole": 10987,
    "Μ": 15319,
    "promised": 3629,
    "Slov@@": 12828,
    "Lincol@@": 11102,
    "organiz@@": 7084,
    "jou": 13064,
    "indicate": 3221,
    "mainly": 3675,
    "Elek@@": 12958,
    "Read": 6144,
    "rib@@": 2984,
    "": 15036,
    "eko@@": 13154,
    "D.@@": 6893,
    "girl@@": 11727,
    "│": 14948,
    "Shad@@": 9857,
    "ros": 7322,
    "yel@@": 6487,
    "Té@@": 11905,
    ">@@": 12919,
    "Buil@@": 7609,
    "Sun": 10373,
    "Once": 2600,
    "review": 1236,
    "Nope": 8006,
    "kro@@": 10908,
    "Flor@@": 8301,
    "ential": 4006,
    "denom@@": 9893,
    "erever": 11892,
    "appe@@": 5171,
    "justify": 5786,
    "va": 6671,
    "sub@@": 718,
    "interface": 8382,
    "etu": 14034,
    "pomo@@": 13514,
    "wage": 8527,
    "annual": 1323,
    "lom@@": 10143,
    "usually": 2358,
    "る": 15797,
    "exceeds": 8094,
    "lost": 991,
    "mbH": 13172,
    "sone": 13980,
    "Mark@@": 11175,
    "ble@@": 4071,
    "Control": 4934,
    "possession": 6897,
    "uk": 11903,
    "complaint": 3700,
    "fil@@": 1968,
    "Thom@@": 11534,
    "audiov@@": 10652,
    "Meth@@": 6379,
    "Am@@": 2185,
    "Lau@@": 7203,
    "fra@@": 2005,
    "relev@@": 13611,
    "ocean": 8091,
    "grown": 5026,
    "euro": 2311,
    "®@@": 15599,
    "anti": 1946,
    "transmitted": 6731,
    "rock": 3618,
    "campaign": 7733,
    "uty": 6038,
    "koup@@": 14410,
    "ourselves": 4760,
    "distributed": 8358,
    "ji": 9110,
    "Standard": 7374,
    "gin": 5237,
    "infections": 8490,
    "Ap@@": 3259,
    "eleg@@": 11668,
    "meaning": 1262,
    "absence": 2587,
    "ching": 1471,
    "cting": 2119,
    "cop": 4177,
    "ené": 12962,
    "borro@@": 6858,
    "sulph@@": 6300,
    "Third": 5008,
    "Type": 3304,
    "cements": 9555,
    "heart": 1078,
    "ruling": 2681,
    "ο": 12368,
    "Wel@@": 6662,
    "𝅝": 15339,
    "death": 1099,
    "@@": 14206,
    "chole@@": 11257,
    "trained": 6654,
    "shape": 4035,
    "Medicines": 9777,
    "undertak@@": 10860,
    "long@@": 6675,
    "cotton": 8748,
    "poll@@": 11746,
    "diagno@@": 9276,
    "Question": 8582,
    "Rapporteur": 7666,
    "black": 1492,
    "responsi@@": 12746,
    "]": 359,
    "consider@@": 8535,
    "preparation": 3767,
    "riton@@": 11043,
    "Education": 9463,
    "pido@@": 14132,
    "Р@@": 13946,
    "hl": 11752,
    "specifically": 3812,
    "appoint": 7791,
    "sy@@": 3610,
    "accounts": 1772,
    "ging": 1637,
    "爆@@": 15707,
    "usion": 5603,
    "swim@@": 9467,
    "ry": 838,
    "breaking": 5757,
    "monster": 6809,
    "clarity": 9416,
    "maj@@": 12306,
    "foregoing": 7711,
    "lez@@": 13860,
    "specif@@": 14091,
    "poro@@": 13520,
    "population": 2395,
    "away": 389,
    "Kla@@": 10779,
    "toilet": 8789,
    "ceed": 9281,
    "declarations": 7141,
    "umí@@": 14836,
    "‟": 14630,
    "Rych@@": 14727,
    "pap@@": 10679,
    "či@@": 13270,
    "ร@@": 15202,
    "lements": 6536,
    "stan@@": 5197,
    "ement": 2303,
    "aving": 6691,
    "father": 689,
    "educ@@": 6867,
    "litaz@@": 12764,
    "Never": 2516,
    "EEA": 1736,
    "Langu@@": 12459,
    "opposite": 7277,
    "tip": 7718,
    "renew@@": 12529,
    "riding": 6416,
    "F": 898,
    "Kam@@": 11352,
    "Vir@@": 11159,
    "遊@@": 15348,
    "//@@": 13099,
    "boun@@": 4466,
    "liber@@": 4950,
    "daughter": 1652,
    "dated": 5106,
    "has": 99,
    "partly": 6905,
    "astrointest@@": 10909,
    "@@": 15419,
    "impossible": 2996,
    "lon@@": 4225,
    "¨@@": 13863,
    "T-@@": 4331,
    "poultry": 8327,
    "礀": 15453,
    "zes@@": 13702,
    "limits": 1359,
    "advertising": 6773,
    "sav@@": 5999,
    "Ż@@": 14073,
    "shop@@": 11782,
    "Morning": 6973,
    "ems": 3589,
    "Rov@@": 13060,
    "pel": 10787,
    "gh@@": 1334,
    "an@@": 334,
    "Ṧ@@": 15304,
    "Wendy": 11304,
    "regard@@": 13817,
    "Califor@@": 13316,
    "put@@": 4778,
    "Í": 14569,
    "×@@": 13521,
    "front": 1289,
    "Kontak@@": 14439,
    "Zav@@": 13016,
    "Artic@@": 12865,
    "hlav@@": 14737,
    "nin@@": 10468,
    "recomm@@": 12338,
    "gives": 2670,
    "ground@@": 8804,
    "losing": 4739,
    "Europe": 1010,
    "regulations": 2566,
    "minut@@": 13567,
    "weak": 5051,
    "Sle@@": 9706,
    "Es": 12105,
    "accordance": 293,
    "usu": 14332,
    "portfolio": 9929,
    "rt": 7813,
    "odol@@": 14560,
    "esome": 10518,
    "z": 951,
    "Us@@": 11870,
    "ared": 5629,
    "Over@@": 6190,
    "industries": 8478,
    "sex": 2104,
    "regist@@": 5685,
    "proportionate": 4886,
    "spad@@": 12696,
    "our": 185,
    "ol@@": 1015,
    "traum@@": 10308,
    "TIVE": 5662,
    "aming": 4275,
    "A4": 9520,
    "Yeah": 160,
    "Ved@@": 12914,
    "Ze@@": 9646,
    "calling": 2699,
    "rings": 8820,
    "transl@@": 5866,
    "elements": 2132,
    "precau@@": 14249,
    "hunt": 8669,
    "France": 1911,
    "indication": 4268,
    "‌@@": 15845,
    "clean@@": 8135,
    "Recommendation": 7000,
    "sey": 7748,
    "ờ": 15855,
    "Tel@@": 11097,
    "ass@@": 4859,
    "Asi@@": 10432,
    "who@@": 5776,
    "pet": 6363,
    "Pip@@": 11145,
    "totally": 3351,
    "jin@@": 12339,
    "appearance": 4924,
    "Ж": 15316,
    "did": 103,
    "Really": 1393,
    "bot@@": 10419,
    "lier": 10512,
    "Bry@@": 11088,
    "mountains": 7364,
    "islation": 10883,
    "withstanding": 7702,
    "trans": 9658,
    "ases": 6009,
    "belonging": 7584,
    "An": 1002,
    "publicly": 8475,
    "alleging": 6610,
    "░": 15820,
    "če@@": 13615,
    "@@": 15415,
    "SME": 6589,
    "biom@@": 11436,
    "he": 50,
    "layer": 9234,
    "telefon@@": 14920,
    "ジ@@": 15793,
    "hlí@@": 14771,
    "threw": 5511,
    "Mr@@": 13228,
    "bou@@": 9568,
    "ats": 1609,
    "ented": 2551,
    "snu": 14638,
    "❤": 15815,
    "Par@@": 2077,
    "mal": 5010,
    "shit": 1060,
    "contested": 1540,
    "sector": 990,
    "ת@@": 15555,
    "administrator": 6430,
    "Estonia": 6548,
    "custody": 3992,
    "dates": 4278,
    "3": 78,
    "Reference": 3524,
    "Met@@": 5394,
    "▒": 15293,
    "clu@@": 4418,
    "itable": 5147,
    "files": 2452,
    "June": 921,
    "AST": 9675,
    "ension": 7552,
    "st": 600,
    "Muse@@": 12031,
    "justification": 8528,
    "any@@": 3886,
    "ided": 6439,
    "division": 5824,
    "klin@@": 14122,
    "mg": 819,
    "hands": 1025,
    "admit": 4768,
    "obu": 13928,
    "mid@@": 3626,
    "thus": 1647,
    "Danish": 9036,
    "û": 14990,
    "ols": 4617,
    "hne": 11867,
    "Ɵ": 15235,
    "facil@@": 12080,
    "itive": 8426,
    "Vit@@": 10985,
    "forms": 1741,
    "NC@@": 5185,
    "sums": 9613,
    "conom@@": 13190,
    "accession": 3220,
    "learning": 4360,
    "cheap": 8811,
    "ح@@": 15928,
    "emoglobin": 9225,
    "ose": 3926,
    "experim@@": 8680,
    "dost@@": 12618,
    "Under@@": 4526,
    "itel": 13225,
    "PM": 11143,
    "fut@@": 11866,
    "complete": 1689,
    "pou@@": 5625,
    "file": 1090,
    "ila": 7509,
    "Є@@": 15143,
    "mon": 5064,
    "lit": 6929,
    "omy@@": 12605,
    "People": 2158,
    "motiv@@": 10197,
    "sk": 7735,
    "á@@": 11140,
    "í@@": 10080,
    "chemicals": 9316,
    "Amanda": 10639,
    "signed": 2163,
    "sole@@": 11410,
    "Î": 14934,
    "sva@@": 14236,
    "ku@@": 10758,
    "rapid": 6576,
    "ongoing": 6450,
    "Too": 4214,
    "Rand@@": 11455,
    "privileg@@": 9627,
    "SION": 11477,
    "α": 12284,
    "seeking": 5153,
    "rog@@": 4694,
    "click": 3368,
    "řez@@": 14566,
    "C-@@": 2954,
    "Limited": 9705,
    "odh@@": 13148,
    "represent@@": 11099,
    "ã": 13289,
    "fingers": 4349,
    "oral": 2498,
    "Simplified": 5116,
    "dal": 12268,
    "san@@": 2839,
    "AE": 11889,
    "Grand@@": 6089,
    "interesting": 3561,
    "Ď": 15403,
    "Men@@": 10401,
    "X@@": 1193,
    "tati": 14962,
    "Ô": 15054,
    "len@@": 1782,
    "lili": 14880,
    "okay": 459,
    "Give": 1464,
    "hotov@@": 12754,
    "meetings": 3120,
    "excuse": 4850,
    "Some": 1437,
    "harmful": 8961,
    "Ø@@": 11747,
    "showed": 2609,
    "jej@@": 14421,
    "either": 775,
    "opportunity": 2731,
    "iron": 4928,
    "ahead": 1805,
    "veri@@": 6857,
    "ins@@": 11979,
    "Ş@@": 14234,
    "fanta@@": 9289,
    "apparently": 6623,
    "sors": 7013,
    "dam": 7033,
    "straigh@@": 9118,
    "hear": 736,
    "indicators": 4412,
    "-year": 6352,
    "ribavir@@": 11224,
    "stones": 6993,
    "Appar@@": 12894,
    "Compensation": 4350,
    "Direct": 9002,
    "Chris": 7402,
    "participating": 4219,
    "pre@@": 608,
    "Search": 9758,
    "motherfucker": 9130,
    "fib@@": 9469,
    "oks": 9243,
    "ich@@": 3094,
    "Switzerland": 6153,
    "Perfect": 9746,
    "establishes": 7576,
    "ides": 3179,
    "Eng@@": 6977,
    "human": 749,
    "oper@@": 3788,
    "yet": 753,
    "ič@@": 13217,
    "Fire": 6569,
    "bought": 3552,
    "drag": 8819,
    "issued": 1344,
    "spat@@": 12535,
    "lin@@": 1800,
    "Mr.": 463,
    "gal": 11126,
    "¯": 14982,
    "displayed": 9128,
    "lina": 12192,
    "proved": 6327,
    "governmental": 9304,
    "slo@@": 6248,
    "eut@@": 7235,
    "suffering": 6996,
    "eny": 12304,
    "達@@": 15662,
    "early": 1654,
    "fee": 4461,
    "suc@@": 2386,
    "ley": 1149,
    "Randy": 10312,
    "ural": 8093,
    "Comm@@": 4149,
    "pět": 14858,
    "CS": 8452,
    "conference": 6603,
    "investments": 3367,
    "prison@@": 6508,
    "favor@@": 11910,
    "Washing@@": 14201,
    "素@@": 15694,
    "ROP@@": 11379,
    "required": 677,
    "snow": 6535,
    "Research": 4677,
    "real@@": 2966,
    "railway": 6604,
    "val@@": 2360,
    "Christian": 9044,
    "": 14978,
    "noti@@": 4900,
    "Ů@@": 14980,
    "Fri@@": 6581,
    "H@@": 236,
    "model@@": 12238,
    "UB@@": 12018,
    "establish@@": 12999,
    "Ч@@": 14755,
    "pus": 10590,
    "STAN@@": 11920,
    "B6": 7939,
    "是@@": 15722,
    "pages": 5907,
    "first": 201,
    "ĺ@@": 14955,
    "mail": 2167,
    "ศ@@": 15880,
    "ļ": 15589,
    "econom@@": 6881,
    "tive@@": 10719,
    "Ol@@": 8414,
    "kde": 14140,
    "seiz@@": 7184,
    "rot": 9633,
    "expert": 3746,
    "vest@@": 9688,
    "River": 9723,
    "grass": 7521,
    "ign@@": 4341,
    "ן@@": 15935,
    "Brow@@": 11153,
    "specific": 499,
    "angle": 4936,
    "contributing": 9121,
    "July": 1047,
    "agreement": 811,
    "equivalent": 2239,
    "................................@@": 10546,
    "vam@@": 10318,
    "completely": 2435,
    "spir@@": 3305,
    "sod@@": 12412,
    "ar": 896,
    "E.": 8253,
    "bedroom": 7296,
    "rich": 3637,
    "IP": 2388,
    "accura@@": 13254,
    "pren@@": 11671,
    "CZK": 10658,
    "nul": 10365,
    "tud@@": 14117,
    "Ä": 14390,
    "landing": 6329,
    "inion": 12633,
    "assure": 9232,
    "inib": 9256,
    "CONTENTS": 8192,
    "Win@@": 3884,
    "elektro@@": 14563,
    "en": 429,
    "coverage": 7842,
    "dress": 3693,
    "Sand@@": 8001,
    "Tra@@": 2027,
    "interes@@": 14782,
    "sp": 10450,
    "mezinárod@@": 14921,
    "ista": 12100,
    "Lois": 11267,
    "fixing": 4797,
    "Laur@@": 11729,
    "vitro": 9801,
    "kovi": 14114,
    "guy": 545,
    "FR": 8600,
    "fol@@": 3663,
    "recommend": 7968,
    "instrument": 2531,
    "": 15155,
    "glan@@": 11792,
    "capable": 3011,
    "∫@@": 15827,
    "medical": 2045,
    "Sna@@": 12293,
    "ear@@": 1402,
    "éri@@": 12553,
    "carri@@": 12406,
    "symptom@@": 11716,
    "ħ@@": 14012,
    "failure": 2016,
    ">": 2620,
    "lum": 10984,
    "Five": 4304,
    "dedicated": 8872,
    "primary": 3174,
    "advantage": 2665,
    "Д": 15049,
    "replies": 8693,
    "Ira@@": 8344,
    "practices": 2679,
    "holds": 4831,
    "accept": 2595,
    "Same": 7639,
    "Jess@@": 13610,
    "A.@@": 4052,
    "Ph@@": 5764,
    "shad@@": 11298,
    "goal": 6137,
    "irment": 13119,
    "extent": 2076,
    "side": 512,
    "≠": 13906,
    "lamp": 6539,
    "Hen@@": 9795,
    "relevance": 3261,
    "SH@@": 8461,
    "herself": 2842,
    "com@@": 671,
    "Kas@@": 11225,
    "Paris": 4298,
    "čas": 14871,
    "datab@@": 10334,
    "Hom@@": 8323,
    "ilst": 11644,
    "affects": 9053,
    "ší@@": 13480,
    "state": 894,
    "abilities": 5195,
    "porte@@": 12769,
    "nick@@": 8776,
    "ӡ@@": 15181,
    "wel@@": 2967,
    "shire": 10910,
    "pleased": 6913,
    "improved": 5151,
    "shift": 6334,
    "ach": 3981,
    "woods": 6896,
    "zle": 12848,
    "Her": 1861,
    "Sov@@": 9620,
    "Island": 9944,
    "学@@": 15753,
    "numbers": 2777,
    "age": 456,
    "ží@@": 14459,
    "zero": 5430,
    "Bod": 14104,
    "Father": 3134,
    "Institute": 9552,
    "Bill": 4775,
    "cards": 4688,
    "condit@@": 12766,
    "Daniel": 6057,
    "passed": 2321,
    "liability": 3129,
    "toku": 14961,
    "telephone": 5897,
    "PAR@@": 3758,
    "Cab@@": 10281,
    "foun@@": 5014,
    "Adam": 7334,
    "mí@@": 13661,
    "ml": 2255,
    "Ber@@": 3508,
    "whilst": 7383,
    "recover@@": 7454,
    "neb@@": 12164,
    "pag@@": 6033,
    "Official": 669,
    "formation": 5341,
    "blind": 4804,
    "Let": 395,
    "confidenti@@": 13125,
    "subsidy": 7178,
    "blan@@": 7537,
    "ediatric": 10447,
    "drop": 2899,
    "šť": 14868,
    "eb@@": 2441,
    "years": 263,
    "ican": 7078,
    "manufactu@@": 12724,
    "rová": 13371,
    "ternat@@": 13528,
    "Ō@@": 15275,
    "": 14521,
    "Every": 2632,
    "off": 249,
    "ber@@": 1425,
    "glasses": 7195,
    "hy@@": 1971,
    "secur@@": 7096,
    "cies": 5368,
    "nervous": 4947,
    "thy@@": 10486,
    "Pete": 7764,
    "a.@@": 9533,
    "accompli@@": 8214,
    "implement@@": 12952,
    "First": 1083,
    "ligh@@": 6050,
    "Э@@": 15140,
    "elektr@@": 14679,
    "coher@@": 10117,
    "eras": 8860,
    "stane": 14044,
    "slov@@": 13391,
    "Open@@": 9842,
    "ota": 9867,
    "rooms": 5531,
    "refund": 4079,
    "vin": 7603,
    "Prime": 9992,
    "ges": 1785,
    "Land@@": 8343,
    "Smo@@": 10362,
    "Cit@@": 8005,
    "to@@": 626,
    "outside": 1033,
    "planes": 9366,
    "promis@@": 10585,
    "adop@@": 10956,
    "une@@": 7317,
    "interaction": 7884,
    "called": 633,
    "pev@@": 13326,
    "stop": 716,
    "if": 88,
    "PDO": 8503,
    "ku": 11772,
    "iny": 5261,
    "Minim@@": 10061,
    "cks": 2817,
    "absol@@": 12528,
    "languages": 4445,
    "sess@@": 9246,
    "―": 13234,
    "pers": 3856,
    "icate": 6406,
    "le": 381,
    "web": 6192,
    "announ@@": 6910,
    "ning": 1288,
    "tissue": 7387,
    "²@@": 14330,
    "udy": 11690,
    "strip": 9666,
    "down": 148,
    "ronic": 8048,
    "accompanying": 8198,
    "judgments": 6320,
    "root": 7883,
    "ob": 12002,
    "Convergence": 9619,
    "ov@@": 1421,
    "submit": 1694,
    "smet@@": 12275,
    "ices": 3146,
    "sufficient": 1623,
    "Drop": 8753,
    "Anne@@": 12307,
    "esting": 6303,
    "gress": 9077,
    "Mis@@": 4570,
    "hydrogen": 9717,
    "SP": 10446,
    "pops@@": 13595,
    "draft": 2577,
    "awar@@": 13709,
    "ston": 5352,
    "IBM": 9734,
    "examined": 3349,
    "thresh@@": 10351,
    "@@": 15152,
    "Art@@": 8456,
    "Dal": 13324,
    "believed": 4963,
    "eggs": 5701,
    "QU@@": 6759,
    "ffec@@": 13134,
    "+@@": 3964,
    "Num@@": 10662,
    "ži": 14808,
    "logy": 6792,
    "examples": 9146,
    "sun": 3183,
    "elsewhere": 7419,
    "PL": 11019,
    "ings": 772,
    "oration": 5472,
    "exemp@@": 5360,
    "hate": 1814,
    "itals": 10748,
    "approach@@": 5637,
    "blew": 7899,
    "tainment": 9635,
    "►": 13432,
    "way@@": 10453,
    "everyone": 1407,
    "ń": 13502,
    "ύ": 14405,
    "considered": 698,
    "later": 836,
    "gether": 11020,
    "EI@@": 5726,
    "organisms": 8493,
    "sev@@": 8261,
    "zd@@": 12804,
    "ě@@": 13061,
    "invalid": 7097,
    "Х@@": 14485,
    "න@@": 15902,
    "vised": 10295,
    "enci@@": 11657,
    "net@@": 4639,
    "negativ@@": 12116,
    "nish": 8011,
    "performing": 7483,
    "vz@@": 13686,
    "Ryan": 5668,
    "--": 309,
    "ack@@": 5087,
    "常@@": 15748,
    "ate": 241,
    "'m": 67,
    "specification": 6522,
    "g.": 12320,
    "ray": 4705,
    "ET@@": 4211,
    "sn@@": 4098,
    "poul@@": 11826,
    "Undertaking": 7224,
    "brou@@": 13303,
    "measuring": 7564,
    "port": 2564,
    "might": 418,
    "coins": 9415,
    "Ivan": 10843,
    "spo@@": 3233,
    "zne@@": 13295,
    "Lou@@": 7999,
    "∈": 15833,
    "lá": 14409,
    "hoc": 9895,
    "Beth": 10248,
    "čá@@": 14190,
    "Π": 15019,
    "transitional": 5334,
    "worthy": 9156,
    "ball": 2250,
    "staying": 5134,
    "charges": 2664,
    "breast": 5382,
    "environ@@": 11937,
    "Zim@@": 11649,
    "da": 2328,
    "promp@@": 6834,
    "hypot@@": 10756,
    "agentur": 13977,
    "ò": 12600,
    "fibres": 7331,
    "má@@": 13424,
    "Dob@@": 11869,
    "analyt@@": 10140,
    "calcul@@": 12085,
    "ař": 14815,
    "Nick": 5450,
    "ms": 1330,
    "rors": 10098,
    "Deleg@@": 9032,
    "daddy": 6418,
    "ignor@@": 9864,
    "’ll": 7321,
    "gu@@": 1024,
    "tito": 14065,
    "◄": 15819,
    "repealing": 7222,
    "contra@@": 2529,
    "Ā@@": 15007,
    "icet": 14803,
    "Ple@@": 10382,
    "Explo@@": 12172,
    "Sta@@": 9703,
    "addressed": 2561,
    "ano@@": 11096,
    "independently": 9553,
    "Journal": 729,
    "Area": 4858,
    "ensure": 494,
    "..": 1156,
    "ņ@@": 13538,
    "policies": 1809,
    "older": 3787,
    "blocks": 7754,
    "ligence": 7792,
    "Κ": 14346,
    "Is": 318,
    "EF@@": 5089,
    "prosec@@": 9737,
    "liam@@": 13474,
    "soft@@": 12054,
    "decent": 8720,
    "Add": 5890,
    "√": 13673,
    "Looking": 9561,
    "building": 1566,
    "reserve": 5806,
    "ád": 14697,
    "miz@@": 12426,
    "Kri@@": 12388,
    "cum@@": 8770,
    "incentives": 8284,
    "Tom@@": 7659,
    "Centre": 5175,
    "Tim@@": 5894,
    "available": 478,
    "jo": 10388,
    "Sub@@": 2675,
    "kil@@": 5104,
    "<": 4444,
    "indicative": 8714,
    "rain": 3974,
    "cra@@": 2257,
    "announced": 6688,
    "¶": 10894,
    "rd@@": 11482,
    "offices": 6188,
    "IS": 3735,
    "hang": 3839,
    "osti": 13718,
    "chamber": 6714,
    "Jurisdiction": 4473,
    "centres": 6786,
    "servants": 6502,
    "premium": 8611,
    "Rad@@": 5641,
    "domici@@": 7343,
    "zo": 9407,
    "anda": 7379,
    "banka": 12027,
    "wake": 4114,
    "treated": 1698,
    "Skup@@": 14172,
    "q": 4196,
    "une": 9771,
    "shor@@": 3798,
    "om@@": 842,
    "otec": 14559,
    "vez@@": 13206,
    "週@@": 15664,
    "video": 4005,
    "pam@@": 12401,
    "rise": 2378,
    "О@@": 13771,
    "broad": 4698,
    "­": 12200,
    "ham@@": 4433,
    "begins": 8409,
    "?@@": 7325,
    "η@@": 12548,
    "Ý@@": 14407,
    "fav@@": 5658,
    "Description": 6441,
    "poin@@": 12007,
    "included": 1411,
    "pected": 8240,
    "assistant": 8071,
    "Λ@@": 13560,
    "rape": 9535,
    "stay": 816,
    "Vide@@": 11069,
    "photogra@@": 5628,
    "otro@@": 13896,
    "damage": 2195,
    "rons": 9378,
    "phic": 5880,
    "able": 270,
    "Kal@@": 8640,
    "ă": 12756,
    "erion": 12881,
    "quite": 1379,
    ".e@@": 13030,
    "depos@@": 8340,
    "certainly": 3264,
    "pt": 4436,
    "five": 814,
    "λ@@": 12331,
    "nationality": 5713,
    "ech": 10083,
    "/or": 13049,
    "sir": 563,
    "tak@@": 6685,
    "Reg@@": 3419,
    "conven@@": 5836,
    "Angel": 10572,
    "asks": 5715,
    "centi@@": 11495,
    "umb@@": 3828,
    "candidates": 6462,
    "loyd": 10396,
    "Ode@@": 13052,
    "ledge": 9318,
    "ately": 2523,
    "complaints": 7918,
    "ste": 4634,
    "س@@": 15261,
    "If": 156,
    "competition": 1115,
    "forgive": 5461,
    "cia": 10223,
    "lac@@": 8054,
    "EU/@@": 12430,
    "ir@@": 815,
    "Lic@@": 10121,
    "ards": 2018,
    "dipl@@": 12106,
    "ally": 581,
    "pál@@": 14386,
    "viol@@": 3920,
    "з@@": 14279,
    "@@": 14896,
    "klu@@": 14224,
    "single": 920,
    "Mí@@": 13900,
    "Down": 6926,
    "Ё@@": 15396,
    "Cop@@": 6937,
    "art@@": 5096,
    "в": 13972,
    "critical": 5520,
    "’d": 4967,
    "Kim": 7313,
    "implementation": 720,
    "guests": 8688,
    "Out@@": 4623,
    "count": 2380,
    "Prin@@": 11622,
    "regulation": 1399,
    "draw@@": 5588,
    "respond@@": 10245,
    "BO": 12584,
    "bullshit": 6718,
    "koli@@": 14304,
    "Fig@@": 12399,
    "E@@": 250,
    "dem@@": 1451,
    "V": 1370,
    "art": 2042,
    "Sh@@": 1460,
    "POL@@": 10596,
    "suppliers": 6698,
    "worst": 4253,
    "zbo@@": 14676,
    "Ш@@": 15027,
    "period@@": 5750,
    "fax@@": 13086,
    "auto": 11599,
    "leaving": 2126,
    "button": 4808,
    "projects": 1375,
    "Cust@@": 8489,
    "etings": 11261,
    "ints": 4085,
    "reserved": 6434,
    "up@@": 926,
    "sud@@": 12694,
    "secure": 3921,
    "/EC": 536,
    "orders": 2355,
    "ler@@": 9507,
    "kne@@": 6263,
    "好": 15473,
    "и@@": 12947,
    "ingu@@": 9491,
    "sense": 1431,
    "neighborhood": 9248,
    "ven@@": 2706,
    "played": 4069,
    "kind": 555,
    "resolution": 1888,
    "EL@@": 4007,
    "ds": 1238,
    "comply": 1857,
    "iii": 7408,
    "ǎ@@": 15967,
    "ss@@": 1848,
    "C_201@@": 8927,
    "autom@@": 10247,
    "competit@@": 9530,
    "macro@@": 8839,
    "tok": 13248,
    "Two": 1578,
    "agricultural": 1687,
    "agrees": 7264,
    "freed@@": 10264,
    "phs": 8829,
    "bun@@": 8805,
    "ester": 6022,
    "inspec@@": 5782,
    "SE@@": 7550,
    "Brown": 9903,
    "ย@@": 15883,
    "ony": 2615,
    "ท@@": 15532,
    "ﬃ": 13813,
    "Dot@@": 12790,
    "neutrop@@": 12471,
    "kou": 13332,
    "release": 2974,
    "moves": 8007,
    "guidance": 5025,
    "dova": 10944,
    "@@": 15411,
    "TSI": 9327,
    "p.m.": 3340,
    "pom@@": 12536,
    "Pok@@": 12543,
    "lech@@": 13388,
    "emise": 13897,
    "bottle": 4647,
    "NUTS": 10895,
    "offers": 5976,
    "Jones": 9221,
    "Slovak": 9699,
    "si@@": 788,
    "cess@@": 4210,
    "fos@@": 12793,
    "external": 2148,
    "submission": 3894,
    "results": 1104,
    "jdi": 13889,
    "agricul@@": 13169,
    "tage": 6800,
    "έ@@": 13195,
    "disorders": 4323,
    "prop@@": 12345,
    "Who": 438,
    "There@@": 12162,
    "sou@@": 3100,
    "mode": 2789,
    ";@@": 2727,
    "Jackie": 10242,
    "gs": 1758,
    "mystery": 9483,
    "Mak@@": 11726,
    "psych@@": 6728,
    "buddy": 4129,
    ",": 6,
    "Jim@@": 12019,
    "appeared": 4237,
    "Ο": 14822,
    "founded": 5793,
    "₤@@": 15300,
    "Sergeant": 6477,
    "sa@@": 1136,
    "Turn": 6015,
    "bility": 6099,
    "volumes": 7536,
    "pán": 14937,
    "ech@@": 2806,
    "ක@@": 15542,
    "ivo": 11055,
    "%@@": 2950,
    "fiscal": 4580,
    "nej": 13825,
    "elen": 12806,
    "proceed@@": 8707,
    "abroad": 5676,
    "ж": 15943,
    "Da@@": 4407,
    "if@@": 9872,
    "ffy": 9336,
    "restrictions": 3960,
    "decrease": 5225,
    "informa@@": 13660,
    "freedom": 2513,
    "ψ@@": 15162,
    "Typ": 14725,
    "prac@@": 11784,
    "Rule": 5232,
    "Refer@@": 9791,
    "Conclus@@": 6844,
    "KB": 10473,
    "upset": 4890,
    "u@@": 477,
    "IS@@": 1364,
    "tise": 11375,
    "hus@@": 10768,
    "fe": 8469,
    "schools": 9097,
    "ﬀ": 13383,
    "bits": 7145,
    "shared": 4503,
    "EU/1/@@": 9191,
    "²": 12599,
    "lh@@": 12625,
    "tg@@": 11574,
    "Emer@@": 10184,
    "Devel@@": 12606,
    "forma": 12963,
    "ō@@": 14672,
    "ato": 5773,
    "‰": 14215,
    "iness": 2813,
    "help": 351,
    "Cli@@": 10508,
    "Case": 1211,
    "＝@@": 15214,
    "vise@@": 13512,
    "univer@@": 9567,
    "acting": 2021,
    "dra@@": 1480,
    ")@@": 1351,
    "concluded": 1770,
    "Luxem@@": 12871,
    "integrity": 8015,
    "Tonight": 8599,
    "mechanical": 8173,
    "trodu@@": 14898,
    "mp": 3607,
    "ac": 4128,
    "regards": 1045,
    "entem": 14573,
    "cares": 7024,
    "lot@@": 8242,
    "Vlast@@": 14024,
    "diction": 10597,
    "suddenly": 3081,
    "Ά@@": 14441,
    "threat@@": 5589,
    "ising": 1696,
    "gest": 8018,
    "Make": 3030,
    "Honor": 6700,
    "sought": 3359,
    "niz@@": 11635,
    "downstairs": 8854,
    "studi@@": 12462,
    "symbol@@": 10690,
    "ld": 7756,
    "tel@@": 6212,
    "imi": 12375,
    "¥": 14381,
    "inction": 12344,
    "gallery": 9653,
    "lep@@": 10647,
    "considering": 5428,
    "Put": 2604,
    "Car@@": 1318,
    "pulling": 7860,
    "klob@@": 14326,
    "glucose": 8868,
    "Jess": 11162,
    "expression": 3891,
    "compliance": 1517,
    "jek@@": 13746,
    "protective": 6119,
    "tail@@": 8283,
    "considerations": 5279,
    "nation@@": 9252,
    "arrive": 8428,
    "ím": 14380,
    "I.@@": 4223,
    "show@@": 10213,
    "Scot@@": 6944,
    "junction": 12608,
    "ico": 9132,
    "ida": 7391,
    "arm": 2000,
    "organic": 5600,
    "die": 1052,
    "⅓@@": 15839,
    "merely": 3785,
    "∞@@": 15108,
    "es@@": 601,
    "Te@@": 4727,
    "ful": 1128,
    "Some@@": 7449,
    "smoking": 7622,
    "Eri@@": 10877,
    "kon@@": 9291,
    "registered": 2040,
    "contain": 2146,
    "Sher@@": 9766,
    "ived": 6524,
    "子@@": 15755,
    "mez@@": 12961,
    "Cho@@": 5042,
    "vac@@": 3924,
    "zel": 12077,
    "San@@": 4749,
    "pas@@": 2228,
    "fa": 10533,
    "Vel@@": 11259,
    "accelerated": 4408,
    "gran@@": 7229,
    "eties": 6222,
    "Son": 8869,
    "Ox@@": 11505,
    "result": 984,
    "Find": 5131,
    "鎙": 15656,
    "Bad": 7880,
    "sing@@": 7397,
    "visible": 4506,
    "heart@@": 9219,
    "betra@@": 8324,
    "AV@@": 10163,
    "returns": 7556,
    "nosti": 14167,
    "crow@@": 7648,
    "size": 1826,
    "Part": 1569,
    "itted": 10423,
    "lene": 6819,
    "Spol@@": 14726,
    "alarm": 7007,
    "holding": 1597,
    "little": 267,
    "Jord@@": 12816,
    "Single": 5669,
    "cid": 11731,
    "que@@": 9740,
    "sly": 12639,
    "⌘": 15255,
    "Mon@@": 1280,
    "product": 450,
    "prote@@": 9951,
    "GBP": 11237,
    "Harvey": 10943,
    "‑": 12905,
    "lig@@": 4726,
    "inter": 2364,
    "tr": 12874,
    "grat@@": 6240,
    "zes": 7451,
    "leader": 4938,
    "Austr@@": 8763,
    "ve@@": 2010,
    "vedly": 13491,
    "tady": 14090,
    "insul@@": 6849,
    "terro@@": 10363,
    "Rec@@": 2109,
    "drugs": 4106,
    "monit@@": 11504,
    "CPC": 10449,
    "hom@@": 3052,
    "communicated": 5682,
    "concomit@@": 7828,
    "þ@@": 12544,
    "♯": 15817,
    "knew": 606,
    "veli@@": 12610,
    "Kelly": 8888,
    "bem": 14466,
    "accord@@": 11417,
    "О": 14684,
    "Rub@@": 11325,
    "Susan": 8286,
    "gar": 5356,
    "ό": 14060,
    "stic": 4154,
    "exact": 6232,
    "send": 1560,
    "build": 3536,
    "specified": 1054,
    "iment@@": 12472,
    "sions": 1779,
    "green@@": 11881,
    "reimbur@@": 9107,
    "MIS@@": 11855,
    "vis@@": 1512,
    "Land": 7173,
    "Ç@@": 13327,
    "xth": 9823,
    "cells": 3673,
    "Show": 3433,
    "forth": 6404,
    "mentioned": 1665,
    "Ź@@": 15189,
    "books": 3425,
    "smi@@": 11363,
    "calculate": 8779,
    "store": 3151,
    "õ": 14851,
    "restriction": 6063,
    "fin@@": 1934,
    "poly@@": 3751,
    "zap@@": 11956,
    "Soon": 8650,
    "alko@@": 14087,
    "ular": 4809,
    "Jan": 10837,
    "parents": 1372,
    "oly": 13957,
    "appoint@@": 11894,
    "dish": 8158,
    "ep": 2924,
    "Francie": 13468,
    "discre@@": 8305,
    "requests": 3519,
    "portfoli@@": 12557,
    "achieve": 2668,
    "Portugu@@": 13387,
    "proposes": 8542,
    "ander": 6055,
    "tion@@": 2715,
    "Judge": 8786,
    "argued": 7179,
    "par@@": 942,
    ".c@@": 11797,
    "share": 1361,
    "Larry": 8504,
    "TV": 3310,
    "text": 1593,
    "Ř": 14793,
    "appellant": 6632,
    "statistics": 4230,
    "˂@@": 15088,
    "quantitative": 8722,
    "advokát": 14467,
    "craft": 6924,
    "inka": 13314,
    "baz@@": 12232,
    "trail": 8272,
    "tible": 8318,
    "acco": 12274,
    "incentive": 9001,
    "ol": 1922,
    "Ser@@": 3549,
    "gau@@": 9939,
    "ši@@": 13325,
    "Date": 2320,
    "suicide": 7189,
    "strip@@": 9756,
    "linie": 13552,
    "preventing": 7360,
    "var": 11389,
    "Def@@": 7605,
    "approaches": 8381,
    "poz@@": 13808,
    "var@@": 9464,
    "temperature": 3437,
    "shame": 7336,
    "certifi@@": 13541,
    "described": 2179,
    "lled": 11713,
    "speed": 2460,
    "created": 2896,
    "era": 4792,
    "symbol": 8287,
    "軍": 15667,
    "interpret@@": 11943,
    "via": 2091,
    "atom@@": 10799,
    "client": 3809,
    "umes": 11406,
    "swe@@": 2279,
    "ject": 5028,
    "Ki@@": 8682,
    "particular": 352,
    "R@@": 238,
    "Anybody": 8855,
    "Remember": 3255,
    "vet@@": 12011,
    "Γ@@": 13582,
    "Christop@@": 11343,
    "installed": 5337,
    "Z@@": 872,
    "It@@": 5510,
    "ė@@": 12985,
    "dla": 14170,
    "ä": 13002,
    "gotten": 4991,
    "allow": 1263,
    "balls": 5815,
    "wanna": 1165,
    "pole@@": 12133,
    "Solid@@": 13809,
    "plified": 12802,
    "Consid@@": 7575,
    "quietly": 7136,
    "Yan@@": 11235,
    "fri@@": 6165,
    "ian": 1265,
    "Inforegio": 7239,
    "comments": 2906,
    "guments": 10676,
    "Besides": 4713,
    "objections": 5751,
    "oxy@@": 10767,
    "bike": 9344,
    "院": 15652,
    "addition": 1188,
    "entrusted": 8934,
    "cooperating": 7403,
    "actly": 13791,
    "ik@@": 11350,
    "ci@@": 1012,
    "regim@@": 6840,
    "<pad>": 0,
    "reform": 4115,
    "Hit@@": 10551,
    "village": 5492,
    "lighting": 9063,
    "lov": 12229,
    "polici@@": 12994,
    "Cat@@": 4954,
    "iro": 10381,
    "ová": 12490,
    "gla@@": 5222,
    "Papa": 10097,
    "Q@@": 2721,
    "Del@@": 3772,
    "REGULATION": 2689,
    "@@": 15102,
    "debate": 4922,
    "mun@@": 5591,
    "eth@@": 3099,
    "run": 891,
    "ptal": 14652,
    "sko": 12263,
    "Tri@@": 6628,
    "tiva": 12277,
    "general": 623,
    "rial": 10067,
    "gan": 7152,
    "Eston@@": 11803,
    "society": 2134,
    "XI": 11164,
    "Server": 7206,
    "HN@@": 12440,
    "ingredients": 7961,
    "begin": 3797,
    "ˆ@@": 15208,
    "success@@": 10946,
    "ublic@@": 11816,
    "relat@@": 8769,
    "rap@@": 2354,
    "chir@@": 12849,
    "grab": 6270,
    "Address": 8131,
    "cour@@": 5826,
    "peac@@": 8497,
    "On@@": 6774,
    "intly": 12145,
    "Kó@@": 14502,
    "ru@@": 866,
    "AR@@": 1313,
    "wast@@": 4732,
    "milk": 2213,
    "fle@@": 3941,
    "lu": 10493,
    "insurance": 1587,
    "Fan@@": 9957,
    "religious": 8911,
    "Bas@@": 8308,
    "Ray@@": 9045,
    "regional": 961,
    "scrut@@": 12212,
    "Arab@@": 10671,
    "À@@": 14437,
    "ú": 13504,
    "т@@": 13559,
    "ń@@": 12174,
    "ao": 10413,
    "Cause": 11991,
    "rž@@": 14512,
    "Gw@@": 10896,
    "NPP": 14099,
    "Ny@@": 11768,
    "create": 2150,
    "⌈@@": 15498,
    "tun@@": 6799,
    "nical": 12464,
    "wer": 5194,
    "lou": 13084,
    "Services": 4881,
    "stability": 4270,
    "disrup@@": 9694,
    "olution": 7777,
    "ceny": 13265,
    "flag": 4107,
    "younger": 7188,
    "extreme": 9288,
    "apply": 497,
    "aky": 10831,
    "pain": 1903,
    "pursuant": 985,
    "otherwise": 1947,
    "bin@@": 6415,
    "azy@@": 13624,
    "Mechan@@": 10366,
    "consequently": 7809,
    "exemption": 3690,
    "policy": 625,
    "potential": 1397,
    "tis": 10466,
    "sheets": 5402,
    "tiful": 10239,
    "rections": 9317,
    "pud@@": 11234,
    "import@@": 3770,
    "atmo@@": 7562,
    "ailed": 5206,
    "Ned@@": 10694,
    "ít": 14164,
    "efficient": 2747,
    "Bro@@": 3311,
    "dawn": 9545,
    "pros@@": 12396,
    "tin@@": 5020,
    "contact": 1565,
    "Chuck": 8806,
    "publish": 6890,
    "Aha": 12502,
    "Keywords": 11286,
    "sla": 13726,
    "cí": 14142,
    "culture": 5863,
    "ֽ@@": 15567,
    "Fel@@": 9747,
    "plate": 3848,
    "flight": 2861,
    "bly": 3334,
    "cent": 4747,
    "ting@@": 10417,
    "digital": 5772,
    "past@@": 9126,
    "forgot": 4037,
    "ь": 15001,
    "Economic": 1786,
    "Coming": 9325,
    "Report": 3023,
    "posto@@": 14014,
    "learn": 2542,
    "ute@@": 12787,
    "gor@@": 11328,
    "y@@": 346,
    "dech": 14927,
    "Nic": 13869,
    "Ou": 12827,
    "iv": 10412,
    "Maggie": 10465,
    "submitted": 976,
    "ò@@": 13415,
    "family": 695,
    "jen@@": 12422,
    "mous": 6443,
    "oned": 9816,
    "nosy": 13214,
    "å@@": 12185,
    "mik@@": 14433,
    "JH": 14448,
    "ough": 6999,
    "fish": 1777,
    "N@@": 333,
    "£": 11672,
    "comm@@": 1515,
    "Sin@@": 11301,
    "level@@": 10631,
    "thin": 5393,
    "can@@": 1853,
    "placement": 10562,
    "partner": 2908,
    "stu": 13873,
    "research": 1141,
    "He": 89,
    "Aust@@": 11544,
    "neod@@": 14363,
    "Tent@@": 12858,
    "Hu@@": 4428,
    "ae": 7012,
    "buz@@": 11868,
    "Civil": 2546,
    "Bav@@": 12097,
    "dic@@": 2745,
    "confidentiality": 7835,
    "band": 3350,
    "见@@": 15670,
    "B.": 4714,
    "elek@@": 13455,
    "₫": 15511,
    "stein": 6049,
    "Sun@@": 10171,
    "personally": 6874,
    "teen@@": 10435,
    "ually": 3713,
    "pí@@": 13927,
    "Another": 3729,
    "ease": 5454,
    "美@@": 15691,
    "у": 14017,
    "by": 38,
    "jam@@": 9583,
    "wear": 2602,
    "partners": 3187,
    "被@@": 15671,
    "syner@@": 10107,
    "refuge@@": 9643,
    "6": 113,
    "ci": 10219,
    "enti@@": 3212,
    "Tor@@": 6708,
    "ional": 2391,
    "⎢": 13934,
    "Ș": 15045,
    "finding": 2830,
    "enable": 2490,
    "clear@@": 11933,
    "": 15094,
    "№": 14821,
    "poli": 12803,
    "̣@@": 15956,
    "productive": 7613,
    "Marks": 8322,
    "Friday": 6862,
    "everybody": 2090,
    "Å": 14176,
    "ầ@@": 15226,
    "produ@@": 5861,
    "Ross": 10005,
    "Vra@@": 14289,
    "project": 1389,
    "a": 11,
    "by@@": 5124,
    "How@@": 10498,
    "corporate": 6467,
    "nese@@": 14702,
    "サ@@": 15794,
    "Elizabeth": 9641,
    "million": 844,
    "ubli@@": 13599,
    "nické": 14445,
    "metabol@@": 8567,
    "zi": 10288,
    "陽": 15444,
    "high@@": 4150,
    "helped": 4186,
    "Instead": 7221,
    "execution": 4511,
    "Dead": 9755,
    "NAME": 10084,
    "vad@@": 12130,
    "knock": 7535,
    "dys@@": 11182,
    "backup": 9394,
    "uk@@": 6167,
    "blame": 5323,
    "elling": 4525,
    "discrimination": 3977,
    "až@@": 14260,
    "interested": 1533,
    "ῶ": 15516,
    "Tal@@": 6797,
    "Argent@@": 11254,
    "omet@@": 6551,
    "territories": 7281,
    "ín": 12773,
    "Conver@@": 10063,
    "kama": 14655,
    "mat": 9648,
    "Other@@": 13187,
    "Force": 8987,
    "taught": 5463,
    "mou@@": 4305,
    "almost": 1050,
    "kap@@": 12822,
    "ription": 11320,
    "district": 4833,
    "ong@@": 8197,
    "kdo@@": 14860,
    "horizon@@": 13844,
    "ading": 5642,
    "Qu@@": 1333,
    "shouted": 9314,
    "mptom@@": 11929,
    "tat@@": 8985,
    "Republi@@": 13156,
    "Lor@@": 9695,
    "Technolog@@": 11483,
    "RA@@": 2379,
    "Pay@@": 12008,
    "institution": 1912,
    "os@@": 1889,
    "granting": 3010,
    "Pal@@": 3922,
    "URL": 11074,
    "Spain": 2423,
    "ull": 4286,
    "century": 5816,
    "transparency": 4185,
    "rady": 14118,
    "You": 41,
    "acity": 10203,
    "an": 46,
    "km": 5744,
    "Mimo@@": 14287,
    "η": 13081,
    "Those": 1600,
    "Nau@@": 12383,
    "chlo@@": 12540,
    "zav@@": 13447,
    "talk": 464,
    "needed": 1218,
    "ŝ": 15973,
    "Moreover": 2458,
    "whom": 2611,
    "particul@@": 6974,
    "constant": 7445,
    "İ@@": 14481,
    "motion": 4744,
    "eze": 5904,
    "balanced": 7900,
    "travel@@": 4220,
    "Ÿ": 13044,
    "addit@@": 6585,
    "rather": 1482,
    "tools": 3783,
    "vol@@": 3587,
    "Clo@@": 7361,
    "": 15347,
    "Med@@": 4785,
    "idem": 12647,
    "appointed": 2901,
    "renewable": 6546,
    "Ten": 6705,
    "pust@@": 13564,
    "ith": 3709,
    "Lieut@@": 13766,
    "iky": 13591,
    "developments": 4640,
    "cumul@@": 9575,
    "bul@@": 2370,
    "icul@@": 10789,
    "Vis@@": 6440,
    "und": 6798,
    "toxic@@": 10825,
    "reading": 2635,
    "modi@@": 5183,
    "Agricul@@": 13201,
    "(@@": 748,
    "elect@@": 6652,
    "ody": 5652,
    "cor@@": 1234,
    "ZPO": 10918,
    "Strá@@": 14863,
    "integ@@": 8824,
    "Executive": 6574,
    "Nové": 14343,
    "bak@@": 10871,
    "LI@@": 3482,
    "plan@@": 4072,
    "change": 662,
    "distribu@@": 13031,
    "Kni@@": 12683,
    "ي@@": 15110,
    "on@@": 535,
    "manag@@": 6317,
    "map": 4131,
    "宜@@": 15752,
    "ha@@": 845,
    "inet@@": 13036,
    "sheet": 3474,
    "continued": 2287,
    "aker": 5844,
    "姬@@": 15757,
    "Dam@@": 5644,
    "rective": 9788,
    "terist@@": 11626,
    "pestic@@": 11827,
    "mu@@": 1923,
    "Industrial": 9959,
    "✓": 15816,
    "pr": 12921,
    "domestic": 2496,
    "city": 1568,
    "虎": 15675,
    "chem@@": 5433,
    "tea": 4939,
    "desi@@": 8083,
    "Dutch": 6668,
    "Frank@@": 7568,
    "Ļ@@": 15975,
    "intel@@": 7557,
    "Prů@@": 14306,
    "Ų": 15331,
    "Prof@@": 12415,
    "equal": 1891,
    "fat@@": 4646,
    "sí": 13777,
    "tz@@": 11639,
    "ulti@@": 9193,
    "statement": 1617,
    "lement": 10218,
    "Central": 3231,
    "Tome": 13471,
    "Davide": 14066,
    "obal@@": 12547,
    "¹": 13828,
    "These": 722,
    "source": 2288,
    "flav@@": 7795,
    "lack": 2770,
    "wrec@@": 9424,
    "chy": 6177,
    "ene": 4094,
    "AST@@": 11158,
    "pobytu": 14165,
    "traff@@": 9383,
    "strong": 1834,
    "win@@": 2474,
    "ditional": 12210,
    "Daddy": 3900,
    "planet@@": 13075,
    "cts": 3018,
    "aged": 3208,
    "CD": 6980,
    "Within": 5451,
    "line": 527,
    "ho": 5884,
    "Everything": 2371,
    "team": 1840,
    "blue": 2637,
    "perfectly": 5446,
    "ty": 903,
    "♀": 15221,
    "Shh": 9452,
    "services": 434,
    "ç@@": 10469,
    "Sli@@": 10704,
    "availability": 5582,
    "routine": 8744,
    "Bruselu": 14728,
    "bright": 5193,
    "future": 1049,
    "ή@@": 13088,
    "cal": 7042,
    "contract@@": 11938,
    "Um@@": 11719,
    "Register": 9664,
    "sources": 2404,
    "rec@@": 1214,
    "munici@@": 7963,
    "ch@@": 374,
    "feder@@": 12189,
    "Set@@": 5493,
    "There": 208,
    "liquid@@": 7547,
    "loc@@": 2291,
    "immediate": 4577,
    "established": 691,
    "": 15620,
    "Though": 7731,
    "PA": 10293,
    "Cos": 11751,
    "toler@@": 9844,
    "shirt": 4822,
    "classified": 3116,
    "ens": 1324,
    "termination": 5712,
    "kol": 13609,
    "dech@@": 14200,
    "today": 860,
    "independent": 2470,
    "formula": 8155,
    "TA(@@": 14645,
    "pus@@": 9783,
    "sign@@": 4946,
    "lí": 14703,
    "hiding": 5263,
    "lah@@": 12030,
    "Offic@@": 11934,
    "۞": 15375,
    "ports": 4315,
    "Zo@@": 9891,
    "access": 724,
    "American": 2709,
    "na@@": 1197,
    "unless": 1472,
    "ík": 13274,
    "OLA@@": 13011,
    "ré@@": 11674,
    "joined": 5374,
    "Pret@@": 12652,
    "@@": 15057,
    "Princi@@": 7187,
    "un@@": 175,
    "watch": 1500,
    "Alice": 8552,
    "but@@": 2834,
    "vot@@": 11093,
    "DP@@": 10445,
    "hydro@@": 2963,
    "summer": 4290,
    "ski": 5016,
    "prese": 14007,
    "Argument": 4613,
    "ši": 14740,
    "tang@@": 9409,
    "zom@@": 11245,
    "offering": 6871,
    "madam": 11242,
    "Man@@": 2365,
    "cus@@": 7852,
    "shru@@": 12298,
    "ové": 13951,
    "ke@@": 2245,
    "centre": 4413,
    "￸": 15605,
    "could": 129,
    "บ": 15887,
    "坐@@": 15474,
    "ště": 14245,
    "innov@@": 11425,
    "cleared": 5997,
    "kam": 13837,
    "ůž@@": 14414,
    "bank": 1775,
    "programme": 827,
    "grab@@": 12205,
    "ga": 6686,
    "arda": 12922,
    "nik": 11531,
    "Trans@@": 6194,
    "cut@@": 10286,
    "jeal@@": 12292,
    "observations": 3535,
    "hydr@@": 8970,
    "web@@": 10970,
    "buildings": 4216,
    "infrastructure": 2518,
    "CEL@@": 11966,
    "E.@@": 9884,
    "fair": 1992,
    "Jo@@": 2393,
    "KU": 14121,
    "Public": 4333,
    "benef@@": 5608,
    "fr@@": 11967,
    "circle": 6625,
    "sin@@": 5018,
    "views": 3574,
    "ј@@": 15263,
    "wal@@": 2750,
    "hill": 6866,
    "Repe@@": 9609,
    "Js@@": 14456,
    "Bour@@": 11419,
    "ô": 13750,
    "živ@@": 14067,
    "♦": 15037,
    "ﬁ": 12470,
    "polov@@": 14476,
    "retro@@": 8651,
    "efici@@": 12321,
    "ġ@@": 15052,
    "balance": 1987,
    "inform": 2233,
    "dr@@": 3653,
    "comes": 1219,
    "Jud@@": 4878,
    "gie": 10389,
    "oka": 12319,
    "ří@@": 13554,
    "Mars": 10448,
    "Der@@": 10733,
    "adjust@@": 10078,
    "extraordinary": 8533,
    "I'm": 6016,
    "sphere": 5842,
    "": 15216,
    "restore": 8983,
    "assistance": 1074,
    "absolutely": 4515,
    "PDF": 11206,
    "Enter@@": 11106,
    "ost": 7914,
    "tera": 12312,
    "tively": 5987,
    "cil": 8867,
    "edu@@": 8781,
    "kolá@@": 14092,
    "fined": 8060,
    "cest": 13013,
    "wrap@@": 7125,
    "áz@@": 13258,
    "conformity": 2532,
    "remun@@": 12021,
    "Mam@@": 11655,
    "nat@@": 2794,
    "susta@@": 7090,
    "study": 1507,
    "sell": 2697,
    "gas": 1518,
    "ities": 1126,
    "quotas": 5289,
    "th@@": 323,
    "я": 14112,
    "Bow@@": 10715,
    "Col@@": 2058,
    "kers": 4952,
    "ora": 5407,
    "adults": 6042,
    "BE": 9444,
    "agreements": 1589,
    "ộ@@": 15856,
    "ju": 12351,
    "bund@@": 10277,
    "standing": 2095,
    "ese": 6112,
    "precious": 7009,
    "jumped": 8555,
    "Wom@@": 11272,
    "pit@@": 5264,
    "Mou@@": 10256,
    "mend@@": 11324,
    "codes": 4396,
    "࿰@@": 15866,
    "treat": 3554,
    "р": 14216,
    "vag@@": 9136,
    "stim@@": 12049,
    "oty": 12148,
    "all@@": 8558,
    "olik": 14316,
    "XX": 11285,
    "Shut": 2782,
    "rapidly": 6911,
    "win": 2268,
    "dek": 13250,
    "º": 13017,
    "there": 92,
    "bottom": 4122,
    "lena": 12807,
    "vive": 12603,
    "inj@@": 4427,
    "cas@@": 3044,
    "acknowled@@": 5288,
    "刊@@": 15772,
    "has@@": 12242,
    "Of": 808,
    "Was": 2212,
    "ized": 2943,
    "mas@@": 5078,
    "Author@@": 7987,
    "Emily": 8348,
    "sob@@": 9114,
    "comment": 7226,
    "drinking": 4865,
    "War": 6616,
    "Jest@@": 13532,
    "service": 521,
    "†": 13118,
    "smu@@": 10118,
    "foster": 8747,
    "mile": 6756,
    "Articles": 944,
    "raised": 2428,
    "regard": 470,
    "weeks": 1329,
    "brid@@": 10182,
    "4": 90,
    "As": 368,
    "cy": 2509,
    "models": 6432,
    "Regist@@": 6498,
    "ě": 13938,
    "jem@@": 13550,
    "Ė@@": 15211,
    "corrections": 7932,
    "aware": 2785,
    "": 14993,
    "ภ@@": 15886,
    "Ñ": 15023,
    "gres@@": 8146,
    "Nab@@": 12587,
    "ج@@": 15929,
    "ű": 13590,
    "FOR@@": 8612,
    "opi@@": 12251,
    "et@@": 632,
    "question": 493,
    "Ku@@": 11046,
    "distinc@@": 8307,
    "Barney": 10601,
    "veter@@": 10820,
    "Service": 2041,
    "ingly": 3687,
    "lect@@": 10074,
    "@@": 13343,
    "Dale": 11136,
    "agon": 8130,
    "pri@@": 3092,
    "end@@": 1096,
    "technical": 908,
    "sor": 6017,
    "ľ@@": 13711,
    "Veg@@": 11305,
    "芒": 15682,
    "pleasant": 7650,
    "Amend@@": 10907,
    "dea@@": 7891,
    "SG@@": 8596,
    "dis@@": 258,
    "Tok@@": 10578,
    "Eurat@@": 14103,
    "reven@@": 9335,
    "hem@@": 10394,
    "beg": 8697,
    "dne": 13913,
    "sharing": 5130,
    "aga@@": 11552,
    "handled": 9496,
    "station": 2890,
    "cti": 14086,
    "Federal": 4848,
    "Pan": 11561,
    "Brook@@": 11597,
    "accident": 3064,
    "Jim": 4930,
    "à": 7922,
    "lear": 10876,
    "IAS": 8266,
    "∼@@": 15256,
    "": 14130,
    "Sal@@": 3164,
    "Whe@@": 10640,
    "correct": 2867,
    "..@@": 12393,
    "Test": 7304,
    "Ι@@": 13573,
    "regime": 4157,
    "ko": 4975,
    "decided": 1363,
    "relevant@@": 13968,
    "ga@@": 1357,
    "reas@@": 5718,
    "sama": 12195,
    "divo@@": 13795,
    "Cre@@": 3260,
    "slad@@": 14602,
    "consumers": 2757,
    "expi@@": 7165,
    "berte": 14171,
    "Д@@": 14607,
    "mortg@@": 9354,
    "advance": 3668,
    "Catherine": 10783,
    "gument": 13758,
    "arbit@@": 8364,
    "spend": 3542,
    "situations": 3518,
    "entered": 1731,
    "caution": 7607,
    "marketed": 8226,
    "CF@@": 8494,
    "`": 4231,
    "Z": 4003,
    "default": 3871,
    "ves": 1635,
    "horizont@@": 12704,
    "private": 1106,
    "alisation": 3422,
    "education": 2020,
    "@@": 15195,
    "š@@": 11220,
    "amazing": 3817,
    ".1": 7447,
    "hazard": 9896,
    "Leg@@": 6147,
    "Cro@@": 5258,
    "investig@@": 3111,
    "gender": 7382,
    "eru": 13976,
    "frigh@@": 10968,
    "ici@@": 3619,
    "renewed": 9453,
    "wa@@": 1283,
    "chop@@": 8915,
    "Česká": 13126,
    "dol@@": 8034,
    "un": 4356,
    "@@": 15244,
    "Ы@@": 15314,
    "Ok@@": 11749,
    "ire": 6611,
    "zh@@": 12343,
    "Netherlands": 2684,
    "developing": 3113,
    "comprehensive": 5144,
    "Argument@@": 9773,
    "Anyway": 4143,
    "cu": 12681,
    "arma": 13029,
    "quit": 5234,
    "guarantee": 2074,
    "legality": 6801,
    "Nád@@": 14693,
    "achievement": 8347,
    "浙@@": 15709,
    "terrorism": 8815,
    "Cole": 11007,
    "hepat@@": 10028,
    "notably": 6132,
    "somebody": 1815,
    "hmo@@": 14208,
    "ested": 5798,
    "∗": 15025,
    "ċ": 15278,
    "Ral@@": 12171,
    "SPO@@": 12379,
    "orama": 13364,
    "heading": 1470,
    "distinct": 9358,
    "fre@@": 2829,
    "Convention": 1664,
    "binding": 1557,
    "avir@@": 11932,
    "LA@@": 2396,
    "fit": 2993,
    "access@@": 7190,
    "vr@@": 12727,
    "etly": 12256,
    "equipped": 7003,
    "However": 651,
    "May@@": 6034,
    "pping": 5182,
    "̂@@": 15322,
    "satisfied": 4576,
    "Đ": 15596,
    "stream": 5035,
    "mp@@": 2746,
    "farmer": 9172,
    "back": 151,
    "filled": 3077,
    "she@@": 5745,
    "Sir": 1757,
    "Bla@@": 6286,
    "pac@@": 3842,
    "cry@@": 5156,
    "meas@@": 6747,
    "Michael": 3082,
    "ředitelství": 14510,
    "omo@@": 11277,
    "seconds": 2741,
    "cher": 3289,
    "slaugh@@": 9250,
    "certificate": 2219,
    "mod@@": 2633,
    "alert": 6465,
    "猀@@": 15456,
    "otherapy": 7217,
    "rison": 10126,
    "hn@@": 12954,
    "tees": 11388,
    "Such": 1877,
    "Dod@@": 11529,
    "recent": 3190,
    "kal@@": 11266,
    "Decision": 444,
    "exclusively": 5697,
    "д": 15002,
    "Thomas": 6027,
    "such": 170,
    "Stran@@": 11856,
    "involving": 3584,
    "Ah@@": 10426,
    "believ@@": 5966,
    "lar@@": 6253,
    "beg@@": 10487,
    "living": 1577,
    "TE@@": 3806,
    "Okam@@": 14480,
    "revealed": 8113,
    "CI@@": 2980,
    "Chod@@": 13426,
    "had": 83,
    "ECD": 14205,
    "buy": 2156,
    "boards": 9331,
    "appointment": 4538,
    "suitable": 3934,
    "warning": 4659,
    "cé@@": 13323,
    "ע@@": 15560,
    "........@@": 12086,
    "stopping": 9194,
    "timely": 8630,
    "(5": 4000,
    "worse": 2597,
    "ow": 2812,
    "ta": 804,
    "reve@@": 6475,
    "Caroline": 11114,
    "deep@@": 7833,
    "ĕ@@": 14649,
    "Ś": 13812,
    "him@@": 11347,
    "scientific": 2660,
    ".eu@@": 10994,
    "Proposal": 4616,
    "soil": 5556,
    "Shit": 2916,
    "-": 23,
    "stage": 1986,
    "我@@": 15730,
    "igns": 6828,
    "â": 13208,
    "getary": 11695,
    "rank": 6234,
    "da@@": 2225,
    "search": 3197,
    "lou@@": 4203,
    "Offici@@": 9880,
    "爾": 15458,
    "spon@@": 5318,
    "♪": 1109,
    "Gir@@": 7142,
    "の@@": 15358,
    "chron@@": 12397,
    "Bob": 5330,
    "idy": 13297,
    "ო@@": 15864,
    "cancel@@": 6296,
    "corn": 9922,
    "continues": 6818,
    "navig@@": 10915,
    "Explan@@": 12017,
    "Sure": 1744,
    "7@@": 106,
    "lie": 1649,
    "hole": 3471,
    "trop@@": 8975,
    "국@@": 15286,
    "definit@@": 11463,
    "army": 4045,
    "thirty": 6587,
    "condu@@": 5708,
    "process": 968,
    "yellow": 5215,
    "package": 2800,
    "": 14872,
    "national": 279,
    "Ţ": 15587,
    "È": 15047,
    "unem@@": 11076,
    "oner": 11706,
    "tings": 5506,
    "manner": 2572,
    "Svat@@": 14646,
    "SIS": 8026,
    "eds": 4651,
    "Ι": 14163,
    "baseline": 7617,
    "hra": 13640,
    "Strateg@@": 12662,
    "than": 150,
    "SR": 8620,
    "rate": 799,
    "obli@@": 11533,
    "IM": 11081,
    "MP": 8766,
    "Hank": 9972,
    "spor@@": 11364,
    "IB@@": 9794,
    "uncle": 6650,
    "vou": 13713,
    "experts": 3547,
    "sly@@": 12836,
    "component": 4259,
    "hawk": 12168,
    "capital": 1319,
    "uel": 8129,
    "iti@@": 4422,
    "(1@@": 11974,
    "producers": 1467,
    "intr@@": 9707,
    "kový": 14923,
    "anim@@": 7493,
    "convinc@@": 11090,
    "Secretariat": 8260,
    "": 15617,
    "prom@@": 14033,
    "threat": 4591,
    "EE@@": 9832,
    "dov": 13231,
    "indirectly": 7667,
    "initiation": 6229,
    "Statute": 9179,
    "ˈ@@": 15961,
    "adver@@": 5219,
    "ŕ": 15147,
    "being": 317,
    "differentiated": 7697,
    "cy@@": 3759,
    "anci": 14575,
    "liny": 14531,
    "sers": 7541,
    "Post": 10062,
    "alin": 11899,
    "Thur@@": 8103,
    "fts": 5800,
    "King@@": 11568,
    "quot@@": 8078,
    "spent": 2819,
    "frightened": 9298,
    "icated": 9684,
    "hardly": 5211,
    "¸@@": 14698,
    "Mu@@": 4274,
    "kamar@@": 14626,
    "(2": 738,
    "čer@@": 14497,
    "asking": 2318,
    "higher": 1408,
    "phical": 11523,
    "covered": 937,
    "border": 1746,
    "dit@@": 4004,
    "operations": 1583,
    "micro": 8498,
    "THEMES": 5940,
    "Can": 613,
    "GM@@": 10821,
    "behavi@@": 11619,
    "REGULA@@": 12053,
    "king": 764,
    "recognized": 7713,
    "bovine": 8628,
    "Æ": 15030,
    "pride": 9426,
    "klat@@": 14546,
    "zem": 14663,
    "guaranteed": 5541,
    "takes": 1530,
    "LB": 11295,
    "staff": 1290,
    "lor": 10839,
    "Point": 5585,
    "formul@@": 10477,
    "steal": 5783,
    "ell": 2472,
    "benefit": 1502,
    "EZ@@": 13262,
    "minimum": 1434,
    "freeze": 9432,
    "Unfortunately": 8624,
    "▼": 14791,
    "corruption": 8971,
    "LU@@": 9971,
    "clus@@": 10817,
    "ville": 10113,
    "rence": 7512,
    "eating": 4685,
    "né": 13213,
    "So": 178,
    "iting": 1824,
    "goodbye": 9071,
    "back@@": 3509,
    "Judgment": 7056,
    "investors": 6246,
    "mic@@": 6359,
    "CH": 8591,
    "flex@@": 12188,
    "MSP": 13622,
    "happ@@": 4571,
    "tam@@": 9505,
    "figure": 1692,
    "bit": 989,
    "È@@": 13236,
    "ční": 12572,
    "steel": 3470,
    "use": 205,
    "mov@@": 11241,
    "’": 273,
    "TV@@": 10922,
    "U.@@": 11603,
    "dock": 10039,
    "wider": 8947,
    "uli": 12219,
    "address": 1112,
    "between": 225,
    "Pol@@": 5939,
    "direct": 1422,
    "bor@@": 4443,
    "": 15103,
    "Exist@@": 11083,
    "danger": 4029,
    "crime": 1669,
    "commit": 8951,
    "osm": 14444,
    "¬": 14391,
    "civil@@": 13838,
    "jak@@": 13182,
    "al@@": 271,
    "allocation": 3461,
    "blad@@": 10153,
    "lob@@": 7517,
    "challenge": 4053,
    "ité": 12512,
    "uts": 5528,
    "seh@@": 13501,
    "Tu@@": 4776,
    "ok": 2417,
    "Jerry": 8536,
    "diplom@@": 11371,
    "withdrawn": 7071,
    "−": 12506,
    "Jennifer": 11362,
    "Cru@@": 9296,
    "motor": 4717,
    "ang@@": 1673,
    "s’": 1058,
    "áš": 13380,
    "TH@@": 3355,
    "Holy": 5490,
    "thir@@": 6125,
    "pa@@": 963,
    "Master": 4124,
    "tobacco": 7726,
    "薄@@": 15677,
    "ρ@@": 11906,
    "pendi@@": 13638,
    "Document": 9064,
    "initiatives": 4273,
    "machine": 2720,
    "元@@": 15476,
    "actors": 6725,
    "uta": 12128,
    "ink": 2363,
    "dok@@": 12956,
    "dness": 6922,
    "republi@@": 13246,
    "syst@@": 10888,
    "bles@@": 11472,
    "social": 796,
    "analy@@": 3821,
    "": 15015,
    "Pardon": 11050,
    "girlfriend": 4119,
    "immedi@@": 13376,
    "Cam@@": 3225,
    "provid@@": 12591,
    "autor@@": 13329,
    "GI@@": 11879,
    "decreased": 5996,
    "ff": 1607,
    "ft@@": 9442,
    "ult": 5150,
    "vari@@": 2767,
    "bu@@": 1143,
    "painting": 8495,
    "Name": 2769,
    "Vegas": 10611,
    "p.": 700,
    "action": 532,
    "unknown": 5392,
    "ilure": 10642,
    "Ni@@": 4104,
    "řík": 14792,
    "Por@@": 4820,
    "Hurry": 5047,
    "introducing": 9541,
    "exceptions": 7865,
    "structure": 2366,
    "script": 9512,
    "folder": 6140,
    "ubo@@": 14302,
    "lesson": 8581,
    "Anything": 4018,
    "happened": 627,
    "rych@@": 13430,
    "impression": 8765,
    "ACT": 9762,
    "stitu@@": 10142,
    "look": 312,
    "energy": 916,
    "uli@@": 9510,
    "gli@@": 11066,
    "CT@@": 8380,
    "@@": 15413,
    "appar@@": 12738,
    "holder": 2678,
    "ail@@": 10132,
    "Annual": 4213,
    "ah@@": 4800,
    "experience": 1657,
    "avai@@": 13113,
    "know": 64,
    "≠@@": 14244,
    "matic": 5380,
    "mandate": 6696,
    "inning": 6841,
    "reinfor@@": 4932,
    "chro@@": 5822,
    "uniform": 3537,
    "ements": 4942,
    "": 14710,
    "ize": 4191,
    "AL@@": 2028,
    "clin@@": 6233,
    "lady": 2272,
    "T.": 9278,
    "requi@@": 13894,
    "stairs": 6360,
    "bone": 4302,
    "Inst@@": 11814,
    "towards": 1743,
    "Army": 8526,
    "Mr": 1299,
    "mixed": 5186,
    "diffic@@": 14942,
    "Š@@": 11758,
    "BE@@": 11885,
    "Poor": 8521,
    "opinion": 1036,
    "strategies": 6288,
    "happens": 2159,
    "individual": 1063,
    "dangerous": 2578,
    "Parker": 10459,
    "Fer@@": 4293,
    "otel": 14800,
    "kidn@@": 8716,
    "ා": 15897,
    "murder": 2599,
    "scope": 1264,
    "vla@@": 13312,
    "Dude": 6019,
    "ã@@": 10988,
    "miner@@": 11572,
    "MAN@@": 10027,
    "Fine": 2676,
    ".europa.eu": 9102,
    "book": 1419,
    "Ac@@": 1353,
    "COUNCIL": 4664,
    "Ρ@@": 14050,
    "bai@@": 11971,
    "щ@@": 15043,
    "CT": 10656,
    "erve": 7384,
    "Colonel": 4637,
    "chi": 11309,
    "ced@@": 9290,
    "nn": 10553,
    "powerful": 4486,
    "Red@@": 9676,
    "ﾙ@@": 15607,
    "Francis@@": 10937,
    "Mic@@": 10461,
    "pep@@": 9966,
    "illi@@": 8813,
    "generate": 8959,
    "salary": 8500,
    "ect": 5115,
    "ε": 13586,
    "Mot@@": 10145,
    "referen@@": 12156,
    "Á@@": 12287,
    "Information": 2078,
    "ries": 2229,
    "minist@@": 6210,
    "Ali": 10936,
    "EA@@": 2094,
    "started": 1138,
    "@@": 15048,
    "mer@@": 1286,
    "át@@": 13601,
    "Mur@@": 4983,
    ".cz": 11229,
    "ál": 13705,
    "τ": 13703,
    "lab": 6447,
    "tough": 4720,
    "ze@@": 9930,
    "por@@": 2339,
    "ensures": 8827,
    "looking": 725,
    "dov@@": 11703,
    "Helen": 10015,
    "okol@@": 13864,
    "affect": 2305,
    "Ĺ@@": 15590,
    "¬@@": 14212,
    "ô@@": 11365,
    "matter": 653,
    "oslov@@": 12614,
    "Peter": 3080,
    "CN": 4217,
    "claim": 1202,
    "premi@@": 8699,
    "firm": 3505,
    "Ameri@@": 13652,
    "offence": 7253,
    "Sever@@": 12372,
    "dam@@": 5434,
    "ლ@@": 15364,
    "UE": 6118,
    "Greek": 4635,
    "accidents": 9637,
    "password": 7542,
    "ev": 10333,
    "―@@": 13100,
    "Honey": 5145,
    "concentrate": 8617,
    "CHMP": 9681,
    "CM@@": 9379,
    "OR": 5950,
    "affected": 2216,
    "manifest@@": 9487,
    "nific@@": 10146,
    "mes@@": 6077,
    "Article": 70,
    "imbur@@": 12445,
    "guarantees": 3832,
    "ψ": 15128,
    "˙": 15960,
    "lo@@": 551,
    "operator": 2624,
    "Except": 5029,
    "brain": 2855,
    "➔": 15072,
    "": 15341,
    "Agreement": 705,
    "as": 40,
    "cul@@": 2223,
    "luv@@": 13565,
    "previous": 1884,
    "玉": 15704,
    "С": 14867,
    "authorisation": 1508,
    "bold": 9757,
    "given": 534,
    "discussions": 8472,
    "pending": 5475,
    "ference": 6552,
    "rogen": 9669,
    "žní": 14632,
    "plet@@": 14113,
    "electronic": 2110,
    "we'il": 5513,
    "į": 15277,
    "谢@@": 15669,
    "effected": 8613,
    "계@@": 15287,
    "manufactured": 7380,
    "poš@@": 14966,
    "resources": 1137,
    "We": 107,
    "account": 482,
    "mix@@": 6596,
    "diabet@@": 13459,
    "mane": 12751,
    "Ź": 15969,
    "Saint": 9057,
    "aggreg@@": 6530,
    "Ū": 15146,
    "eti": 12750,
    "ass": 1151,
    "Hal@@": 4434,
    "ty@@": 2802,
    "Valent@@": 11415,
    "difficulties": 4743,
    "humor": 11144,
    "specializ@@": 11998,
    "Y@@": 588,
    "DNS": 11215,
    "レ@@": 15785,
    "inst": 10757,
    "went": 605,
    "rous": 5417,
    "increased": 1424,
    "Farmak@@": 14681,
    "itty": 9691,
    "receive": 2340,
    "kin": 3858,
    "fulfilled": 5548,
    "Out": 4807,
    "zda": 13433,
    "lays": 4093,
    "ߦ": 15308,
    "≦": 15826,
    "ED@@": 4496,
    "tab@@": 5699,
    "s--": 7068,
    "divid@@": 5464,
    "docetax@@": 11216,
    "corrected": 9597,
    "iture": 12371,
    "behavior": 8584,
    "wich": 9727,
    "上@@": 15482,
    "mean@@": 4655,
    "website": 2803,
    "utili@@": 7305,
    "P.@@": 8101,
    "ces@@": 7604,
    "â@@": 10938,
    "'em": 2294,
    "lining": 8822,
    "J.": 7245,
    "M": 1094,
    "importers": 5557,
    "Annex": 361,
    "amended": 1173,
    "lending": 7851,
    "career": 4903,
    "lesale": 9109,
    "eft": 12971,
    "tor@@": 1491,
    "청@@": 15431,
    "contro@@": 13953,
    "castle": 7761,
    "Rid@@": 10227,
    "Hang": 7436,
    "charging": 9207,
    "ガ@@": 15795,
    "Kore@@": 10814,
    "lift": 6805,
    "Hra@@": 13485,
    "Probably": 5304,
    "MEN@@": 10506,
    "Chlo@@": 12899,
    "valid@@": 4982,
    "právní": 14812,
    "ozna@@": 13981,
    "upstairs": 6133,
    "post": 1817,
    "straight": 2475,
    "mare": 8930,
    "ANNE@@": 13041,
    "husband": 1732,
    "Grat@@": 12487,
    "Products": 6328,
    "histor@@": 5896,
    "Ð": 15055,
    "penalty": 6965,
    "tex@@": 8257,
    "ŷ": 15237,
    "tly": 2400,
    "ي": 15922,
    "transfer": 1712,
    "Acts": 7073,
    "board": 1204,
    "decis@@": 11609,
    "grabbed": 9009,
    "ophi@@": 10885,
    "xi": 12480,
    "}": 5841,
    "emat@@": 7707,
    "akor@@": 14225,
    "Come": 282,
    "wh@@": 1216,
    "equipment": 1191,
    "KO@@": 11082,
    "clever": 9229,
    "titu@@": 13617,
    "remembered": 5683,
    "Enough": 7258,
    "M.": 6460,
    "tek@@": 13226,
    "home@@": 9329,
    "profil@@": 12945,
    "雪@@": 15651,
    "exec@@": 3869,
    "］@@": 15611,
    "Doh@@": 12244,
    "Euratom": 4626,
    "aly": 11142,
    "previously": 4353,
    "accuracy": 8391,
    "ér": 13917,
    "apital": 13998,
    "§@@": 14300,
    "caref@@": 13107,
    "United": 1133,
    "Guaran@@": 12474,
    "↑": 12853,
    "bus@@": 7953,
    "across": 1185,
    "au@@": 1231,
    "rope": 7760,
    "Just@@": 8553,
    "slav@@": 13396,
    "before": 206,
    "commod@@": 9524,
    "Sophi@@": 12233,
    "wed@@": 9982,
    "Slovakia": 7894,
    "receiving": 3087,
    "name": 354,
    "Se": 12873,
    "%": 173,
    "revision": 7372,
    "instance": 2634,
    "Sly@@": 12882,
    "HTML": 11458,
    "trip": 3918,
    "pe@@": 953,
    "gir@@": 11918,
    "Rou@@": 9741,
    "chat": 10623,
    "repealed": 6131,
    "legitimate": 4875,
    "starts": 5083,
    "strategy": 2073,
    "sugar": 2066,
    "ỉ@@": 15858,
    "Uprav@@": 14862,
    "otic": 9565,
    "presumption": 7773,
    "": 14486,
    "Kom@@": 11127,
    "hust@@": 12103,
    "transparent": 5646,
    "nici": 13987,
    "л": 14589,
    "faces": 4250,
    "ΐ@@": 15020,
    "ESA": 10665,
    "čk@@": 14482,
    "bac@@": 3373,
    "Steven@@": 11637,
    "Bob@@": 11924,
    "Indi@@": 7011,
    "TS": 3227,
    "ή": 13881,
    "yers": 4173,
    "consequences": 3249,
    "bank@@": 10584,
    "Management": 3195,
    "TIES": 10100,
    "nasty": 9375,
    "app@@": 2208,
    "lic": 2981,
    "frequently": 8250,
    "epi@@": 12119,
    "sé@@": 12824,
    "requires": 2209,
    "…@@": 12964,
    "phy@@": 7197,
    "Panorama": 11125,
    "http://ec.europa.eu/@@": 7504,
    "remains": 3059,
    "Ή@@": 15321,
    "！": 15408,
    "decla@@": 11781,
    "bitch": 2765,
    "tural": 11202,
    "producer": 2891,
    "Kra@@": 9579,
    "Lá@@": 12929,
    "Jessica": 6883,
    "mole@@": 9152,
    "landed": 8996,
    "Mag@@": 3698,
    "igation": 5333,
    "training": 1181,
    "estate": 5110,
    "This": 112,
    "BU@@": 9307,
    "Jake": 5296,
    "・@@": 15484,
    "ali": 8873,
    "enty": 10697,
    "è@@": 7910,
    "Þ": 15068,
    "vola@@": 13438,
    "God@@": 5780,
    "enc@@": 2286,
    "Legislat@@": 11107,
    "competitive": 3283,
    "pered": 11666,
    "rible": 11902,
    "DA@@": 7684,
    "Ł@@": 13252,
    "bez@@": 12581,
    "Corpor@@": 11986,
    "itch": 5615,
    "ote@@": 11700,
    "inary": 4783,
    "penditure": 10252,
    "occas@@": 5538,
    "laugh": 5250,
    "ation@@": 3119,
    "Sev@@": 10440,
    "spring": 5226,
    "PH@@": 9075,
    "okinet@@": 10047,
    "Vor@@": 9767,
    "Joe": 3299,
    "Fin@@": 2060,
    "ࠄ@@": 15913,
    "ved": 4667,
    "entirety": 2359,
    "distingu@@": 5790,
    "hand@@": 2467,
    "effor@@": 12911,
    "Must": 6088,
    "Perf@@": 12458,
    "Taylor": 10554,
    "simpli@@": 5807,
    "Ī@@": 15334,
    "won": 3902,
    "sob": 12998,
    "disputes": 3544,
    "implic@@": 10292,
    "Bor@@": 6044,
    "professional": 2127,
    "frag@@": 6197,
    "ele@@": 1659,
    "prescription": 7810,
    "beast": 8830,
    "neck": 3648,
    "Hvě@@": 14976,
    "Pas@@": 6136,
    "sili": 13680,
    "x": 552,
    "carbons": 8773,
    "void": 7803,
    "±": 8644,
    "Rok": 14126,
    "pet@@": 2530,
    "liation": 11444,
    "Ter@@": 3032,
    "show": 719,
    "Max": 4254,
    "Gra@@": 2482,
    "Dri@@": 6007,
    "pec@@": 4738,
    "Brussel": 11542,
    "dře@@": 14004,
    "calculating": 6743,
    "bis@@": 9668,
    "wn": 1703,
    "Directives": 5572,
    "Total": 2964,
    "Tur@@": 3145,
    "applied": 995,
    "bers": 5449,
    "jat@@": 14264,
    "Stand": 7469,
    "ä@@": 5060,
    "territ@@": 12589,
    "bilities": 11883,
    "ler": 982,
    "Py@@": 10313,
    "outer": 7213,
    "availa@@": 13034,
    "expan@@": 9333,
    "exclude": 8442,
    "director": 7598,
    "formed": 4756,
    "guys": 685,
    "ethy@@": 10589,
    "puzz@@": 9782,
    "strike": 6435,
    "ched": 1240,
    "Hej": 14914,
    "Quin@@": 10472,
    "ro@@": 307,
    "LE": 3614,
    "recommendation": 5703,
    "sustainability": 7157,
    "ISTR@@": 12178,
    "calculations": 9582,
    "Ώ": 15953,
    "bí": 14928,
    "derog@@": 6758,
    "jar@@": 12427,
    "Dé@@": 12650,
    "emy": 10099,
    "style": 5564,
    "illness": 8359,
    "Get": 577,
    "investment": 1225,
    "red": 439,
    "Sad@@": 10371,
    "Za": 13369,
    "lonely": 8512,
    "isu": 14009,
    "zak@@": 12896,
    "cest@@": 10240,
    "do": 44,
    "perfec@@": 11525,
    "egor@@": 12089,
    "quantities": 2979,
    "ul": 4948,
    "ම@@": 15227,
    "º@@": 12726,
    "ghout": 12227,
    "ška": 12890,
    "wide": 2221,
    "Ron": 8559,
    "co@@": 364,
    "said": 145,
    "allowances": 4662,
    "chec@@": 10077,
    ".g@@": 10653,
    "taxes": 4842,
    "wish": 1235,
    "Cher@@": 10793,
    "pt@@": 8755,
    "just@@": 5478,
    "preceding": 6912,
    "Whit@@": 9607,
    "under@@": 865,
    "ι": 13493,
    "Ed": 9324,
    "ip@@": 1995,
    "track": 3130,
    "Gray@@": 10834,
    "visit": 3341,
    "tual": 11694,
    "cement": 5507,
    "constitutes": 4009,
    "不": 15781,
    "Others": 5386,
    "elderly": 9087,
    "vor@@": 11402,
    "aked": 6599,
    "韆": 15648,
    "yo": 8573,
    "ne@@": 742,
    "Dol@@": 9914,
    "Protec@@": 9039,
    "plane": 2798,
    "chy@@": 11701,
    "your": 53,
    "play@@": 7873,
    "ŝ@@": 15972,
    "bid": 6582,
    "asleep": 5805,
    "usual": 4151,
    "A1:@@": 6916,
    "metab@@": 13534,
    "represent": 4382,
    "are@@": 3266,
    "les": 466,
    "Office": 2072,
    "rever@@": 5686,
    "Vira@@": 11271,
    "‐@@": 11895,
    "duration": 2673,
    "ployment": 9165,
    "fact": 615,
    "_": 2598,
    "aspect": 9010,
    "ラ": 15787,
    "Okay": 290,
    "beside": 4999,
    "‎@@": 15179,
    "й@@": 14311,
    "discussion": 6825,
    "young": 1026,
    "asist@@": 14424,
    "burning": 6399,
    "eous": 3189,
    "Egy@@": 14297,
    "љ@@": 15388,
    "Naz@@": 10340,
    "Bond": 9709,
    "ovu": 14194,
    "Ń": 15974,
    "Liber@@": 10563,
    "猀": 15457,
    "AC@@": 1767,
    "Joh@@": 10901,
    "ocid@@": 12739,
    "ochranu": 14614,
    "esi": 13212,
    ".": 4,
    "Top@@": 8290,
    "kan@@": 11935,
    "Unit": 8525,
    "Remarks": 3276,
    "don@@": 2840,
    "průmysl@@": 14965,
    "Ri@@": 4380,
    "Mau@@": 11418,
    "ishing": 3241,
    "Va@@": 11660,
    "luck": 2648,
    "programs": 9135,
    "pres@@": 3027,
    "av": 12549,
    "seriously": 4221,
    "men": 565,
    "å": 13338,
    "Avenue": 11008,
    "ured": 4610,
    "recipi@@": 10169,
    "tower": 8438,
    "ast": 3320,
    "separation": 3820,
    "sci@@": 11569,
    "Eur@@": 12590,
    "Mother": 3970,
    "haps": 13425,
    "fuck@@": 10352,
    "groups": 1894,
    "computers": 8614,
    "visory": 6588,
    "hero": 5689,
    "getting": 793,
    "taining": 5801,
    "instead": 2488,
    "uč@@": 14371,
    "favourable": 5471,
    "CY@@": 12281,
    "Å@@": 12597,
    "kl": 13259,
    "Minister": 4118,
    "národní": 14438,
    "satis@@": 8711,
    "wid@@": 4748,
    "aria": 10070,
    "stav": 13994,
    "Norwegian": 9475,
    "got": 135,
    "Tell": 1092,
    "り@@": 15798,
    "proposals": 2793,
    "گ": 15917,
    "fast": 1948,
    "Miami": 11104,
    "terminated": 8995,
    "collap@@": 7583,
    "hib@@": 9465,
    "Right": 830,
    "Liz": 10975,
    "mly": 7029,
    "str@@": 2517,
    "ph": 4127,
    "nancy": 10889,
    "jointly": 6692,
    "yourself": 855,
    "hibit": 6571,
    "vej": 13747,
    "assium": 9421,
    "sty@@": 10054,
    "floor": 2051,
    "Ma@@": 1432,
    "Pa": 11521,
    "Sch@@": 2761,
    "http@@": 13751,
    "zel@@": 12328,
    "sami": 14827,
    "tar": 6762,
    "nership": 13055,
    "e@@": 275,
    "Polic@@": 10813,
    "separated": 7495,
    "roll": 3943,
    "ap": 8152,
    "chicken": 6562,
    "machinery": 5216,
    "lif@@": 5125,
    "Mitch@@": 11376,
    "length": 3448,
    "ther@@": 2420,
    "produc@@": 12799,
    "’re": 4898,
    "ows": 11513,
    "finanční": 14926,
    "gain": 4997,
    "cat": 4736,
    "х@@": 14399,
    "ál@@": 12843,
    "absur@@": 11331,
    "SW@@": 10404,
    "endy": 13008,
    "Ky@@": 7294,
    "bre@@": 1749,
    "testing": 2902,
    "ivy": 12977,
    "indirect": 5230,
    "ensu@@": 12134,
    "newspap@@": 7446,
    "cyc@@": 10812,
    "CV": 6425,
    "val": 7926,
    "rese": 13418,
    "stroke": 9468,
    "except": 1362,
    "piv@@": 11518,
    "entries": 8362,
    "ง": 15892,
    "Forg@@": 7500,
    "alfa": 9604,
    "oxide": 6957,
    "avoided": 8900,
    "seal": 9592,
    "William@@": 11039,
    "studies": 1555,
    "lat@@": 3104,
    "begun": 8388,
    "patri@@": 10730,
    "ret": 9177,
    "coff@@": 10303,
    "Boh@@": 11390,
    "unusual": 7620,
    "Ð@@": 14608,
    "lil": 13321,
    "cel": 4834,
    "Ralph": 9885,
    "ා@@": 15537,
    "emi@@": 10916,
    "abo@@": 12686,
    "fulfil": 3699,
    "": 14440,
    "pé@@": 13743,
    "Kap@@": 12435,
    "targeted": 7027,
    "marking": 6689,
    "seeds": 9610,
    "м": 15184,
    "akra": 13645,
    "Rada": 13933,
    "Other": 821,
    "輝@@": 15666,
    "requirement": 2437,
    "t@@": 264,
    "we": 58,
    "Sau@@": 11003,
    "subsidies": 7781,
    "never@@": 12429,
    "ż": 14930,
    "reductions": 8133,
    "minus": 9523,
    "ES@@": 1596,
    "is@@": 473,
    "incor@@": 11645,
    "aliment@@": 12953,
    "portu@@": 13815,
    "geogra@@": 8143,
    "preferential": 8116,
    "improving": 4483,
    "genius": 8777,
    "": 15024,
    "supplementary": 7405,
    "outs": 9227,
    "Cases": 6986,
    "grounds": 1867,
    "regret": 8371,
    "human@@": 8295,
    "obligations": 1213,
    "攀@@": 15291,
    "ská": 12354,
    "posl@@": 14677,
    "illing": 8891,
    "GDP": 3273,
    "sal": 5789,
    "mood": 8406,
    "@@": 15619,
    "addy": 12419,
    "PRC": 6236,
    "dala": 13908,
    "int": 2493,
    "Evropsk@@": 14210,
    "Nen@@": 13780,
    "ĥ": 15980,
    "KY": 12637,
    "ři@@": 14434,
    "xy": 9729,
    "CZ@@": 12290,
    "terms": 1034,
    "computer": 1940,
    "Matt": 8795,
    "def@@": 2547,
    "@@": 14471,
    "mm": 2237,
    "slipped": 8201,
    "Spar@@": 10687,
    "Ą@@": 15029,
    "dau@@": 10973,
    "no@@": 873,
    "stupo@@": 13386,
    "currency": 3757,
    "Talk": 6378,
    "naked": 6422,
    "smut@@": 14061,
    "ut@@": 936,
    "Swed@@": 12721,
    "ĺ": 15276,
    "apartment": 3928,
    "UNITIES": 13752,
    "Broad@@": 10810,
    "detective": 8623,
    "casting": 7208,
    "oblast": 14083,
    "dru@@": 7006,
    "ounded": 8067,
    "und@@": 1633,
    "Afghan@@": 13339,
    "index": 7119,
    "psy": 12310,
    "timate": 7909,
    "have": 43,
    "⊕": 15499,
    "whole": 656,
    "liquid": 6092,
    "rend@@": 6255,
    "úřad": 14794,
    "assass@@": 8040,
    "require@@": 12700,
    "pen@@": 1843,
    "Pra@@": 5559,
    "shole": 12202,
    "TAR@@": 9525,
    "ise": 1184,
    "bod": 13629,
    "<unk>": 1,
    "parameters": 5519,
    "意": 15253,
    "dest@@": 4742,
    "Æ@@": 14068,
    "š": 12588,
    "Advisory": 7410,
    "Hum@@": 6256,
    "mad@@": 5052,
    "če": 13545,
    "GN@@": 7291,
    "chick@@": 10431,
    "Steve": 6187,
    "cit@@": 8233,
    "magic": 3946,
    "dem": 12631,
    "concrete": 6566,
    "█": 15294,
    "н": 14449,
    "rab@@": 5633,
    "variable": 7438,
    "圣@@": 15762,
    "jump": 5579,
    "Я@@": 15012,
    "Dan@@": 4870,
    "Nas@@": 12050,
    "¹@@": 14538,
    "ticket": 6975,
    "con@@": 366,
    "U@@": 514,
    "abili@@": 10090,
    "Sek@@": 13309,
    "odu": 14766,
    "seas@@": 8923,
    "jí@@": 14110,
    "Way": 9806,
    "pa": 5970,
    "af@@": 1585,
    "": 15424,
    "noon": 10050,
    "Φ@@": 14232,
    "live": 818,
    "purch@@": 4572,
    "ź": 13955,
    "Ted@@": 13407,
    "solid@@": 11276,
    "ּ@@": 15568,
    "bry@@": 12358,
    "kv@@": 13667,
    "cher@@": 9997,
    "sky@@": 11604,
    "surround@@": 5702,
    "∞": 13653,
    "iko": 12215,
    "je@@": 2808,
    "TIV@@": 11848,
    "arrangement": 5527,
    "yle": 6845,
    "s": 141,
    "executive": 8946,
    "obe@@": 12578,
    "respect": 560,
    "African": 7996,
    "Ros@@": 6751,
    "sku": 14062,
    "conclus@@": 11509,
    "preclude": 8539,
    "cla@@": 2191,
    "Ê@@": 14443,
    "ill@@": 2128,
    "PRO": 13133,
    "initi@@": 5774,
    "Gi@@": 4279,
    "Ё": 15116,
    "CD@@": 10327,
    "ERV@@": 10525,
    "sym@@": 6968,
    "mistakes": 9538,
    "Won@@": 9106,
    "स@@": 15544,
    "د": 15311,
    "arly": 4320,
    "reference": 832,
    "@@": 15250,
    "Sing@@": 10710,
    "芸@@": 15680,
    "Œ": 15588,
    "isy": 10741,
    "San": 6594,
    "Brus@@": 13878,
    "suppose": 3135,
    "funny": 2265,
    "Mex@@": 10497,
    "ective": 11836,
    "ủ@@": 15852,
    "Uni@@": 10483,
    "CP@@": 6790,
    "Il@@": 9677,
    "base@@": 10179,
    "Act@@": 10669,
    "occur": 3903,
    "byl": 12912,
    "eva": 10116,
    "mira@@": 7448,
    "afil": 10693,
    "langu@@": 12370,
    "є": 15160,
    "mit@@": 3002,
    "cat@@": 1933,
    "among@@": 14724,
    "excessive": 5415,
    "OS@@": 8114,
    "thes@@": 6504,
    "island": 4582,
    "another": 383,
    "kat": 13370,
    "OK": 1032,
    "pav@@": 11499,
    "existence": 2397,
    "Velké": 14328,
    "exclud@@": 11810,
    "Indian": 7287,
    "sprav@@": 14875,
    "CP": 8181,
    "isty": 13143,
    "this": 37,
    "": 14551,
    "hod": 13056,
    "Σ@@": 13408,
    "ude": 4876,
    "Jan@@": 4790,
    "apter": 11073,
    "arde": 13499,
    "stopped": 2137,
    "thereto": 5031,
    "Belgium": 3571,
    "tro@@": 3095,
    "Enfor@@": 13111,
    "promi@@": 10927,
    "čí@@": 13685,
    "consist@@": 8056,
    "ction": 986,
    "Ang@@": 5123,
    "aning": 6829,
    "affec@@": 11009,
    "remain": 2140,
    "deal@@": 6806,
    "Unless": 4500,
    "visions": 7812,
    "＝": 15613,
    "′@@": 12486,
    "compli@@": 7941,
    "administration": 1468,
    "slightly": 4528,
    "sted": 6746,
    "wash": 7523,
    "⌦": 13756,
    "Pi@@": 5244,
    "boring": 8957,
    "appropriate": 500,
    "sf@@": 12163,
    "ille": 6409,
    "う@@": 15810,
    "Victor": 9761,
    "brand": 8117,
    "akia": 12863,
    "host@@": 4480,
    "belon@@": 10332,
    "foot@@": 4376,
    "authority": 644,
    "EN.0100@@": 5546,
    "allowed": 1678,
    "prohibited": 5403,
    "inner": 6392,
    "Mas@@": 6712,
    "cars": 4391,
    "ane": 1822,
    "Nothing": 1320,
    "mol@@": 10056,
    "itor": 3731,
    "oo": 9985,
    "Mel@@": 5046,
    "wording": 6111,
    "MENT": 4040,
    "relation": 1461,
    "nus": 11769,
    "import": 1610,
    "Morg@@": 11432,
    "Nether@@": 13123,
    "post@@": 2300,
    "Stre@@": 11113,
    "ĉ": 15983,
    "accepted": 2683,
    "Happy": 6151,
    "anc@@": 7507,
    "financial": 350,
    "Cas@@": 5410,
    "ITY": 7877,
    "verified": 7440,
    "vit@@": 10724,
    "actor": 8689,
    "together": 548,
    "intention": 5369,
    "Bol@@": 10550,
    "borne": 4940,
    "Lee": 7243,
    "dog": 2019,
    "milion@@": 14185,
    "Sea": 5638,
    "thousands": 6085,
    "Pho@@": 8141,
    "discussed": 7061,
    "resist@@": 8126,
    "movements": 7388,
    "pact": 9549,
    "Fucking": 7672,
    "ral": 2174,
    "III": 1554,
    "fortunately": 11004,
    "relationships": 8095,
    "Králov@@": 14913,
    "Ј@@": 15077,
    "indent": 8220,
    "Fun@@": 7031,
    "salt": 7655,
    "H": 1660,
    "band@@": 7694,
    "и": 14298,
    "Ar@@": 1037,
    "bling": 6994,
    "Mit@@": 11399,
    "With@@": 11783,
    "compre@@": 11859,
    "TO@@": 4309,
    "Rom@@": 3244,
    "්": 15898,
    "Agre@@": 6097,
    "vá": 13285,
    "Customs": 4767,
    "Eddie": 6518,
    "hospital": 2645,
    "ĭ@@": 15978,
    "aging": 5619,
    "drinks": 7312,
    "Fax": 10565,
    "CONTEN@@": 13421,
    "How": 219,
    "@@": 15031,
    "ees": 11662,
    "ved@@": 11829,
    "drá@@": 14019,
    "dia": 9018,
    "ica": 3739,
    "CC": 10673,
    "oby@@": 13719,
    "as@@": 398,
    "acin": 10904,
    "footnote": 7120,
    "methyl@@": 11094,
    "r@@": 572,
    "imposition": 7369,
    "SK@@": 11124,
    "strictly": 8460,
    "Association": 3850,
    "ity": 571,
    "author@@": 4303,
    "expected": 1641,
    "Ⅿ@@": 15177,
    "Lie@@": 13257,
    "commer@@": 8721,
    "reason@@": 12093,
    "Ur@@": 6182,
    "ingo": 11222,
    "ordered": 2913,
    "medicine": 2376,
    "victims": 2352,
    ".010@@": 11808,
    "IT": 3738,
    "supervisory": 4484,
    "semin@@": 9585,
    "entiated": 10804,
    "mers": 10000,
    "Dou@@": 4589,
    "⨉@@": 15813,
    "Washington": 7354,
    "exposed": 6319,
    "ё@@": 15161,
    "JE": 14026,
    "La": 6945,
    "ron@@": 3163,
    "Hud@@": 11723,
    "Feb@@": 13389,
    "measures": 245,
    "Seb@@": 11249,
    "ham": 4012,
    "Home": 5739,
    "explain": 2463,
    "federal": 8677,
    "wave": 6636,
    "condition@@": 6765,
    "ole@@": 9266,
    "desirable": 8144,
    "lid": 11548,
    "helping": 4312,
    "priv@@": 5140,
    "yright": 9091,
    "installations": 6648,
    "Ari@@": 9778,
    "Martin": 5734,
    "˝@@": 15273,
    "fruit": 2959,
    "adjustment": 3251,
    "enced": 5005,
    "yer": 3045,
    "Appendi@@": 14752,
    "OP": 11673,
    "days": 475,
    "expired": 4394,
    "significance": 9447,
    "vious": 10746,
    "zub@@": 14539,
    "tuna": 9918,
    "virt@@": 7602,
    "asters": 9211,
    "reply": 4046,
    "Cel@@": 9101,
    "Evropské": 14787,
    "Indie": 14669,
    "Many": 6075,
    "repair": 7138,
    "Bring": 5606,
    "valuation": 9096,
    "Harmon@@": 10790,
    "aded": 5043,
    "seat": 2560,
    "push": 5172,
    "stron@@": 10851,
    "Bě@@": 14847,
    "Ben": 3539,
    "Cal@@": 2273,
    "ώ@@": 13454,
    "ant": 579,
    "cing": 2087,
    "ated": 299,
    "emerg@@": 7514,
    "bones": 6770,
    "pek": 13785,
    "gest@@": 5114,
    "½@@": 13237,
    "Seri@@": 10983,
    "arrangements": 1998,
    "harmonisation": 6720,
    "ency": 1563,
    "departments": 9047,
    "Development": 2457,
    "@@": 15122,
    "ʻ@@": 14891,
    "kissed": 8853,
    "eam": 10678,
    "may": 131,
    "Costs": 8053,
    "짜@@": 15625,
    "ʼ@@": 15066,
    "stake@@": 11640,
    "safe": 1426,
    "Ig@@": 9082,
    "lor@@": 7215,
    "suspension": 4249,
    "ග@@": 15541,
    "ො@@": 15895,
    "Looks": 3752,
    "reasonably": 7868,
    "ur": 3510,
    "current": 1070,
    "considers": 2122,
    "follow": 1630,
    "convinced": 6461,
    "EA": 7266,
    "namely": 3885,
    "medicinal": 1890,
    "sometimes": 2350,
    "spirit": 4375,
    "": 14820,
    "opportun@@": 12667,
    "spl@@": 7670,
    "Portu@@": 14136,
    "Beau@@": 9855,
    "PT": 11002,
    "Budget": 5317,
    "severe": 3591,
    "ček": 13045,
    "owned": 4529,
    "realiz@@": 10911,
    "degree": 3166,
    "pol@@": 3200,
    "wonder": 3167,
    "iev@@": 10174,
    "tic@@": 6595,
    "Clar@@": 8635,
    "addres@@": 11541,
    "optional": 9621,
    "么": 15481,
    "Ne@@": 1852,
    "person@@": 7430,
    "boots": 8989,
    "Ax@@": 10379,
    "qu@@": 708,
    "ez": 5835,
    "which": 65,
    "provis@@": 7908,
    "CS@@": 5488,
    "ข@@": 15368,
    "☞": 15060,
    "device": 2519,
    "cha@@": 3468,
    "án@@": 12546,
    "fuel": 2856,
    "ors": 800,
    "∗@@": 15295,
    "bá@@": 13412,
    "causing": 8106,
    "cycle": 4148,
    "manufacturer": 2742,
    "Moun@@": 9780,
    "MENTS": 9224,
    "define": 5542,
    "lshit": 11247,
    "cere@@": 10859,
    "circu@@": 6894,
    "ligible": 9600,
    "freight": 8965,
    "ŕ@@": 15240,
    "because": 286,
    "ė": 12781,
    "wondering": 4949,
    "ex@@": 636,
    "pay@@": 5766,
    "記": 15349,
    "average": 1755,
    "manufac@@": 14419,
    "ozem@@": 14015,
    "remov@@": 11232,
    "defendant": 3369,
    "predic@@": 5432,
    "Neg@@": 10494,
    "resolve": 8876,
    "Є": 15115,
    "subsidiarity": 9750,
    "concep@@": 7420,
    "Implementation": 9139,
    "itself": 1369,
    "possi@@": 12762,
    "M@@": 231,
    "lec@@": 13313,
    "things": 460,
    "birds": 5098,
    "scar@@": 6932,
    "ĕ": 15595,
    "initiated": 5249,
    "justice": 2189,
    "‎": 15258,
    "earlier": 2422,
    "(2@@": 11516,
    "User": 8386,
    "ator": 1163,
    "fan@@": 10224,
    "icia": 8468,
    "Lev@@": 9410,
    "Swedish": 7958,
    "dri@@": 3360,
    "tising": 12693,
    "nut@@": 10488,
    "¤@@": 13675,
    "Get@@": 8831,
    "Mari@@": 10341,
    "crazy": 1541,
    "words": 1303,
    "Law@@": 9311,
    "commercial": 1672,
    "saved": 3228,
    "ids": 2082,
    "giant": 6820,
    "commitment": 3749,
    "@@": 15412,
    "shown": 2290,
    "jez@@": 14489,
    "Zoe": 11348,
    "houses": 6237,
    "until": 533,
    "And": 93,
    "zad@@": 13238,
    "meters": 6473,
    "President": 1473,
    "encies": 4657,
    "oglitaz@@": 12623,
    "Ⅽ@@": 15296,
    "aty": 7876,
    "bou": 13194,
    "extending": 9282,
    "Pow@@": 8798,
    "Jean": 7193,
    "center": 5324,
    "bro@@": 2165,
    "shap@@": 5426,
    "Eli@@": 8832,
    "napo@@": 14155,
    "Christ": 4092,
    "INTER@@": 7674,
    "zed": 4174,
    "Je": 13239,
    "automatic": 5544,
    "tired": 2783,
    "protein": 7045,
    "victi@@": 12522,
    "arrived": 4339,
    "Person@@": 7298,
    "gun": 1670,
    "Ow": 9693,
    "rov@@": 5761,
    "Os@@": 9680,
    "touch": 2247,
    "isation": 2729,
    "Sy@@": 3258,
    "actually": 913,
    "ඉ@@": 15905,
    "doors": 4222,
    "laws": 2112,
    "ques": 10588,
    "radi@@": 4888,
    "jed@@": 12860,
    "LE@@": 4175,
    "平@@": 15747,
    "chu@@": 12081,
    "vyšší": 14382,
    "itative": 10416,
    "Y": 1252,
    "pleasure": 4190,
    "Li@@": 1415,
    "ted@@": 10280,
    "stali": 13856,
    "subject": 575,
    "cet": 12690,
    "Company": 5906,
    "relating": 792,
    "ekonom@@": 14535,
    "Product": 7664,
    "Trade": 3365,
    "UL@@": 5292,
    "Jak": 14549,
    "replied": 3908,
    "pu@@": 3245,
    "recital": 2614,
    "realize": 3640,
    "ically": 859,
    "Last@@": 9892,
    "Republic": 761,
    "disk": 7827,
    "Sb": 14046,
    "request": 767,
    "pp@@": 8150,
    "Co@@": 1116,
    "over": 180,
    "bert": 9058,
    "stry": 8162,
    "sett@@": 8044,
    "žen": 14953,
    "ode@@": 11526,
    "Mer@@": 2692,
    "Mach@@": 9920,
    "gravit@@": 12400,
    "hurts": 8020,
    "TO": 3611,
    "disgu@@": 6476,
    "Б@@": 13835,
    "limited": 1212,
    "som@@": 4599,
    "Vš@@": 14261,
    "implemented": 2445,
    "psa": 14964,
    "nost": 13508,
    "rth": 12342,
    "ush": 9768,
    "goti@@": 11670,
    "bi": 6802,
    "crap": 5283,
    "representative": 2176,
    "Kle@@": 11663,
    "@@": 15600,
    "剣@@": 15770,
    "bil@@": 3927,
    "law@@": 4081,
    "normal@@": 10644,
    "been": 97,
    "BT": 11374,
    "deadline": 4141,
    "happy": 1226,
    "civil": 1281,
    "approved": 1625,
    "Equ@@": 4985,
    "explicitly": 9547,
    "ƒ@@": 15022,
[...]
